[PAD]
[UNK]
[CLS]
[SEP]
[MASK]
그
이
있
##..
##으로
사
아
##에서
하
"
것
수
대
##었다
가
1
한
나
지
##했다
보
자
다
시
기
전
2
말
일
정
어
없
##이다
모
마
않
내
##지만
##하는
있다
##...
주
##하고
상
때
부
제
무
소
오
인
##에게
중
경
여
위
있는
공
바
고
거
등
생
유
해
비
들
조
##니다
##이라
안
되
만
미
##....
##."
3
우
의
##들이
신
스
##았다
동
도
서
##하게
같
알
20
사람
'
세
선
##한다
##까지
방
불
##리고
발
연
당
##면서
##였다
##에는
구
장
성
더
관
(
문
##다는
영
남
못
물
진
있었다
후
강
개
아니
두
생각
최
저
자신
국
때문
입
눈
결
실
분
것이
##는데
##들은
반
그러
노
-
차
적
4
원
따
##?"
많
받
감
##00
또
현
계
##부터
5
손
돌
할
달
단
예
통
##적인
##다고
##라고
##리는
들어
얼
건
##적으로
피
게
##해서
##으며
좋
파
재
한다
살
역
것이다
##된다
그리고
##하기
##습니다
작
특
##들의
##대로
올
걸
##라는
##리를
##이었다
##하지
카
뒤
목
그런
타
배
추
포
김
##들을
201
##렇게
하는
하지만
열
매
교
잘
##에서는
“
함
##지는
속
명
##기를
죽
했다
때문에
##하여
그녀
참
##이나
출
본
##리가
드
설
데
너
앞
19
대한
요
것은
##레이
경우
##하다
같은
집
날
화
##렸다
6
버
외
처
것을
정도
확
다른
##니까
다시
하나
회
시작
초
프
있었
심
점
했
듯
##이라고
몸
평
과
##에도
크
검
그는
행
표
하고
에
##처럼
새
치
리
맞
누
박
##보다
간
힘
호
순
7
없는
그러나
##!"
쓰
##기에
느
##하면
약
라
사실
직
그의
번
10
이상
말했다
모습
필
양
사용
얼굴
##졌다
위해
나는
변
8
##기도
난
##이는
##th
학
함께
머
이후
##어서
천
##er
##......
잠
않는
종
언
잡
지금
##기가
운
아무
##다가
애
S
금
##in
편
것으로
##하며
##지고
따라
로
한국
9
그래
채
아이
그것
모두
형
끝
코
우리
##이라는
돌아
내가
문제
싶
자신의
태
없다
허
높
투
##!!
:
줄
공격
##으면
군
찾
레
##스트
##으나
각
된다
네
만들
지난
##이지
떨
##왔다
웃
음
##자가
막
체
말을
##기는
##이고
청
승
가능
메
A
200
밝
활
총
##an
이런
산
사이
곳
벌
있을
근
민
않았다
먹
마음
없었다
가장
시간
##사를
삼
병
##지를
증
넘
##되는
이름
완
떠
독
빠
##되어
판
온
충
##자는
##on
절
##이었
친
패
##거나
일본
길
큰
임
용
백
[
그렇게
##력을
모든
존
준
##개를
향
##도록
##가는
##되었다
##어나
토
합
##라도
된
몰
볼
보고
복
상황
왕
북
M
##갔다
모르
##장을
황
별
식
있어
나오
##들에게
필요
##~~
##지도
창
이미
귀
갈
C
야
취
질
놀
다음
항
환
담
은
##정을
않고
바로
광
미국
좀
12
바라
많은
베
##or
서울
아니라
테
##ar
처음
너무
##성이
##입니다
등장
될
엄
왜
캐
T
및
##..."
그렇
키
뿐
##리에
##에서도
통해
뭐
##인이
싸
##하였다
##해야
아닌
또한
커
몇
플
트
둘
상대
많이
이야
##장이
법
역시
폭
떨어
##하면서
되었다
##녀석
말이
0
##떻게
않은
이번
인간
이제
고개를
##이며
##en
철
대해
11
##사가
놓
##이가
B
울
물론
이렇게
##가지
이유
##없이
세계
있던
조금
이어
혼
##상을
##력이
계속
##음을
어느
##자를
##는다
않았
th
디
##성을
루
프로
##인지
침
##at
게임
정말
현재
어떻게
악
##자의
##장은
당시
팔
상태
##들과
##됐다
결국
##--
갑
하지
##스터
##\'
와
##려고
##리아
##스를
아직
##...)
일이
##했던
녀석
존재
것도
##통령
##20
없이
##스의
터
관계
관련
##이트
밀
##서는
w
##혔다
능
##학교
되어
##기로
어떤
##밖에
효
깨
##스는
나타
여러
##.”
##거리
움
##인데
L
권
대표
붙
책
##전히
##머니
사람이
##으니
알고
##나는
##),
그가
보면
##000
##있는
##지가
##다면
동안
바라보
지역
##어요
갖
D
수도
되는
대통령
##주의
중국
히
브
##르는
업
찾아
##스가
목소
순간
내려
늘
##드는
뛰
첫
보여
몸을
사랑
##es
##는지
특히
h
이용
풀
K
P
좋은
15
얻
무슨
같이
##로운
여기
받아
##화를
있다는
##시키
클
##시아
숨
F
##더니
##ou
I
##인의
그런데
소리
페
##났다
##al
당신
거의
s
##인가
##사는
앉
상당
진행
정부
먼
##라이
지나
##주는
모습을
##수가
##원을
좋아
접
등을
팀
##오는
##었고
##인다
골
##되고
위한
##하자
극
##정이
마법
규
놈
##겠다
희
자기
어디
글
##인은
나온
##위를
손을
##므로
##사의
가지고
협
설명
올라
듣
얼마
기록
그녀의
시작했다
+
즉
다만
##었던
만들어
그냥
급
자신이
아버
뜻
논
여자
##치는
##이를
쪽
헤
18
눈을
알아
정신
##부분
##지막
##시에
농
밝혔다
축
##원이
##is
옆
##린다
30
정도로
끌
움직
##진다
흘
##수를
##하지만
결과
빨
돈
G
##했고
그래서
그대로
그녀는
##제로
추가
블
매우
이를
곧
##들도
##자기
##릭터
흔
##스로
이것
##식을
##ed
##시간
않아
##도를
경기
수가
홍
내용
않을
있고
##위원
##........
사건
쳐
the
##os
맡
##리스
사회
의미
대답
국가
낮
##쳤다
기술
전투
범
캐릭터
##치를
##동안
H
엘
E
##명을
##19
알려
자체
때문이다
잔
##리지
면
그를
오늘
##문을
있는데
잠시
선수
일부
마지막
암
##대한
N
한번
살아
믿
##id
더욱
사라
탄
##선을
##.....
##도가
직접
##명이
없어
##전에
부분
빛
##대의
##고는
해도
일반
가지
16
##대를
중요
##이야
##다보
머리
괴
무엇
]
분류
##as
바람
##국의
슬
##마다
##도로
피해
방법
크게
효과
탈
술
##회의
##10
육
모양
친구
‘
##인을
휘
##려는
않는다
긴
망
##구나
##동을
##스러
##원은
시즌
##어가
##로는
##리즈
말에
갑자기
서로
13
계획
##우는
월
흐
##물을
##소를
대부분
대신
최고
아니다
이날
##re
나를
국민
칼
##ing
먼저
격
t
##it
니
##장의
##전을
얘
R
##드를
##상이
##하던
던
##ap
##잖아
짓
##리로
/
밤
기다
?
케
나가
##같은
##에선
쉽
이러
얼굴을
거야
있으며
가슴
##이지만
레이
다가
##le
혹
##냈다
14
「
달리
##om
사람은
199
만나
##리의
##그래
플레이
쓸
경찰
##ic
남자
넣
봐
연구
확인
이에
전에
응
윤
라이
##한테
겨
##원의
주인
##스럽
감독
어려
##랐다
슈
멀
등의
아주
##(...)
드러
m
##명의
입을
##운데
측
17
영화
##수는
마치
##들어
있다고
인물
경제
가까
북한
궁
##가를
지원
그리
##중에
##만큼
##년에
성공
##이라도
퍼
##르면
묻
##이란
f
##세요
작품
수준
o
그때
해당
국내
.
이루
덕
언제
결정
발생
100
일을
b
높은
향해
앞으로
벗
위해서
##르고
들어가
분명
##하였
##기의
##어난
전혀
##?”
##했지만
정보
학교
전체
송
보인다
누구
##아서
봉
달려
어린
빼
학생
팬
##내는
이해
##리며
풍
하면
꺼
엔
##시는
비슷
포함
##트를
잃
만큼
옷
어머니
준비
##의를
땅
기억
아래
정치
깊
있지만
대해서
하다
엄청
##.......
자신을
##점을
있어서
##자로
##이스
기준
##겠지
기본
W
##나라
##심을
숙
운영
못하고
예정
O
최근
##와의
사업
##군요
여성
쉬
사람들이
제대로
c
것이었다
표정
발견
교육
시리즈
이곳
##르게
아마
전쟁
##대에
##과는
폐
나와
개발
##씨는
##장에
기분
새로운
후보
##되었
홈
같다
##드의
##른다
상당히
작은
##히려
##움을
휴
##대가
꿈
##합니다
##으로는
방송
이는
##했다고
싫
쿠
##어진
기업
##없는
##되지
##시오
석
워
당연
##el
해서
##어도
압
보였다
##[*
힘을
영향
##가가
곡
밖
이야기
##라면
##장에서
25
즐
오히려
못한
원래
가운데
인해
의해
##드가
##회를
있습니다
자리
##임을
그것은
그래도
일어나
한편
까
왔
나라
##대는
하루
만든
동시에
##이기
있었던
참고
위치
##ad
##부는
해야
되었
##더라도
##했을
##과의
흑
##나가
스타
##겠지만
착
##im
가진
약간
##어버
#
##지지
빌
##이의
적이
##격을
##화가
자세
##한다는
##.1
느낌
뭔
##지의
##으면서
선택
제외
걱
자유
과거
끄
읽
등이
지난해
받고
꽤
<
일으
나서
하늘
##만이
제작
##같이
틀
##부를
증가
답
했지만
##수의
##상으로
다양
일단
없을
못했다
##아가
a
##치고
하며
##렀다
좌
굳
##조차
주장
들고
보니
가는
완전히
묘
보이는
느끼
뜨
대학
##201
이러한
없었
러
##로서
보내
##겠다는
##도의
또는
익
##이어
따르면
##간에
##and
듯한
나오는
이동
스킬
욕
그들은
실제로
요구
마찬
그럼
혼자
발표
앞에
도시
##상의
##적이
##치가
U
##정한
견
d
##겼다
##-1
of
빠져
흥
##웠다
마찬가지
##.0
##이라면
나의
끼
괜
##섰다
주변
기대
전문
불가
##식이
생활
,
활동
##50
50
참여
##그러
인터
오후
##이자
능력
행동
##apos
##제를
##지에
받은
잘못
되고
##하는데
게다가
##am
뉴
##하다는
마을
겁
##도는
티
##감을
##물이
역할
결혼
끊
가져
주인공
##느냐
멈
##다니
##상에
얼마나
##위에
여전히
죄
신경
스스로
##지로
##ion
##사에
##제가
핵
##하기도
꼬
중심
잡아
시간이
꼭
조선
빈
##어야
품
##ac
p
써
딸
##보고
##내가
##와는
유지
위에
때는
펼
##계를
##어져
##랜드
분위
##이에
많다
인정
유명
보는
확실
꾸
물었다
제공
위험
그것을
##시켜
생각이
있지
붉
##으니까
출신
##30
##et
##il
기사
##안을
##보다는
어깨
~~
돼
보통
씨
##스타
##였던
머리를
사고
##성은
그림
##문에
섬
21
##듯이
##체를
##겠다고
놀라
녹
푸
##주고
들었다
##스럽게
가족
정확
자연
##군의
##트가
드래
--
##기업
##에게는
공개
노래
##부의
##해도
비교
##그램
##술을
소속
수는
하여
오는
조사
찬
강화
앉아
##ol
잊
남아
##부가
구성
##.2
똑
V
시절
##ig
소리를
생각을
→
사실을
경우가
##트는
나무
충분
방어
##번째
눈에
느껴
뒷
조용
특별
냉
##이션
색
아름
24
오른
옮
##겠습니다
##로부터
짐
예상
##구를
마련
검은
언급
##센터
이전
억
사람을
##리그
##켰다
아니었다
(...)
쓰러
##스러운
뽑
198
##세를
혈
부족
넘어
사진
찍
~
##us
표현
삼성
이름을
일어
##만을
##있다
들려
이때
지켜
##관이
##분류
걱정
오래
##들었다
##권을
맛
벽
반응
##일이
문제가
따라서
없다는
##he
같았다
두고
생산
국제
다양한
##만원
나왔다
올해
타이
##스템
중요한
##idth
##습니까
22
프랑
받았다
훈
자주
타고
##.]
기존
평가
##만한
##!!!
문화
##개의
있게
젊
##숨을
판매
현대
##이터
##에서의
뒤로
현실
##쪽으로
##비를
졸
아무리
쓴
그들의
몬
##들에
카드
##한다고
끌어
##자인
뛰어
비롯
##이드
##기고
그녀가
소리가
##서를
비해
2017
개인
쉽게
되지
##심이
##리어
사망
해결
경험
##가락
염
강력
듯이
솔
있기
말씀
##장으로
##ow
##함을
##행을
독일
사람의
속에
형태
##하거나
돌려
##분에
끄덕
##).
음악
굴
장면
중앙
*
##단을
것처럼
우리는
##tt
혐
공식
##금을
##체가
##약을
불러
##놓고
최대
않다
딱
생각해
##트의
##.5
열린
의견
40
그만
배우
과정
빨리
지방
어렵
최종
되면
듣고
얼굴이
##간다
대한민
차지
헌
대체
23
##업을
성격
없고
##일에
l
##이크
##ag
##니아
나도
아침
##천히
사람들은
##했다는
마음을
퇴
##지요
##음이
##씨가
자동
##원에
##하려
##리기
주는
힘들
##준다
2014
##등학교
##가의
선생
이야기를
치료
##으로서
##신을
고려
나온다
민주
컨
##하니
##문이
천천히
##상은
늦
##님이
[*
거기
주로
##움이
##말로
##어를
전부
도망
##아버
각각
##보는
##신이
번째
##선이
드래곤
불구
##사와
갖고
낙
바닥
##었지만
##거야
##.)
우승
##위원회
J
손에
그녀를
엄청난
흘러
샤
##위가
모습이
금융
그저
##사로
##하다고
##키는
##적을
절대
##았던
최초
있었고
우리가
맥
##----
훨
##대표
##스와
##이면
##위는
구조
2015
##은행
지속
무시
##아니
##수록
##자들이
to
한다는
둘러
유일
##점이
강조
##나마
싶은
방향
하였다
##부에
안에
속에서
괜찮
《
돌아가
강한
##200
##내고
##성의
적용
##?)
부산
일은
##원으로
비슷한
진짜
쳐다보
##이로
애니
훨씬
##ent
추진
밖에
설치
떠나
회복
조직
##식으로
##어로
영국
##전에서
우선
걸어
##트로
가득
주요
모르는
눈이
누군
말았다
하기
2016
상처
##주를
날아
아버지
만약
어찌
있도록
판단
넓
년
##멤버
##까지는
##다운
나머
##일을
여기서
집중
##//
짧
밑
##정은
하는데
단순
레벨
정책
달라
##이기도
투자
##이었던
출연
가르
든
##했는데
찌
가격
##군이
##리와
수밖에
올려
류
보이지
오전
##하나
2018
##예요
그럴
하면서
##히는
상승
바라보았다
프리
프로그램
바뀌
##.'
쥐
##경을
별로
##리카
것에
##것도
굉
##스크
소녀
도착
고통
안전
외국
등에
##이라며
보았다
##ch
못하는
부르
쇼
미소를
##거렸다
)
파괴
맨
##경기
##.."
가능성이
##명은
##지어
보호
##으므로
##11
##력은
아니면
꽃
누가
##만에
몬스터
##당한
그게
26
그것이
다니
##께서
27
##시킨
...
28
옥
아예
##관은
방문
물러
앞서
좋다
기능
2013
뿌
싱
##감이
n
무기
젊은
십
그러자
전국
활용
##으로써
얘기
##거리는
##ve
혹은
사이에
##라마
끝나
가서
탑
##지게
##우고
지도
##장과
제가
홀
지적
검찰
##그렇
뒤에
서비
다르
멤버
문을
##자에
##그런
후에
##위로
어쩌
왔다
앞에서
실패
불가능
공동
&
떠올
털
##운드
반대
데미
##전이
삶
인사
시스템
네가
##개월
경쟁
표정을
그에게
제품
규모
콘
쓰는
보다
엄마
멍
##디오
불안
##그럼
몸이
##했으며
왼
역사
탓
일행
초반
in
말해
##자와
이끌
했던
##......"
2012
##...."
선발
##지기
부모
정상
뇌
말이다
하자
국회
명령
##NP
분석
불구하고
참고로
##전의
선거
##보았다
탐
참가
소년
컴
##교육
##학생
말은
전해
##un
##사람
아는
차량
처리
물건
실제
##(1
##시를
항상
##ttp
##정도
##비가
러시아
지하
관리
곤
##했습니다
점점
그곳
##가에
위로
##ay
##;&
유저
않으면
라고
쌓
흔들
굉장
##://
##년대
셈
##구가
##두고
주고
유럽
척
##리오
엉
짜
해외
후반
##이니
##롭게
됐다
얼굴로
목표
시민
##보면
열었다
##무를
자리를
스토
##군은
##버린
##ot
##드시
흡
비판
노력
지금은
미래
필요한
않게
##지역
##마저
됐
소환
기간
##시키는
받는
정도의
##ir
##진이
건물
주민
그건
것이라고
부탁
징
옆에
특수
있으면
##소가
표정으로
and
맹
뭔가
쫓
물어
말하는
아르
아니고
보기
검을
##호를
옛
아프
덕분에
아파
대단
##기관
##해진
가능하다
width
걷
있다면
밝혀
앨
행복
영향을
X
##었는데
##제의
의원
명의
이벤
보며
##버렸다
##하도록
말고
##라인
##40
재미
##ur
##수로
진출
예정이다
##하의
을
##사업
##-0
##ul
쏟
##주가
반면
##만으로
문제는
##??
봤
붉은
멋
관계자는
제일
역할을
나타나
##정에
벌어
##디어
것과
성장
힘이
생긴
연결
##년부터
29
다행
##거운
##시고
약속
##단의
사실상
시선을
##VP
상관
##차를
분노
보이
동료
이건
납
중얼
##일부터
##었을
##주었다
##든지
그들이
바이
것입니다
훈련
액
겪
##호는
담당
##회가
##시가
##한다면
##고를
보아
##원에서
등으로
습
##아아
너무나
##라가
##계의
##간의
조건
마음이
##60
발매
모델
##세가
혜
##였고
나머지
##질을
참석
##거든
아닌가
시간을
이유는
나왔
으
말이야
사무
전망
##실을
널
심지어
##드로
그랬
##!!!!
##공을
당연히
##리게
##정의
손가락
겨우
##프트
놓고
있었지만
갔
##로를
197
2010
아무런
남편
나누
31
아직도
헬
##ik
어둠
띄
##km
마주
말도
알았
##도에
합니다
건강
##진을
##화의
##목을
돈을
##나의
##대체
깔
중에
공격을
##방을
빙
##면서도
스트
##ht
##신의
가능한
##래도
##기와
g
책임
2011
##성에
입장
밖으로
뒤를
밥
환경
##겠어
없다고
유리
##불어
숲
##다란
관한
##관을
목소리가
지금까지
아닐
불과
상대로
적극
##호가
잡고
반드시
서서
##BS
실시
##제는
##려서
집에
이상의
리그
묵
y
」
##ver
조심
쏘
##거리며
##하기로
소개
폭발
##우스
인천
##롯데
##억원
##끄러
평소
덧
소비
내게
당황
문서
어쩔
아들
##25
자네
발전
##마디
전화
##구의
##님의
연속
대회
튀
##라의
무서
##했으나
자체가
그걸
변경
마침
가만
더불어
칠
##(?)
소설
##진은
아까
나이
##성과
죽은
##안은
운동
혁
한참
두려
##는가
##시의
##위의
콜
공연
대로
간단
길을
그나마
##만은
##텐데
웃으며
##라며
##바로
떨어져
##수한
살짝
사람들
##았고
##일까
꺼내
특징
못할
사는
군사
포기
느꼈
병사
동생
##다시
산업
##으로부터
##.3
##마자
강력한
##레스
##우가
##단이
대한민국
자리에
http
대해서는
버렸다
비밀
##산을
##되면서
"...
청년
어려운
오랜
##다른
아이템
##ro
##안이
유닛
바람에
##리면
웃었다
부담
눈빛
##문의
받을
##리자
속으로
조용히
##계가
프랑스
하이
자랑
노동
##부로
##그룹
##보다도
하나의
라는
이게
심각
##안에
행정
부드
같아
##......."
건설
만드는
벌써
평균
공간
##료를
##법을
남은
##자들은
이상한
##12
말한다
##량이
도와
동일
입고
맺
과학
각종
둔
최소
맞아
하게
뚫
곳에
경우도
##십시오
60
가면
모른다
갔다
##!!"
##우리
차례
자리에서
폴
언제나
그렇지
있었는데
##연구
뻔
먹고
가끔
##나게
##종의
이유로
주었다
월드
처음으로
쏟아
결코
저녁
굉장히
##많은
대비
잇
분야
##에게서
##구는
가로
충분히
알게
쪽으로
제국
혐의
설정
깜
##))
##일까지
이와
시험
빠른
떼
##락을
싫어
낮은
우려
마찬가지로
##ter
확대
승리
1,
롯데
논란
##심히
메이
회사
멈추
2000
##만의
##품을
##타를
바다
##화는
칭
##주지
##되면
손으로
곁
##유의
##하라
때까지
젖
뮤
##체의
나중에
=
사내
##바닥
사용하는
지휘
##리라
##야말로
##지자
##을까
##여서
##지면
대전
만에
덮
슈퍼
벨
지키
설명했다
단지
가까운
거대한
도입
##하하
이르
감소
##마트
##이도
싶어
##대학
##민주
##!”
제한
우주
공포
상황에서
가볍
##오고
이들은
##였지만
비록
여기에
패배
##um
그동안
##난다
녀석이
위원
확보
장난
촉
##기만
집어
출시
##화에서
##스에
##대학교
##인과
##형을
아무도
SK
항목
TV
##군을
나올
바꾸
##마의
##학년
##로가
##-2
##15
##ec
성능
##에요
나에게
##려면
##림픽
##메이션
생각했다
목소리로
##식은
##미가
미사
##있던
안정
쓰고
기관
##지면서
지배
이것은
점을
영웅
##선의
왠
드라마
##생을
때마다
상황이
가리
##ia
주의
그것도
##시다
죽음
웃음을
요청
접근
시장
전략
##무리
##르크
고민
눈으로
근처
청와
마음에
에너
대응
이름이
##분을
##인물
##인트
좋지
거짓
개의
부정
발사
따른
개최
##신은
##자들의
겸
e
##버스
쌍
만한
##저히
있으니
흉
거래
대상
수상
파악
##져서
##프로
한숨을
##일은
미소
제기
당장
축구
##미를
멀리
안으로
##라서
이뤄
기운
미안
##ut
##한국
##놓은
##ight
##80
여행
몽
##인으로
아내
##나무
##사회
스테
##아의
했는데
##가고
어쨌
웨
##영은
##아는
감사
##해졌다
##인들이
독립
for
이루어
다이
획
##od
한다고
##치지
적은
새로
한마디
##아야
Y
탁
마이
늘어
LG
##지며
##점으로
깊은
##st
주먹
##생활
무너
##길을
##진의
##하다가
스페
뻗
과정에서
택
싸움
##과를
비행
훌
끝에
##계에
오빠
##문화
커다란
필요가
##분이
얼굴에
##력으로
항공
득
##마를
혹시
##지와
계약
문제를
『
전통
데뷔
수많은
겁니다
##쪽에
##말을
옷을
사태
죽을
희망
충격
##호의
변화
시도
##차가
##년간
수행
##들로
달러
아름다운
##소리
##아이
개선
언론
물리
##게임
미친
##정보
무언
##냐고
##퓨터
이내
선정
넌
##안의
전달
틈
경영
본격
##히고
말할
##시장
생각하고
보자
어울
##BC
못해
경우는
잠깐
##량을
뭘
아무래도
가만히
인터넷
##.........
지구
덜
졸업
r
사용할
##.4
발언
몰아
##프를
##비는
##페이지
미국의
식으로
##치로
수록
##?'
차가
##스런
##워서
##국이
영상
기분이
##받은
상황을
브라
센
##수도
##있었다
##NG
##마가
##)'
인간의
##세기
시점
##았지만
최고의
##님은
##정으로
그들을
숨을
나름
확률
보스
##;;
##단은
눈동
##나를
중심으로
원작
발동
##씨의
케이
와서
고객
거지
##체는
가볍게
우리의
##조건
##온다
##.7
영어
덤
덧붙
거부
재판
you
지지
담배
높아
##력의
##em
##기술
무릎
들이
애니메이션
##기지
다소
##나이
##자리
##하려는
##살을
완벽
그와
##영이
취급
초기
팔을
##하려고
챙
보유
정신을
떨어진
활약
의심
##이었지만
##식의
##발을
추정
##색이
##월에
##되며
섞
만족
신청
들은
따로
사례
엑
##지금
거쳐
힐
##우의
##되기
확실히
이탈
##함이
##실로
미리
##18
##시킬
가까이
##ce
입은
관광
노려
썼
2009
크리스
##들고
무사
대부분의
닿
데려
##냄새
##론을
작업
종류
그룹
##낸다
##양이
##절한
##석이
##all
회의
사람들의
데리고
##경이
##제에
##크는
정리
대통령은
빠르게
모르게
챔
의외
##해주
80
좋아하는
70
전반
제시
무리
없지만
수사
이제는
몸에
##이상
들여
##jp
##시설
살펴
대형
앨범
대상으로
줄어
##가로
인도
시청
##했기
##,000
이외
##성으로
수비
기념
통합
란
유명한
입술
##개가
위협
##정부
그렇다고
##력과
열심히
생각하는
어깨를
세월
꼴
##연히
##크를
##러운
일본의
The
마스터
##포츠
##시로
붙잡
이름은
뿐이었다
이리
##ak
저는
대답했다
생명
##책을
##대에서
##르며
##.6
딜
##치게
외교
전했다
##산업
벤
##라리
하나가
눈치
오브
때문이었다
세이
##사에서
밀어
소유
2008
하던
들어서
완전
여름
컴퓨터
##면을
다음과
린
##문은
등장하는
##어의
묶
세상
##속에
>
능력을
많아
시행
장소
에피
##하시
이들
도대체
피해를
##역을
##32
##씨를
대구
그에
계획이다
얻어
블랙
예를
몰라
##차피
설립
맞추
자신에게
부여
비롯한
##율이
##형이
##com
##년에는
##시즌
##증을
소재
벗어나
며
의원은
##해를
내리
개념
달아
연기
##당의
출전
지었다
크로
펼쳐
##당이
눈앞
##치의
흠
##스코
캠
맞는
분명히
어째
통과
선배
아가
말인가
이유가
##자에게
##회에
##되었고
##규모
##용이
##어는
참조
##님을
기타
요즘
##ation
##16
거기에
들어갔다
힘든
과연
경우에는
##관리
받아들
동물
##로의
없어서
##일의
##라를
대통령이
그러니까
명칭
기준으로
끄덕였다
k
당신이
##됩니다
대화
은행
강조했다
낳
만들었다
링
##하고는
##번에
##시키고
##선은
##피언
뿐이다
귀족
##회는
것이라는
##(19
보지
##.8
나타났다
보여주
##졌고
아무것도
경기도
저지
##미는
중에서
논의
##렸고
##하였고
##음에도
##방송
계열
거리
에이
싸우
##운동
없습니다
어두
말한
인터뷰
이거
흰
빼앗
##마는
##레이드
그야말로
관심을
##이와
열고
정말로
##무슨
대사
출발
##시켰다
##았을
있어야
보도
확정
차단
##방의
의혹
웬
안타
배치
##역시
를
##것이
여담
했고
없었던
##방에
##조를
##주시
##누리
목소리
등장인물
##질이
##이었고
##연합
##복을
##nd
칸
##크가
##석을
##14
좁
작중
마리
히로
다섯
숫
##명으로
##각을
살고
##jpg
돌렸다
##촬영
홈페이지
##회에서
바라보며
놀란
안에서
##네요
##서야
이용해
성우
196
##당은
들어오
전용
##관의
궁금
에피소
직업
##.9
##임이
##었습니다
##티브
연합
멸
##주로
##에만
있겠
투입
지급
##드리
##소리가
원하는
기울
##모를
덩
만난
닫
상당한
직원
v
국정
완성
##크의
아마도
##초에
##17
도움이
교통
##해요
위해서는
##실에
##중한
##소년
교수
기반
장기
##13
겨울
있는지
시설
무척
바라보고
뛰어난
##산이
##실에서
열어
##용을
##와서
빅
나쁜
래
##경제
높다
화가
##바람
내부
선보
##빨리
##보니
##판을
##전은
증거
##적은
놈이
자식
##그리고
지정
제거
지난달
이벤트
90
시작한
##보를
차이가
##학과
듀
웃음
짧은
아시아
구축
이쪽
눈물을
사람들을
곳에서
문득
모른
때도
바보
이사
근데
긴장
모습은
삭
꼽
날카
음식
행사
밟
##이오
풀어
범죄
내용을
##lo
가게
종교
일이었다
##up
부하
인식
기자
밴
##보자
가고
자신도
수출
##ard
##으려
업무
##국은
##세계
위치한
내밀
##적이고
혀
새끼
##하겠다
워낙
왠지
도로
특성
##세대
찢
실험
##에게도
일정
##24
중간
##구에
자세한
그렇다면
전환
바닥에
맞춰
곳이
구속
베이
주지
코스
##왕의
자동차
턱
##담을
##냐는
떠오
여유
##나와
수정
장비
##스티
핵심
St
##후의
##조의
녀석의
적을
인한
제외한
정의
##지원
여자가
챔피언
정작
희생
##경찰
우리나라
입술을
하얀
글로
##이한
테이
공중
붙어
##리티
유니
##영의
획득
낭
##까요
카이
사실이
평범
순식
500
남성
상품
건너
셋
##족의
본래
정보를
전기
조합
\'
반복
모르고
##색의
달성
스피
중인
어쨌든
유일한
전설
##면에
##지에서
오르
알려졌다
##럽게
편이다
##색을
어차피
##더라
##름이
의한
냄새
이걸
##동이
서비스
깨달
건가
##wik
것인가
생존
연출
##기사
당신은
##네가
몇몇
이것이
받지
그들
##무원
##?]
##대전
가입
의사
##크로
그려
효과를
공급
모여
국방
특정
엘리
닥
위에서
##까지도
##단에
##레벨
300
##%,
중이다
명이
##전자
일어난
있으나
##해져
##론이
##비아
##화된
##',
##op
##력에
부활
지니
뒤집
몹
파워
제주
##받는
손이
부딪
##적이다
직후
자기가
##도와
너희
밀려
##cm
상위
굳이
즉시
##격이
남북
라인
영혼
종합
변호
도움을
##70
그다
생각에
##스테
상징
공작
곳으로
준다
틀림
옮겨
보이고
##if
##개발
194
추천
느꼈다
순식간에
사실은
##석은
##겠어요
붕
사냥
##년이
있어요
낫
목을
했으나
대기
선언
침묵
말하자
는
새벽
##선에
##==
##구요
구체
닮
on
올라가
##ub
야구
목숨을
##한데
##니가
##화에
화장
st
합의
갤
등록
점이
이래
대중
반영
2007
##승을
사람도
##고가
##적으로는
기회를
앤
데이
혼란
랭
##점은
막아
태양
가라
##우를
닦
##트에
봐도
저런
부인
##리면서
##셨다
바탕
수입
##프가
##리온
남자가
물을
아니지만
느낌이
맵
상상
아냐
정부가
시대
##권의
얻을
넥
버린
##둘러
##르의
어떠
푸른
상태에서
익숙
다루
##카이
방영
번역
##라운드
##었어
대륙
##모가
봄
35
본인
원내
지닌
땇
be
자는
##겠소
패턴
기획
##근혜
연습
불편
모습으로
영업
살해
끝내
걸려
말하고
마무리
조성
뿐만
##명한
##향이
##단체
배경
아니야
모를
##치며
스마트
거예요
해주
술을
공격력
##년까지
##mm
##서가
형성
##ER
몰려
부르는
뜬
##차례
비난
일이다
##조가
싶다
싶지
헛
매일
자신은
제목
중단
가정
##과학
의료
솟
예술
말로
##나요
구매
장애
지어
##년을
##르가
않아도
용병
하더라도
##ie
##탄을
조금씩
않았지만
민간
먹는
##권이
##사이
##기간
한국의
인사를
he
작가
운행
다르게
새누리
##부터는
마시
탈출
##기까지
정령
아저
어제
그러한
고용
효과가
의식
그날
모아
인생
##라스
기다리고
앙
##요일
때가
##ill
마침내
일도
비중
것인지
한정
같은데
피를
머리카
##니스
쇠
##사한
버스
만화
호텔
##음에
이로
사상
저항
##금융
웅
행동을
##TV
어쩌면
국민의
관심
wh
생겨
대통령의
##90
않지만
##22
깜짝
어리
늙
절대로
줘
##상태
끝까지
##35
##성도
##이던
##100
좋을
##현은
없게
##스토
피가
##연이
그다지
녀석은
##름을
한쪽
##정말
춤
정부는
안내
##선으로
통일
장착
-2
##선거
쥬
불리
빗
##세의
어느새
훌륭
1000
협력
걸쳐
눈물
뜻을
##분의
화려
따뜻
##부와
##란다
경기를
위의
##카드
것만
하나로
머리가
매달
방침
홈런
돌아오
죽여
광주
아쉬
그러니
복잡
인근
고정
이젠
점에서
##재인
주저
주문
느낄
##업체
##통을
##플레이
옛날
어서
##즈의
공공
이탈리아
최대한
없지
##돌아
##년의
필요하다
종족
투수
쾌
조종
세워
국회의
##px
갖추
##ra
모두가
그러면
전화를
일에
않았던
##줬다
정부의
촬영
너는
찔
허용
찰
##도시
츠
해석
떡
짐작
불법
##미의
##텔레
교체
하나를
##%)
##관계
꽤나
##으려고
##것은
아닙
##직한
최강
##류를
##ly
생각은
##증이
##금이
##르트
##였는데
랜
##ess
##린은
신뢰
##러스
##ip
나오지
##받고
의외로
스파
전문가
퀘
압도
신고
근무
##ack
##oc
##국을
잔뜩
소련
##대와
##민의
알려져
이번에는
##하지는
전개
##치기
##장한
할아버
파티
길이
결승
##병을
##정책
##자마자
많았다
상태로
##하게도
종료
방법을
전자
눌
##지션
집으로
먹을
땀
거라고
공부
객
##공격
제조
버전
선물
정규
둥
금지
인상
평화
죽어
##_-
##어졌다
복귀
생각하면
그리고는
관련된
대표는
가슴이
##형의
끈
되었고
기계
끝난
##!'
살인
자꾸
것이고
검토
뒤에서
드디어
인간이
예전
차라리
적어도
..
혐의로
##느라
잉
등은
##이번
며칠
근거
보험
운전
수익
나갔다
##거래
때의
##저기
다름
그렇지만
균
역대
내렸다
##이게
##방이
쿨
자료
인기
방식
뼈
##린이
핸
##표를
주목
##봤다
##별로
무려
##검을
싶었다
##사랑
낼
금방
##파의
발휘
집을
그만큼
##현이
##렸을
##게도
##민이
##용으로
터뜨
표시
나오고
낸
##산의
덧붙였다
샌
무림
##재를
##()
겉
사과
##결을
곳은
타입
##!)
마법사
빛을
영원
끌고
때부터
무서운
도전
햇
##비의
##드와
##단계
클래
##(2
##──
상대가
발을
##이제
##터를
킬
버리고
설마
불을
##ab
뽑아
##자들을
커피
##0\'
통한
기초
##인들은
정도는
기록했다
있다가
##카와
##전쟁
##/0
##잖아요
수십
##--------
나섰다
글을
it
월드컵
방해
거두
도저히
모습에
##__
##희는
##달러
체력
##자고
##내며
##48
##였으나
섭
조각
##ere
##ith
회장
대선
스토리
전사
가야
##서의
책을
반대로
##포를
활동을
온라인
둘이
##토록
엔딩
지으며
##하면서도
##고도
##MO
거절
자가
##est
계속해서
어른
##살이
2006
갈등
말야
채로
족
몰랐
넘는
싱글
##기에는
꾸준
##건을
내년
최초로
관심이
##NNG
머물
왼쪽
맞은
##ok
##이런
##치에
셀
짓을
##프는
아빠
##때문에
구간
##인에게
##TA
이름으로
지금의
의하면
소모
못한다
이후로
·
날려
지상
감독은
##수에
##답게
사령
##마을
한동안
##물의
치고
##.~~
##학을
195
##어지는
된다는
렌
일으키
32
텐데
탓에
##경은
되는데
빛이
다르다
단계
현재는
##자들
표정이
올림픽
낯
이른
그린
주위를
위하여
스포츠
마지막으로
##마법
빠져나
##본다
차를
##공이
당신의
가슴을
얼굴은
##시한
들어왔다
##^^
흩
민족
일찍
맘
쓰지
내쉬
올랐다
무한
등장한다
빚
여담으로
##프의
노선
능력이
##중앙
이들이
단체
##EC
애초에
대변
주도
##하긴
##르지
어린이
철도
적의
프로젝
제출
##심한
일부러
부상
말아
##봐야
##연을
##림을
전차
추측
##월부터
서서히
##일로
뚜
박근혜
##령이
강원
이기
##회사
작성
곳을
블루
깨끗
##입니까
진지
##당을
들어간
터져
했을
감싸
나이트
이었다
##수와
절반
일제
##ine
이하
카메
45
정신이
이야기가
##해지는
##IA
단순히
만들고
##동의
나선
의견을
하니
##소는
##개로
감안
글로벌
상황에
##그런데
거다
##트라
##원과
##르르
나타난
##끼리
##인들의
아버지가
##일본
##산은
입장을
##겨진
말투
바꿔
화를
조정
##먹을
청와대
##속으로
동작
##....."
본다
##동생
개혁
(201
얘기를
보낸
중소
##함에
언니
연락
또다시
##명에
##ld
that
던져
그제
눈물이
살아남
누워
홍보
무조건
사기
짝
넓은
나쁘
##타로
##스레
경찰은
##조로
처음부터
어째서
##연의
Z
간신
받았
자극
종종
수요
겹
들어온
점차
뭐가
심각한
##시마
##십니까
떨어지는
런
##(...).
황금
##향을
##36
명예
##28
있었기
하락
##패를
재빨리
황제
임명
파이
그녀에게
꺾
생기
리가
이곳에
##형은
찾는
##시대
##조사
정확히
##망을
아키
##점에서
##드에
드는
사라져
알았다
로마
디자인
다크
할머니
리더
콤
뿜
##었다고
것이라
대미
무엇을
##하러
중얼거렸다
##가와
포함한
`
##악한
찌푸
방법이
결과를
어디서
구입
##즈는
##선수
내지
마디
##던가
근접
##속에서
값
당한
뭐라고
사항
내는
크다
어지
아카
##량의
설득
훔
그리스
주장했다
처음에는
##민은
만났
경계
##키의
대화를
않았고
표기
만들어진
1.
모자
제안
뉴욕
세상에
##달라고
##지라
##집을
나갈
보일
##45
내용은
게임을
##보험
정식
멜
저렇게
장관
외국인
아이를
일러
매출
넣어
외에도
구분
##석에
급히
다리
퀘스트
광고
##함으로써
들려왔다
오랫
##점에
마사
마구
곧바로
##특별
하늘을
체험
흔히
##스케
##트리
클리어
시전
옳
특유의
##하신
긍
깨닫
##보지
연장
간다
관계를
데이터
부분이
시각
사랑을
뭐야
##정치
##실이
##................
요리
##했어
무렵
대표적인
높이
남자는
합류
##버리는
윈
미션
록
측면
##머리
생각할
##아를
대장
주택
통신
##ST
솔직
##했는지
간신히
조작
##art
##스카
못하게
도중
##조는
단단
주소
차가운
들어올
동원
외쳤다
##상위
공주
##imag
느낀
있을까
##친다
##이닝
##녀가
전작
##?!
##어버린
##보며
작곡
유일하게
##것을
칼을
##르기
##모토
##악의
사이에서
##속도로
팽
사장
믿을
##세는
개정
어렵다
온몸
분위기
##야마
여자는
내놓
목소리를
##율을
##하겠다는
다리를
아파트
올렸다
문재인
방면
일어났다
##):
오직
그러면서
##ant
위반
목적
운용
죽이
was
받는다
메인
평범한
믿고
대답을
수련
##다듬
시내
##란드
##세이
##소에
##하를
늘어나
들었
다행히
사람들에게
내뱉
전시
##소리를
들어가는
아이돌
고대
은퇴
무게
켄
이적
##으로도
플레이어
에피소드
##투자
##보가
하나도
끔
생겼
##키가
묘사
is
하나는
대충
특별한
##국에
앞두고
##렸던
생각한다
내일
불리는
갑작
걸음을
##되었으며
##영을
펜
부대
전날
주시
프레
진입
현장
##률이
##나도
길게
강하게
무섭
정확한
##1)
아니라는
##23
##루를
##구려
한다면
가깝
속도
##..........
신기
사랑하는
##전으로
##ri
초대
않도록
비교적
##힌다
불꽃
##관에
활성
내고
신체
##오늘
re
##이었는데
##왕이
##미터
최초의
도쿄
꼼
점은
##댔다
돕
##연은
놓은
쏘아
옆에서
검사
##받아
구경
알려진
가수
뱀
감정
##습을
죽는
네이
허리를
2005
북한의
바탕으로
##라니
윌
변신
##원들이
되기
사정
살려
유도
##한의
보면서
##27
##한이
깃
감히
##그만
어딘
##야만
##소의
연주
##지않
##관에서
##타는
기술을
내내
##동에
##론은
빠진
온갖
##라우
##버려
##오가
통해서
##길이
##나다
##현의
났
##언을
페이
집에서
##당에
똑같은
들을
상처를
르
페르
분리
웹
##선생
##ell
돌아온
옵
원칙
귀여
이들의
##레인
##부에서
업체
사회적
혼자서
##렬한
투표
계산
되자
압박
출생
##상에서
##설을
##골을
2004
##교의
##즈가
타격
현지
입에서
알지
춘
##겠습니까
제법
곽
정도였다
##량은
##바이
##2)
##26
##계획
다니는
쳐다보았다
##IP
36
작용
한데
만일
##세로
질문에
집단
맑
존재한다
##ct
실질
맞고
가벼
##오의
오른쪽
##했었다
마법을
에너지
##항공
##버린다
롤
##부장
##군에
하다가
쉬운
남자의
승리를
##트와
벼
반응을
배틀
##병원
##연한
경기에서
##식에
충돌
얼른
##29
FC
오랫동안
##사항
시기
세상을
쫓아
가르쳐
##구로
##란히
##서울
뜨거운
내용이
받아들이
##ist
##타가
##권은
지옥
##조리
##금은
수술
##방으로
안돼
##통신
의미가
##이라서
포켓
덱
나가는
##500
삐
때에는
##류가
2002
##차는
부러
100%
비틀
##데이트
느끼고
나름대로
##MA
이익
방금
창조
자신들의
용서
##세에
##과도
오늘은
방식으로
잡았다
보장
구멍
##로그
험
##스에서
##없다
본인이
아시
신규
중반
마르
법률
넘어가
없기
스크
있었으나
잃고
강남
듯하다
##복지
그렇다
##ee
시작한다
로봇
선고
받게
걸로
보인
갈아
얻은
지금도
##3)
##법이
##듯한
다음에
트럼
##즈를
##령을
융
대한민국의
##판이
확장
##사건
##**
엎
거듭
##재가
소리쳤다
측은
##버리고
사람에게
흥분
##루가
##qu
##주인
무료
##그건
부서
암살
아래로
이마
##대회
멘
했다고
##청은
저희
고등학교
##직을
##지마
##만으로도
사전
선생님
##침을
건축
두드
보조
율
의무
기어
중국의
날이
##ers
없는데
장갑
벗어
등장한
기존의
이유를
원내대표
##있게
깊이
##만원을
사건이
셈이다
##지방
콩
괴롭
대하여
비상
공을
은근
(...).
##실은
##거리고
##ain
##병이
걸음
어떠한
튀어나
정당
씻
진정
내에서
Q
알렉
경비
##발이
돋
근육
휘두
심한
넘겨
이것을
없애
##았는데
일종의
둘째
##심으로
여겨
33
고급
"......
고수
##21
##해가
##그렇게
공화
무장
##실한
보수
국립
외에
있으
당선
##옵니다
언젠
당연한
속성
삽
##안으로
수용
##에겐
입에
##텐츠
##로소
치명
해군
않기
브랜드
노예
계획을
꽉
탱
##해서는
설계
배를
논란이
##!!!"
신의
인상을
댄
젠
이용한
##ate
시원
휩
##나고
##물론
질문
꽂
가라앉
옆으로
걸린
##권에
머릿
썩
##BJ
파견
대규모
딴
##쪽에서
단순한
레드
##가서
\
##로도
공유
안되는
##비스
이번에
(19
##니는
##들이다
##의가
사건을
주식
국무
##공항
고향
않는다는
앉았다
스위
##린의
때려
##께서는
##리트
김영
##ge
##일러
##하듯
웃고
사이로
좌우
업데이트
##ort
##리다
대단한
##판에
부동
귀찮
첨
지내
버티
##자도
채용
##37
##터가
아버지의
보여준다
##었으나
짙
디지
##환경
##하에
죽음을
##사고
않아서
대출
오토
포지션
모양이다
##이에요
재정
예산
디자
##ore
놓여
것일까
형태로
까지
거칠
기동
있음을
##34
등에서
바깥
대결
##아리
나아
아이가
사용자가
##장인
관련해
잡은
자본
곤란
지니고
##ff
붙여
##하라고
펴
생활을
그러고
##하기는
영입
여의
끌려
##었다는
상대를
##안전
가을
테러
##자들에게
모드
##류의
상대의
이해할
##겠는가
악마
없어요
##성한
형제
강제
##오를
방향으로
##울러
유치
테이블
돈이
##간을
##시켰
##리스트
##,,
불렀다
목록
보급
문이
난이
자세히
분위기를
엄청나게
여자의
진정한
바라보는
규정
38
교수는
차이
약한
미사일
웃어
컸
무엇이
제압
의미를
열리는
났다
2,
안고
##보기
##든가
구해
문학
한반
고양
평가를
새누리당
웃는
핀
잃은
##역으로
##38
##교통
관계가
##로서는
호흡
##소한
##실의
기가
##거지
한때
기본적으로
뛰어나
편이
HP
만날
아버지는
##졌던
고생
되찾
너를
흘러나
##하가
다물
##속을
지적했다
노래를
감추
자체는
##에다
##물로
인기를
개그
꾸준히
허리
직전
##사인
시켜
##양의
엘프
테니까
무엇보다
##화와
트위
체포
카운
점령
완료
의아
이승
숨어
##능력
##겠군
깎
이틀
##공의
##뿐만
##관으로
##받았다
고위
지경
뭉
없음
평생
아니라고
쳐다
##되자
##ng
##짜리
잭
한가
크고
꿈을
아군
##서에
클럽
민주당
한글
병원
향후
##긴다
##:0
##평가
막을
##39
##로드
시야
시키
가슴에
##out
오지
제도
곰
등급
##각이
##명과
공략
드리
컬
기다려
##미널
내린
##하였으며
동굴
고마
150
패러
수원
##법은
##억원을
타이틀
##해진다
##격한
아닙니다
않으
바람이
물고
타카
아닐까
##방에서
번쩍
스테이지
다들
청소년
상대적으로
##width
감정을
인구
냈다
기여
전부터
너의
핏
인수
비롯해
PC
##인에
끓
처벌
##었기
##버릴
흡수
여러분
##션을
핑
삭제
다음날
##무는
책임을
”
갈라
봐야
##차로
##란을
몰랐다
##계는
##너스
언어
필수
##감독
후속
##쳐서
다녀
기뻐
문제로
동맹
##그는
떴
동네
카르
건담
예측
회원
섹
##내기
자살
거주
태어나
##our
맞이
공통
##트에서
반짝
침대
우리를
말하면
신문
시나
일로
듣는
카드를
보여주는
우수
스마트폰
두려워
심리
아나
실력
여자를
정치적
##등을
방에
##준이
없었고
##내지
##니티
##을때
##이었으나
##남도
##녀의
포켓몬
##안타
낚
파고
불이
매년
##물에
사용한다
##버리
정면
텔레
시선이
망설
뺨
##토를
##대장
회피
체결
##체에
날카로운
곳곳
##석의
작전
하시
발달
노출
##따라
쓰레
흙
추가로
##하기에
아름다
보게
좀더
누군가
팀의
##가며
Ch
횡
성우는
##역이
이전에
뜯
##주일
남겨
느낌을
##놈이
찾을
##(201
놔
##테르
오프
중에서도
준비를
##양을
##이라니
트리
건네
얼음
카페
몰래
##로우
긍정
움직이는
다운
적도
울산
형사
무엇인가
사용한
KBS
건지
제발
아울러
내에
거냐
미니
훌륭한
올리
사라졌다
##트남
들어갈
##말이
##쟁이
##무라
이스
어두운
모르지만
펀
몰라도
예비
띠
할지
당신을
땅에
마나
##브를
상태가
##사령
##함과
##버렸
##시와
허공
##루의
##카가
##화로
성적
들어와
##파를
##왔던
부른다
큐
##림이
오로
##1.
##단으로
명령을
절망
씹
억지로
부드러운
증명
##환이
나간
##야구
##시스
어색
##체로
탄생
##시킨다
태어
맡은
실행
##하이
있어도
유통
배신
향했다
머리카락
누구나
##스러워
2003
##할수
응시
##디아
훼
부분을
##약한
##훈련
일반적인
연재
수업
몸은
##MOD
임시
되면서
그들에게
##경의
34
됩니다
귀를
외모
허락
##법에
약간의
굽
갑옷
##묘한
화면
입학
취임
나이가
잠을
##리나
##감에
목숨
만다
무기를
버려
##히지
분이
##거라
an
피곤
지하철
##한을
방으로
이론
##례를
##대고
공항
어머니가
##군과
쌀
단독
##하겠다고
##se
누구도
장면이
##ast
이끌고
##천의
메이저
제외하면
##자동
##가능
가치
##당히
들렸다
##고등학교
일으켜
##드라
##ula
##시티
##종이
셔
전면
기능을
##단과
사진을
노인
효율
몹시
##해보
##해지고
사이의
헐
의도
죽일
##먹는
##브리
현재의
지원을
KT
가려
등과
눈은
아우
수호
근로
않을까
##물은
37
질문을
##ew
킹
비명을
떨어졌다
센터
정도가
저도
모험
도달
인공
##유를
늙은
빵
서둘러
##고의
멍하니
이다
##타임
집안
아스
탈락
부터
게시
외부
##바일
보상
주력
이슬
스코
개편
긁
무릎을
동의
아리
......
배가
흐르는
##택을
파트
분위기가
손님
적극적으로
내세
플래
##줘야
##ry
의지
##그가
하하
##쪽의
##손으로
##스에게
위험한
##선에서
##ind
지역의
쉽지
비용
방안을
진화
수백
##국민
캡
##전문
곁에
때에
##있어
##PC
##소로
전력
with
제갈
털어
##IC
자고
form
소득
##FA
##...?
##관광
그런지
수준의
쳤다
##영화
##그게
##왕은
검찰은
중의
신경을
했다는
##코의
##1\'
궤
주어
녀석을
##차게
##겁게
선두
맡고
소화
업그
모양이었다
##공사
아라
##해질
파일
대꾸
앞을
##주에
갸
나아가
##카의
화염
##그래서
##로서의
##라이더
##인지는
나눠
발생한
끊임
죠
비웃
백작
쉴
##목이
##거든요
음식을
근본
라디오
그거
아아
있었을
극복
인기가
들지
사라진
것이오
생각하지
오오
이대로
##4)
##까지만
공정
##하고자
핸드
##ive
둘은
죽고
다를
늑
##망이
##아무
등등
하드
턴
자신과
나한테
어머니는
##이므로
차별
지시
이후에
돌파
괜히
편의
전망이다
##ong
내며
존재하는
##았어
이처럼
거친
희미
##저리
접촉
개봉
가시
##kg
머리에
##회담
연계
움켜
사나
없으니
모두들
남궁
덴
철저
메시
##손을
서울시
##중의
##천은
갓
대해서도
##리아의
편안
전북
납치
감염
삶을
##300
##졌지만
푹
테니
밸
으로
##잡고
야마
##국가
대책
##녀는
##환을
##위에서
MBC
##받을
!
##리라고
##았습니다
협박
스카
신음
된다고
##인도
엠
##일에는
칭찬
##준은
##겠지요
멍청
##31
어디까지
##분기
않습니다
수치
마친
400
재능
김정
##란이
##매를
무공
as
Lv
##교를
베르
신용
남의
답답
명을
극장
이라는
##년도
##였으며
많고
마이크
일러스트
##령은
하긴
루시
않았을
고맙
오늘날
세종
##감은
사업을
움직임
더구나
##에서부터
너도
지나치게
누군가가
홀로
##문학
이렇
생각한
달린
##었으며
쪽이
시간에
자기의
##어리
출판
끔찍
했습니다
##RA
마라
감독이
일반적으로
아들이
소식을
살피
들어오는
시리즈의
##야의
도서
출입
##마한
바뀐
##파가
##저는
##서도
##운은
눈앞에
즐거
있나
기원
스승
안보
##집에
뿌리
##하셨
##호선
모조리
불어
##좋아
너무도
추적
기회
##랑이
##상과
담배를
붕괴
귓
예외
물건을
지식
왜냐
KB
##인간
##희가
그레이
##란의
거리를
지속적으로
취소
울려
충격을
##된다는
태어난
재료
계급
2019
##욕을
옹
과정을
신분
아사
공무원
신이
유사
떠올랐다
먹어
가자
소방
아프리카
집행
##47
그럼에도
##토가
주머니
키스
마치고
##end
부족한
Th
엔진
넣고
....
착용
##로스
##으러
한화
스탠
##론의
##라와
##비에
김성
물이
##액을
이중
있었습니다
멸망
##ave
담긴
쪼
##건설
속도로
오리지
##둥이
읽어
##졌을
##색으로
어이
##하므로
##상황
모래
i
생각도
##걸음
##렸지만
장식
"..
##임에도
##씨와
심하게
##종을
생물
감시
##재로
대공
셰
##에서만
경상
것이며
##자치
맞지
##5)
##시험
틀어
자원
힘으로
잡혀
이재
##스키
##아파
##불을
##되기도
없으면
댓
모으
못했던
어느정도
자금
속삭
오버
의원이
##무가
할까
##역에
잠수
##리안
들어갔
##소에서
상호
아픈
말라
##협회
99
개입
2001
소송
요새
화려한
철학
##토의
##ome
밝은
페이스
나면
켜
방법은
짓고
참으로
관객
되어서
##체육
기쁨
방법으로
올린
##우며
부분은
애플
착각
##주면
##로로
##졌다고
대법
##ON
##적의
관찰
##더군요
소멸
##해주는
히어로
수수
보냈다
48
땅을
목적으로
##투를
##기며
이럴
통제
헤어
방을
##야는
보건
육군
사로
이성
대표팀
손바닥
여러가지
비가
싸우는
암흑
이윽
요시
걸고
앉은
경남
##네는
##타의
##하라는
도움
말하며
점검
원정
##랗게
이들을
자격
안습
혀를
##막을
formula
##니를
포인트
속의
느껴졌다
반발
확인할
##세한
##피스
##림의
있었다는
샘
##잔을
스케
##아시아
솔직히
##유가
##인지라
거기서
##그라
저기
##인들
건드
에서
##립니다
##are
##피아
##민주당
끼어
조심스럽게
##어떻게
정체
##46
##국제
엉덩
함부로
##차에
##통이
##마스
베트남
2.
##반기
사격
##율은
데미지
##다보니
마족
탑승
##트롤
##었지
##졌다는
툭
곱
있으니까
##99
중소기업
바르
서비스를
잊지
나라의
##스탄
채널
공산
거짓말
별다른
자존
전의
##절을
빨간
##하세요
##그래도
전까지
##란은
##ity
농담
브라질
##웠던
커뮤
일어서
##마리
힘들다
장군
지명
##인인
##av
##노동
이길
니가
이윽고
##리던
팀이
##시간이
##산에
##ord
탑재
##겨져
##급히
가벼운
브레이
##코가
지나지
##net
##로워
FA
잠이
##심의
무력
계약을
묻는
##모로
##방울
연극
##크래
에스
비서
시달
##중인
##기에서
##33
생성
##부대
짚
대고
느끼는
1990
제국의
##친구
없었지만
말하자면
버릴
##러가
쓰다듬
지은
##수사
포르
##SS
##감한
##아직
행위
##들에게는
##운이
싸움을
시간은
##자료
죄송
In
##니의
##개혁
##미안
피부
이웃
실망
렀
##프레
##는데도
##역에서
##등급
벽에
##...”
회장은
얀
유래
##문으로
놈은
기회가
에어
거대
MA
멋진
##미사
##증권
크리
고백
닭
중에는
본인의
연예
갈수록
꿀
한번도
경고
되며
무언가
음반
##ang
##동은
말하지
불쌍
알아서
##치와
꿇
갇
##야지
지역에
바뀌었다
그렇고
##북도
##다니는
me
폐지
게이
##JK
떠난
##행이
주먹을
당시의
##55
쏠
##ED
고통을
식사
같습니다
괴물
##빛이
벌어진
피식
대립
팩
##주기
내려다보
말이지
다가가
있으므로
안되
수학
심장
##인한
두번째
##ound
따뜻한
##이즈
무의
##거리가
하기도
멈춰
##가요
오픈
갖춘
된다면
내보
##레이션
##놓았다
##98
라이브
조사를
##쪽을
##라기
##경에
##리아는
his
##도우
대폭
질렀다
걸까
편집
##og
나지
방향을
개방
본격적으로
##하려면
##재는
##카는
##야가
부진
비하면
트럼프
대학교
메르
것일
##발의
대리
기운이
이상이
달라고
생겼다
중간에
픽
전쟁을
vs
##운의
정기
거리가
폭풍
두산
모바일
텐
더듬
##했어요
기억을
방침이다
죽인
일상
아가씨
##했다가
##본부
토론
영원히
세운
##ust
##품이
링크
바란다
아저씨
자연스럽게
##먹고
더블
##메달
땐
##상한
##령의
성격이
아닌데
##주와
비로소
적응
물질
##무기
##협의
##으론
보이며
안심
##가족
해방
바른
##견을
까닭
로드
득점
수석
##PG
트레이
##광역시
여섯
스페인
##니까요
드물
##2.
엿
후에는
딱히
조금만
그러므로
##아웃
괜찮은
대처
죽이고
못하
이미지
거울
##one
그러다가
##이익
널리
##소득
서술
없으며
갚
펠
##되었던
명중
##기기
##모리
특별히
잡을
무덤
|
예방
라이트
##언이
결합
##1,
있긴
긴급
솜
##판은
발표했다
때문인지
전술
##회장
드라이
소리로
세력
주저앉
취업
데미지를
##올림픽
##도에서
★
구단
범위
좋게
미술
소리와
##오지
##2,
##예술
추락
추구
똑같이
##희의
걸었다
눈길을
썼다
일어났
##편의
막기
잘라
주말
빌려
오고
선호
써서
##age
놈의
교환
복수
뒤집어
##주택
캔
##너는
기독
현상
##트워
모양이
유용
눌러
대상이
친구가
이끌어
##건이
변해
않다는
그도
##어디
세계의
카오
관측
돌아와
사람들도
홍콩
굵
계집
활발
언덕
##해지
##조차도
기절
정지
늦게
속도가
##old
후회
있소
판결
##만큼은
주변에
##관과
##images
##들인
중요하다
데스
##wiki
노릇
##ep
해제
##자리에
##)"
관통
부동산
벌떡
오리지널
폰
의견이
허나
##철도
##시스템
베어
않으며
##전한
아웃
필살
##생이
##조선
모르겠지만
##시키기
##이거
상태였다
sh
단일
간의
뜨고
마음은
##축구
적지
55
조금도
번도
이정
대다
체육
대기업
위치를
떨어뜨
190
서버
##더욱
##음은
전에는
사쿠
##AR
끝나고
규모의
##bo
먹은
원래는
임금
##순간
점이다
주차
열쇠
공사
이라
플라
주기
북한이
대체로
##배를
##평을
##웨이
모르겠다
##니와
##ect
##국에서
비명
치는
싸늘
특성상
무대
있었으며
단어
슬픔
복지
결과가
##제도
소리에
실력을
##함은
##96
싸울
##할때
부드럽게
##ther
그대
느껴지는
버렸
아이들이
초월
컨셉
브리
조절
##하기가
전형
무거운
드러나
보병
우승을
1999
##사카
상황이다
##으면서도
##였을
동일한
챙겨
호소
봉인
자라
날아가
##권에서
괜찮아
맡았다
##작을
기억이
제정
##이면서
연방
"....
##파이어
##오르는
##키를
##숙한
##판의
##NS
근처에
##사들이
화살
##데요
기소
이어지는
전남
끝이
##어지고
독자
답변
어깨에
##사무
하려고
소프트
잡는
무관
협의
##이치
120
##비로
##새끼
##하지도
어머니의
##아주
##PS
##월까지
##탄이
표준
사마
하나인
만남
드러났다
##치면
헌법
##먼트
##코는
##자리를
##터의
의해서
끊임없이
프리미
##였기
각성
##계로
대개
제이
솔로
특이
어떻게든
##우와
밝힌
덕에
대부분이
실현
인물이
말입니다
at
##중을
##64
II
의뢰
##사실
보여준
흘러내
저었다
연상
없던
수리
쥐고
성인
##셔서
검색
문제에
NC
##토리
경찰에
##구역
같아서
끝났
EX
##무지
난이도
명확
##마저도
해당하는
##우기
##괜찮
것보다
##키로
내려가
##겠죠
##생의
세계를
있었다고
부끄러
뻗어
일시
채택
키워
켈
설명을
##서로
것들이
##력도
은근히
팀을
변화를
어떻
##속도
이루어진
마케
아니었
받으며
##이건
노력을
##슨은
잘못된
이번엔
△
No
간단한
것인데
누나
##루스
우린
##루는
##준의
##iv
새롭게
환영
삼국
나갔
편지를
당해
확실한
앉아서
He
마시고
##대책
일으킨
75
##겠네
밑에
지나가
x
##급의
발행
##분간
감고
독특
##속이
거기다
##종은
시작된
오랜만에
##엘은
회전
쟁
서로를
펄
##였습니다
##님께서
선수가
일제히
훗
응원
사로잡
##지컬
유엔
이라고
요소
일어나는
궁극
##프리
##후에
##까지의
##당하고
필요는
솟아
개막
종이
##====
백성
오리
가질
동영
불행
##당신
세월호
걸어가
39
본인은
이곳에서
쓴다
##75
런던
박사
##활동
뜻이
성과
식사를
수준으로
##주민
호기
장수
릴
채워
시작으로
멀쩡
닌
##과정
너무나도
##르를
안된다
##보다가
임무
"........
##7\'
피아
##스턴
돌아가는
##형으로
애매
국가대표
##차의
##터리
멀티
기체
피할
##쾌한
국회의원
대략
##온은
남녀
감정이
##풀이
소용
층
가능성도
여기저기
텍
중학교
당사
장관은
가이
일으켰다
##모는
치열
어디로
##니어
##에게로
##리한
쓰러져
##지나
정확하게
어릴
##사용
##좋은
기록을
어쩐
##모의
##오빠
이해가
통상
박살
꿰
##월드
확산
##계약
종목
던졌다
관람
넥센
체력이
숭
##ue
아이는
작업을
잦
만들기
##그레
##작은
고양이
가능성을
대놓고
##~19
둘러싸
감옥
##디언
주제에
##박한
##구만
존재를
조금은
##그리
##단지
##심은
##편에
최악의
습격
파란
##조직
오해
감독의
##간이
연애
더이상
##우지
##제와
고작
규칙
하여금
보냈
무역
축하
떴다
##라구
##ame
목소리는
시나리오
이름의
이명
경악
사이가
##나서
차갑
간단히
##-3
적절
돌아왔다
해요
등판
보관
##+=
경기가
완벽한
##ww
##한은
##랍니다
##온이
##기인
##있을
이야기는
##rom
한꺼
타임
부처
##었는지
##공화
경우에
##하고도
안타까
##시리즈
##고한
합격
신속
어디에
코믹
##,"
자이
힘들어
뚫고
##비와
움직일
자체를
##구조
붙은
목이
##단다
##신으로
미드
부문
무지
나란히
더더욱
##였다고
##세트
학생들이
피어
강요
##ich
##있고
##ud
##7)
##파에
놀라운
##여기
##The
##ont
아끼
색깔
놓았다
이집
그로
구석
디스
승강
일방
##AT
찾기
서양
향한
##되는데
##]]
시체
호위
혐의를
뺏
##하였으나
##신에
낮아
삶의
해가
서로의
』
튕
개조
##화한
화학
말없이
환자
##FC
쓸데
만나게
방안
##번호
온통
도발
이리저리
##췄다
잠재
신성
지는
##edia
##국으로
물에
존재가
하겠다
##전사
이후에는
한꺼번에
실로
걷어
계승
##훈은
왜냐하면
##리우
식당
##:00
이상을
거요
캐나다
##ea
감탄
##더러
우연히
대원
밖에서
신비
캐릭터가
##률을
만든다
##파는
##리도
피로
KIA
계기로
위대한
아메
촉구
얹
##곡을
##다이
동반
##IN
창업
##것이다
##으로서의
##슈타
치켜
난다
##www
듣지
의존
or
윗
정착
슬쩍
##전과
##ET
순수
컨트롤
갤러
내리는
##란한
위기에
##계에서
변화가
쪽을
영광
##채를
전해졌다
1998
##'(
보도했다
찾아가
담은
자녀
남자를
묻자
##지구
음성
##하하하
콧
다시는
##6)
폼
대항
하필
##연금
##-_-
##베르
##공원
##액은
##끄는
##티어
##오프
움직이지
겐
신설
##인들을
해소
##없어
##립을
##일보
골드
코너
나와서
##스트를
버리는
아무튼
##뭐야
##션이
그러다
처럼
##포인트
공격이
##독한
대단히
파리
첫째
풍부
치료를
받아들여
##포가
왕이
최소한
생각하
보컬
전원
##님께
갱
일그러
##이긴
디지털
인민
서브
##이트를
##기나
저택
작동
##장애
이혼
역전
1~
보안
발굴
아이의
50%
우울
인간은
##두는
수집
사내가
방패
나타나는
이겨
쓰러뜨
왕의
창작
##일과
속을
침착
목소리에
검이
경험이
##그렇다면
와중에
든다
되었을
이같이
거론
웃으면서
가난
마도
하거나
##가에서
대북
재생
##ook
아쉽
추억
이상으로
교황
##터는
신인
왕자
비디오
그제서야
혁신
소문이
귀에
여의도
##된다고
마음으로
료
##장도
##해온
안겨
##정과
이자
도둑
과거의
##스트로
이만
적절한
용의
집어넣
다시금
출범
##조합
##95
##카를
##자금
##...'
세트
##공업
##보단
뚜렷
##··
##88
얽
##be
활성화
시에
##---
##거리를
##65
쓰이는
짤
유키
김태
##디가
##크라
한나라
목표로
저격
제임
초청
다스
이상하게
애써
부를
3.
떨리는
##웨어
##정상
고전
멕
##홈런
제로
##보호
싸워
##았으나
##진과
강의
##어라
쓰레기
깨물
대표가
반응이
총을
##사도
퍼져
게임의
놀랍
빛의
아케
최저
##시코
##너무
##배가
##히며
프로그램을
넷
시기에
##하기를
##크래프트
나타났
지혜
초등학교
##총을
침입
km
깡
##스팅
어디까지나
당초
쿄
부상을
##튜브
점프
다가왔다
귀여운
어려워
##당할
##질러
보다는
뉴스
일어날
이용하여
지키고
생각보다
소문
##위와
너머
가져다
##학의
사람과
간호
아픔
박정
고유
##방은
들면
##내려
##프라
일행은
##편에서
이지
촌
시점에서
광역
##밀한
##8\'
늘어난
편성
타이밍
똑같
잡지
##속의
##돌이
짐승
실천
44
속이
##스킬
있는가
이달
##파이
그곳에
원인
??
반사
##수수
형태의
첫번째
빌어
보여주고
징역
바라는
1980
카즈
중화
위기
청구
지고
##훈이
죽음의
##ne
강호
유혹
결과는
맛이
북미
모른다는
##..?
##FF
의자에
보내는
롱
자의
좁은
##하자면
47
가죽
##는지는
예의
65
##국과
##박을
복잡한
##gr
##효과
이슬람
합쳐
남긴
AP
반쯤
말대로
##제한
모티브
그릇
##들만
아니냐는
부른
##4\'
자치
하나씩
##:1
##ear
아야
형이
##유는
경북
##ass
참을
아랫
배출
울고
##!]
마땅
##운을
##액이
레이저
실제로는
침대에
하셨
##답니다
되도록
날개
로켓
##왔고
얻는
이끄는
##식품
형편
예상된다
##움에
교과
Sh
쭉
싹
한두
외에는
옮겼다
동양
##교가
최후의
##였다는
프로젝트
웃음이
되돌
스튜
찡
##토는
##실히
방사
##놈의
신경쓰
버튼
나뉘
배려
몫
〈
대우
had
##환은
##후가
훈련을
구현
라이벌
##달아
##청이
맞게
줄을
한숨
시는
##동으로
접어
자세를
##제품
어때
##다나
##매가
##보로
릭
##때는
##층의
이른바
손가락을
당시에는
언젠가
##했지
출현
##약이
체계
트레
##겠느냐
선임
해체
조치
판타
##데미
델
##내어
추격
네이버
##빈은
##왕을
좋고
나라를
사이트
적에게
말라고
전체를
프로듀
##시절
태도를
##집이
돌진
##늦게
특이한
##되었는데
##용은
목에
미치
##면이
농업
않아요
신호
결정을
포항
것이지
[[
재산
국토
트위터
유행
##건의
다수
가늘
아버지를
실수
상태를
맡아
댓글
오로지
##있지
##조정
초반에
보라
저장
믿어
찾고
##태를
배운
불가능한
섰다
##들과는
움직여
비중이
방지
교육을
여기는
휴대
주위
작품을
보고는
부근
간부
남을
##린을
테마
해보
도착한
##혁은
##재의
생기는
##만치
전쟁이
선출
##ex
##구와
##어질
가격이
##테니
향상
존재하지
##미야
상황은
냈
##-10
크레
레인
46
의지를
했었다
진심으로
구체적인
##시브
예쁘
##ure
김종
##ould
##전투
정비
고등
우리에게
10%
##다시피
사라지고
##그러나
##44
묵묵
##들과의
보내고
자전
모니
껴
파트너
여동생
쓰면
임대
넘어서
선수들이
##림은
쓸어
##담한
##3.
패치
##모델
예전에
본능
##네의
불길
흥미
##타이
미소가
적합
종류의
##음악
활약을
겁니까
관광객
여부를
결심
##85
밸런
##들여
듯했다
다녔
180
##ck
##피를
히트
##후는
유전
##슬러
극단
존경
##조에
##차전
좀비
3,
의문
그러는
뱉
맞서
##더군
인간을
##크와
##대사
느끼며
줄은
##렸다는
갖다
아침에
크루
사건의
노란
크라
1997
바가
성을
가짜
안의
끌어올
메가
식품
에드
MS
##겠나
공기
이르는
불명
##역의
##급한
##노의
말이오
발로
충청
놀랐다
장악
오스트
떼어
선진
##분은
연금
불렀
목격
필리
AI
수영
##님과
##질의
호주
주위에
즈
주인이
비싼
달고
상담
감각
페이스북
##호와
##~~~~
욕을
도중에
실종
##감과
사막
##결과
첩
등도
전체적으로
##청을
태평
최선을
속도를
다가갔다
넘게
최다
견디
사실이다
차분
포위
##활동을
정체를
밤에
이상은
##든다
##월에는
아직까지
썰
충분한
주변의
##등의
##:5
돌격
실력이
##메이
폭탄
##하더니
##화에서는
일곱
싫어하는
##범죄
##이었기
##중이
##들이었다
무시하고
##화점
##ark
처음에
SP
##-5
룰
두들
발표한
학교에
소중한
마음의
그리하여
해적
##:19
철저히
얼어
성립
기도
미군
위키
##선과
기록한
##거를
남부
바위
쥐어
굶
##연맹
클리
형식
##리라는
##번의
주인공이
찔러
##철이
꼬마
-_-
물려
전후
다짐
##하군
공격에
하위
##to
##글쎄
##그냥
장면을
##",
##짓을
##ice
차원에서
승부
기독교
올랐
키가
마음대로
##결에
##건은
##(200
아기
##이었습니다
뱃
몸으로
알아차
전투를
적혀
(200
일본어
##드에서
없다면
내리고
소리는
퓨
##uby
##기록
42
##img
숨이
끌어안
창백
컵
골목
증권
통화
구성된
미스
이시
##중에는
후원
실은
똥
완벽하게
##97
성공했다
고속
##법으로
##먹은
네덜
하려
유로
유우
커뮤니티
사내는
앱
##민을
조지
##정하게
세계에서
부부
레오
##톨릭
##배우
경험을
점도
이용할
##?!"
끼고
##iz
##등이
##~201
자율
약속을
##설이
##베이터
기술이
상업
##고에
##이너
지나가는
딱딱
권력
##팀은
##검은
짜증
##하늘
들어간다
업그레이드
지역에서
시작하는
손해
##하곤
여행을
여기까지
포함해
기상
갤럭
찍어
똑바로
스쳐
밝혔
##웃음을
당부
뚝
한반도
##오자
"......"
수송
돌아갈
카메라
##주며
접수
##그의
##뿐이었다
대만
심사
함정
않는다면
일치
넉
점심
##데스
작게
##검사
테크
사귀
연간
##own
김대
##강을
정도다
##지난
발음
##아도
시스템을
클로
아무렇
##............
##판에서
간에
##레나
이란
한국어
씌
추정된다
눈썹
not
##병의
에이스
여성의
같지만
유명하다
가까워
CD
국가의
합리
##열을
##천이
##버트
SBS
입장에서는
my
##이지요
가치가
주문을
폐쇄
##(5
되돌아
버리
##ons
어둠의
그라
스펙
인류
뮤직
##대상
##출을
##미와
아름답
한마디로
##OS
모집
동부
##당하는
본격적인
##발전
##아마
움직임을
인터뷰에서
##풍이
##.......”
퉁
한계
##보스
상태다
외침
##ber
행동에
파라
계시
즐길
영국의
당할
한참을
##어버렸다
확률이
##cc
##겠는데
미칠
상대는
한명
해양
만나는
##400
##해라
##ime
규제
담아
도끼
평양
비추
꼼짝
##GM
원자
넣었다
삼성전
##기준
미카
젤
원거리
진보
인형
돌연
연관
##기능
미나
순위
##베이
있었어
저를
600
##다리
학습
##드레
않는다고
많아서
아동
걱정이
콘서
패러디
##파로
냄새가
막고
듀얼
구름
잊고
##49
강원도
앓
법정
게임이
##EN
데다
맞다
한국은
관계로
식민
##십니다
씩
다해
##판에서는
##하니까
시대의
의하여
즐거운
##대기
공군
페이지
문자
덒
미처
천하
증오
입가에
싶어서
##대며
마감
자료를
공장
투덜
트랙
안녕
한국에
내밀었다
굴러
##당했다
가문
##(,
사랑의
올리는
성과를
거죠
귀엽
성향
##당해
군대
강제로
개별
갖추고
대량
매력
모용
커플
개통
말씀을
예고
세웠다
할수
거칠게
들여다보
역사를
따위
엑스
시가
##던지
##뚱한
##ove
법무
안아
##치면서
전직
가로막
##ev
패션
##환의
횟
빛나는
할인
영문
아니냐
대대
후배
고쳐
성남
많지
수를
수면
전공
1995
##AC
##중국
묘한
아들을
##법의
자유한국
못했
멈추고
기습
조기
답했다
의식을
##ll
노트
##경영
##ide
맞았다
##68
나뭇
내심
사용하고
기부
반가
저주
국회에서
억울
##어머니
##JT
##팀이
##강의
채권
확률로
동방
##학적
마케팅
아오
액션
가스
오크
여신
##층에
생일
"......."
않은가
독특한
부분에
학원
5000
김동
##주자
둘의
생각하며
화이트
PS
무시무
##싱턴
##위해
타는
좋았다
##혁이
물론이고
밥을
##덕봞
나오는데
소형
##회의에서
춤을
걸친
여론
오스
더불어민주당
##문제
주세요
요구하는
여인
##용의
부사
승객
대접
경향이
내버려
육성
##백을
자신들이
상기
항의
했으며
한국에서
##통합
아니라면
흘리며
도덕
##ph
비싸
갖게
##드래
가동
##내에
##러는
반박
사이를
##지인
출신의
건조
했어
##사키
하얗
당하는
##당하게
##초등학교
회장이
##엘의
짙은
씁
유력
임신
지키는
인증
나고
단호
간혹
일자리
##!!!!!!!!
##저런
##되게
쇼핑
##원들은
##...........
미루
주변을
마신
확신
정책을
줄어들
대가
##노가
이후의
플로
##느니
##eg
갖는
퍽
견제
##구에서
확실하게
사고가
수도권
전하
##여자
보존
젠장
1996
빠르
무사히
##올랐다
전진
끝날
놓아
입장에서
운영하는
##~!
사용해
후보는
내어
구별
기업의
엮
영상을
스웨
##복이
않았다는
뭐라
마른
3000
버린다
##SBJ
악화
김현
가졌다
신선
##종합
눈치를
의사를
내용의
의미로
{
##티아
건데
##카오
1/
빨라
임무를
##ire
시티
이슈
##장에게
그림을
열렸다
보완
씨는
오프닝
예쁜
가공
캠페
순간에
적당히
사퇴
해주는
한층
##학자
##바닥에
발언을
##는다면
바람을
##인데도
##부르크
##이니까
막상
얻고
##올라
대변인은
자기를
##거다
중년
##와도
원인이
다리가
##카르
위를
것이니
한달
##유럽
당하고
닉
##89
##관계를
이영
터트
##질로
풀려
똑똑
##데이
가치를
##주년
이후에도
줬
입이
기본적인
보유하고
쑥
오면
양반
교사
흔들었다
쏟아져
##67
지역을
읽고
있기에
파이어
한창
서기
그보다
마지막에
##재판
수천
##츠를
가량
이쪽은
던전
##고로
장점
죽지
##3,
거라
##창을
사제
혁명
고구려
감지
그토록
j
##졌으며
00
##ian
시범
보석
##ost
##스트라
유대
##600
스트라이
포인
이모
기반으로
##일리
낮게
칼날
##폰을
##부모
믿지
##방어
넣은
##두를
##려야
##ace
다루는
봉사
달하는
##음과
전체가
##그럴
이행
매니
기다리는
조치를
이어졌다
깔끔
미국에서
들리는
##러진
끝으로
국왕
어려울
어조로
##오던
##편을
##임은
##현을
축소
파는
스프
노리고
심심
##시면
네트워
머리칼
장교
##급을
안을
##할지
메탈
부지
메뉴
새삼
위기를
##정도로
##/32
일본에서
##)·
물러나
훑
후계
생명을
나누어
당했다
##VV
내야
##는지도
##노는
찾았다
시작했고
##AP
풀이
반도
낡
트로
영양
묻고
##테인
깨달았다
알리
지붕
##미에
##숙이
##츠의
염려
되지만
해설
플랫
죄를
잉글
대해선
위안
앵
##생은
##건가
양성
##오리
무섭게
과도
오라
원망
뜻이다
이대
결혼을
##ake
귀국
##중학교
김정은
진술
제품을
총리
이글
묵묵히
엄마가
현재까지
폭력
집착
싶을
주관
밴드
쓰기
##그러니까
중독
유희
지불
마왕
진영
이같은
죽이는
바퀴
다가오는
몸의
나이에
휘둘
식의
노부
한자
음성이
##되었을
##AL
가지는
조준
하는지
##주세요
##법인
##레가
##보던
20%
교회
담겨
얘기가
피해가
마크
완전한
당황한
서류
최우
##며시
스킬을
우수한
발생하는
##소녀
그곳에서
담고
소울
환상
투명
##이냐
전주
입단
##처리
일주일
##누구
##이었다고
입술이
애를
CJ
정통
우려가
튼
돌입
떨어지
##폈다
성적을
##관련
해상
##위원장
취재
뛰어넘
수립
이어서
##광이
경기에
##ood
올리고
##반을
격투
##받지
고개
얇
##초를
##경기에서
##디는
##로와
템
FI
러브
품고
크기
빔
엎드
##식과
##구멍
말했
막혀
말과
##(3
발걸
##운다
소위
입력
가기
란테르
##ran
서부
토끼
기둥
##시간에
##OR
##~"
녹색
돌아서
##절로
좋다고
역으로
##산으로
경유
##87
사용하지
적어
##아악
내쉬었다
##per
아일
불안한
##자원
##없었다
##았기
이종
가문의
엇
시골
##AS
차고
##렌은
##처를
무공을
##100%
##씨에게
##II
가상
미래를
슬픈
달래
##모습
유튜브
육체
##스도
생길
본선
있을지
##포트
##갔고
##진한
##격으로
고교
아직은
블러
##ick
공모
##더라면
##전략
잎
오르는
램
←
금속
후지
##무장
1994
나카
한가지
김재
온다
##포의
전투에서
##AJT
윌리
##밀히
사법
have
##━━
##행정
제공하는
##일지도
움찔
##5000
##철은
죽었다
감상
위장
많은데
이용하는
이주
구원
황제의
##성장
신앙
후보가
##이요
피고
##레를
레어
##브는
사실에
##작의
##중하게
곳이다
있겠지만
##건만
결론
찾아온
인권
팀은
##현재
##황을
흐름
비공
대통령과
##SF
시의
후퇴
관할
##이든
번이나
싶다는
##치자
적대
##이라고는
프린
찾은
얌
차지했다
떡밥
마술
부수
##라이언
외면
일어섰다
취득
브랜
님
##인지도
사고를
눈빛으로
여왕
커버
Sp
지팡
피의
##으신
##소설
##로써
캘
##ach
by
##목으로
##.5%
약을
곧장
뒤에는
##까봐
##후를
수습
무작
해병
##나갔다
안드로
상장
천재
##8)
정복
내의
이빨
##-4
녹음
CC
각자
##하네
행복한
부과
고문
않나
비슷하게
##워드
개성
기사가
##길로
봤다
##건지
##대문
##있다는
도는
어쩐지
충북
빼고
축제
구슬
##아파트
##페이
했지
구글
작년
질투
이것도
깨어나
실내
뜯어
##구리
##철의
재미있는
후쿠
정권
이미지를
이가
달려가
아니지
##바라
##바른
##점의
봅
보여주었다
그림자
불가능하다
##이사
있어서는
##게요
##양은
사람으로
구출
차마
이나
황급히
##했다면
##오기
수염
##ous
##하시는
해줄
역임
성격을
무효
##하더라도
##시부터
재밌
##미나
##룡의
##난히
결국은
##빛을
##보이는
##다의
기재
극히
한국인
일대
##방향
##oug
만나고
사용하면
바닷
평창
##발로
##생활을
##족이
##진으로
어지간
##금으로
급격
##포로
이전의
You
자아
촡
##단에서
이득
이스라
눕
##여명이
##애를
진행된다
아티
##으라고
출마
엽
서울대
##편이
그래픽
나빠
##!!!!!
느끼지
제자
융합
최강의
양의
까다
주위의
##리아가
씨가
쓰인다
##정당
##협력
최신
기능이
##비전
조금이라도
일행이
루이
오래된
번호
인하여
지르며
차려
무엇보다도
격파
##계열
양산
##상품
편입
핫
놈들이
고기
##률은
능력은
##되었으나
넋
뒤늦게
쌓아
원을
벽을
부작
청소
##병은
기자회
수능
##애가
지극
알파
여러모로
○
##해왔다
##ix
삼아
하나하나
##벽을
시대에
##ish
##우리는
거리는
명백
진실
##킨다
개를
64
배제
##서비스
##마스터
감았다
##공은
##실험
타자
##하진
효과는
모리
기대를
더군
##하겠습니다
돌아보았다
처치
##맞은
##표가
검술
방송을
##누가
부품
##천을
##레스를
팝
제어
습득
공개된
##aw
##AN
##케이
떠날
보이지만
아이들은
구사
꺼냈다
49
##co
관여
어렸을
소수
##작이
들어왔
##ond
동시
##진에
소드
모습이었다
##봐도
##안에서
##장님
##머리를
연기를
거나
유출
회수
들어가서
격려
카나
##사에게
주최
##으려는
사형
##되어야
이민
드워
43
사내의
저렴
조용한
##나가는
쓰여
ch
경찰이
선전
##져야
##줄이
양쪽
이외에도
앞의
성공한
##연하게
##셔야
기다렸다
소요
사회의
나누고
세계에
##당신은
차기
물음에
##봤자
##일세
갤럭시
또다른
출장
##되었다는
있느냐
보낼
변형
##직원
##적이었다
밝히
##자책
랩
##심에
억제
닥터
제외하고
다가와
의미한다
다닌
하야
카드가
경제적
즉각
##채로
서울특별
이놈
##이봐
##하기만
##2000
방어력
있단
재개
##브라
초조
얼마든지
새정치
헝
##녀를
조그만
받아야
공손
##────
##어버리고
매각
프라
심장이
미국이
쏴
##링을
인용
속하는
무서워
이로써
##련의
조회
민주주의
##온의
힘껏
##----------------
아줌
가능성은
인지
##졌는데
날짜
이룬
여학생
##중에서
소통
##ov
콘텐츠
유기
휩싸
MP
다수의
비트
견딜
유발
근대
치밀
95
식물
##일차
##줄을
le
##오카
##미니
거라는
쉽다
미야
이루고
##pl
마이클
;
##LC
##막이
주장을
##포르
표정은
상의
가끔씩
되었다고
주장하는
##엘이
##신과
데미지가
기다리
##즈키
일하는
##(4
전형적인
기운을
책상
짧게
##ない
왈
협상
앞으로도
돌아갔다
##77
순간적으로
##였어
카운터
군인
##위원회는
두근
느끼게
지워
자네가
조건을
##랑은
회담
아쉬운
##행위
##인민
소식이
##이렇게
##에이
바라보던
미츠
##회말
펑
##ob
##후후
##ite
나설
헨
응답
##해줄
##되었다고
마다
##ug
베스트
남기고
동남
##키며
뜻은
앞장
워싱턴
강하다
우스
##해의
##보였다
다이아
과거에
배달
##제국
##AM
돌아다니
프로토
음악을
##달라는
##86
라니
사태가
못하면
적극적인
공직
데는
드릴
여성이
밝혀졌다
발견한
부친
##회의를
면에서
대거
이곳을
나오면
짐을
##ID
훔쳐
넘치는
무척이나
따위는
갸웃
로이
놀라서
현상이
주전
나타난다
더군다나
##등록
##~3
같지
##기구
등장했다
##키지
태도
##감으로
스타일
걸어갔다
사이버
##속성
##유키
테스트
맑은
##ft
##월의
##집에서
나루
아이템을
지능
we
##슨이
##널티
위치에
안다
측정
##기자
플랫폼
후에도
##되었지만
무인
국민의당
소년은
##혹한
##부인
통하여
눈치채
입증
뭔가를
##임에
영화를
방에서
천사
##길래
##1/
지났
##았으며
김상
소식
망가
##하는게
치며
쓰러진
##여행
하라
붓
사우
저지른
##분쯤
레전
##서와
엘리베이터
걸리는
추가된
실버
##다를
이순
벙
입수
4.
##추는
쿵
얻었다
틈을
믿는
바짝
당일
##들보다
돌아왔
VS
마냥
처음엔
병력을
##빈이
드러내
무언가를
레아
기름
따르
##...?"
고요
운동을
수색
##봉을
홈런을
최근에는
쯤
날렸다
##자나
짓는
##졌습니다
것이란
합동
완화
파일럿
타격을
상관없이
쪽에
아이들을
상실
다카
전멸
##아래
고집
기분을
뜻밖
자를
##클럽
##해는
할아버지
##패로
##어린
##시하는
부르고
이외의
씁쓸
##기다
##쓰고
모인
깨어
##호텔
창출
부각
되었는데
다룬
어려움을
법칙
터키
하려는
##격에
##매는
전신
##IT
코드
골프
유지하고
같아요
##나라의
30%
몰고
##그를
##되지만
이후로는
적발
스티
자제
캐릭터를
SNS
##훈의
케이스
닮은
옵션
복합
젖어
연신
이은
##천시
불린다
가득한
##par
오염
##업이
공감
행위를
째
ex
신라
퀸
##ys
가드
행성
##편으로
좋겠다
##취를
대사를
##혁의
세우고
락
Ar
##찰을
혈액
##당에서
98
간담
늑대
비슷하다
신도
작품의
나섰
##반의
41
나은
관련이
##치도
##랭크
##열이
출석
##터테인
관중
##로에
##뿐이다
뜻하는
가깝다
나서는
##실점
배우는
드러난
작가의
손가락으로
##되어서
독일의
노인은
개인의
높고
밑으로
세르
안은
##나지
##건으로
##쪽은
##이었을
##소와
##련을
뿜어
품에
##었어요
젖은
유형
up
퀄
계기가
신임
더러운
변태
포스트
##한번
아크
높게
파이터
un
##디션
##자면
##어머
불만을
쪽에서
전력을
##숨에
상향
떨고
찾지
북부
가속
##마루
규모가
귀가
놈을
끔찍한
##달라
##총리
왕국
##전에서는
재수
##해야만
즐기는
시종
대지
계단을
##강한
골라
가톨릭
##철수
선박
공격력이
##차고
있었기에
돌아올
이루어져
##겠군요
반란
##번이
바이오
##됐다고
폭주
아래에
분양
죽기
변호사
사건에
세상에서
##읍니다
꾀
아이들
자세로
##VE
##가게
미국과
##고속도로
##;;;
로스
##스포츠
머리카락을
올라갔다
##치료
역사상
병력
훗날
##호로
쪽은
##인이다
곡을
울렸다
충전
선제
떨어질
손에서
SS
버릇
감동
시선
어울리는
감안하면
몸에서
끊어
재촉
흔들어
##면의
죄다
벌이고
내구
섞인
보물
직장
250
대부분은
이어진
남아있는
기쁘
##ment
신한
개설
참여한
킥
##구니
비극
어머니를
신입
발자
##66
##저나
마차
##타입
이곳은
입원
시키는
##렸다고
##IS
##길에
어마
대학생
##억원의
스페셜
없잖아
때였다
85
불만
천연
열린다
쫓겨
영역
영주
주거
도무지
##진흥
방식을
##려던
##군으로
##데다
플레
쳐다보고
치솟
전라
진단
##함으로
생략
##사리
단숨에
입으로
##슨의
찾아볼
자산
둘러싼
##...!
##BA
트럭
피아노
아이디
메이저리그
한결
점수
세대
바닥을
하수
탕
움켜쥐
도주
톱
GS
미국은
참석한
##족을
##합을
클레
##ies
되살
무리가
캄
중장
이마에
상급
바쁘
찍은
al
살기
눈빛을
않았는데
##마와
##들어가
것들을
때문이
##sh
싫은
##아와
자유롭게
##네시아
##론가
울음
do
기지
카타
all
재활
행동이
갈색
방문해
##.」
마비
던진
나나
##판으로
수준이다
침략
##CP
시상
떠났다
신장
##보의
없으니까
공간을
딸을
이치
없었기
번갈
움직였다
수사를
위원장은
올려다보
##강에
사장은
제공한다
1970
##검이
뿔
돌리고
세상이
잇는
##사이트
from
##조각
##기게
평가가
캐릭터의
##mer
그제야
조언
음성으로
##기획
##ib
투쟁
##티즌
안나
않았다고
##그나
최대의
것이나
그래요
않았다면
##함의
이용해서
무표
접속
창을
끝을
##94
계신
않았기
##9)
단기
폭행
강렬한
##식에서
잡기
저작
김민
##릅니다
차지하고
IT
##하자는
눈동자가
리버
57
아내가
##목에
의혹을
연락을
헤드
누적
##어와
##풍을
##츠가
말씀이
##man
##티나
마인
항복
그녀와
사도
세부
##결이
##끄럽
참전
팬들은
필드
한미
체크
##명이다
Wh
미끄러
##공단
벗겨
회색
바꾼
시장에
병사들이
##.’
##****
번의
받기
탄핵
회장의
##이라고도
초록
턱을
세우
일행을
눈에는
자이언
늦은
없소
##투표
키스를
##테니까
강경
읽는
##금의
것이기
자칫
변한
뉘
행사를
랜덤
##츠는
큑
사건은
비례
##해져서
업계
베이징
##나간
달콤
##모습을
따르는
터뜨렸다
##대원
몇번
미디어
말자
높여
마약
외계
써야
진실을
##스트가
공부를
(1
##port
##됐고
데에
섞여
천안
쌓여
맞을
유효
컸다
블로그
이르러
안에는
구할
화재
상태에
##주차
편하게
##eat
주십시오
익숙한
##스럽다
일본은
뮤지컬
멕시코
사흘
약혼
##들로부터
시장에서
팔아
모양의
철수
튜
잠겨
##무의
##즈와
시체를
제외하고는
소비자
듣기
추가바람
당분간
작가가
서구
되었으며
방문을
##지사
힘은
토모
상처가
현역
조그
##레는
무시무시한
껍
세상의
집계
먹으면
정글
동해
무엇인지
##으시
인지도
##아버지
장르
공격하는
필요로
합병
56
덤벼
##할까
틀림없이
52
유령
##MP
주사
무방
회사의
##시까지
마녀
##등한
IS
람
침을
납득
헤이
차원
이번에도
##화되어
출근
흠칫
말이냐
사자
학살
싶다고
윌리엄
끄덕이며
치유
호남
##http
여긴
사정을
막는
싸움이
병원에
주체
통산
밑에서
크로스
##곳에
충남
경호
##청의
업무를
맴
죽는다
일부를
아바
확인한
플레이어가
##ial
아랍
필사
결의
##념을
달리는
아테
불교
알수
소녀는
이유도
장을
##자동차
지켜보고
역시나
##.[*
버프
낯선
자유한국당
활짝
죽게
안될
문제의
변했다
클라
때로는
지연
가요
기숙
유사한
울트라
들려오는
##까진
되기도
간접
그지
일정한
압도적인
##중이다
자랑하는
여야
##지다
저의
해명
연말
##어떤
재현
미쳐
헤르
스탯
주둔
##항을
안개
나오기
NPC
주무
##...]
부담을
순수한
뒤덮
결과적으로
팬들이
마루
정상적인
그러던
this
진지한
심지어는
차갑게
##하오
고발
##태가
가해
동기
주춤
분노를
##org
정도면
판타지
지낸
##찼다
빨아
길은
단단히
개가
식은
비스
CP
론
##트릭
##움과
##2/
제재
드러냈다
##산물
성능을
언급한
단점
부엌
##중히
##시간을
은하
##84
##이었으며
de
밤이
##조원
##마에
떨어진다
멀리서
놓인
위주로
피해자
들리지
첼
알겠지만
등뒤
##OL
##HE
취한
하도
그중
800
##아라
##이기에
##지기도
자매
##비트
##대출
여인의
학교에서
개시
##직이
점수를
##당시
둘을
##탄의
포기하고
##nam
##쳤고
##층으로
확인하고
중에서는
##로봇
목표를
유독
보았
논리
좋아서
도박
집이
##자로서
숙여
##마이
##오오
##해하는
올라온
##케이션
##팀의
부채
모습도
^^
손은
삼성전자
##-11
##-12
##빈의
##궁의
##역사
가격은
사용되는
【
##자유
콰
##저의
##리언
객관
##ile
하얗게
들어선
내릴
방치
##질은
진짜로
네티즌
##만명
##황이
##타자
블록
##모두
톰
촛
달랐다
##NA
머뭇
##로만
##됐던
날씨
##행은
비교해
생태
주면
서울중앙
##본을
보유한
##act
택시
눈빛이
뱅
반해
관련한
##손에
정원
오기
##갑을
정해
막장
슈팅
때를
뺨을
놀랐
어렵게
##우리가
##년만에
돌아다
존중
주연
마찬가지였다
##지는데
혜택을
휘말
지자
심판
##png
##러의
지나면
폐하
##참한
흐르고
기를
어울리지
##면에서
역을
##St
필리핀
소녀의
실무
##미국
달라붙
소리도
다음달
".....
유니폼
남편이
##드래곤
##대신
거북
찬성
하고는
##OC
나라가
줄여
시작되었다
여객
질러
우두
붙잡고
광경을
말의
살아있는
##보이
않자
##레의
1992
##go
이하의
시장의
자리잡
대치
적당한
##감사
생각했던
##iss
길에
부장
현장에서
점에
집권
레이더
거짓말을
##하실
팬들의
예능
포착
윙
성폭
##RE
수준이
##특히
프라이
노무
박혀
##여명의
악몽
손수
끝나는
##디의
겪고
얻게
깊게
말해서
늘었다
그런데도
사용하여
회의를
##류는
발라
경기는
88
일관
##환으로
전체의
부담이
고려해
##하아
##것으로
심상
빡
리듬
해안
영토
##오른
위엄
##거워
노리는
즐겨
목욕
올릴
일각
들어가면
##이미
호칭
##시지
##!?
토대로
나가고
휩쓸
차에
여태
닦아
해금
##저를
데다가
번개
희망을
##익을
저질
친절
1.5
##5\'
##억원으로
밤을
##래의
1993
##르면서
목적을
##이동
이십
길고
##스톤
##나기
##SP
실적
##nt
단축
입주
안티
과장
랭크
내뿜
여지가
명은
##되던
몽골
##생각
다음으로
##불이
토해
교수가
성능이
젊은이
상관없
##잠깐
지목
고스
증언
##놨다
##변을
##번을
##화하는
기병
AT
종로
##미로
##って
아베
떨어지고
##안보
왔던
막대한
##4.
##아지
미워
움직임이
상반
우는
취약
곳곳에
##능력을
내외
모은
주신
쑤
빙긋
##료가
##문에서
are
잔을
77
금리
했는지
##했으니
정수
질병
법을
바꿀
고마워
희귀
서있는
##업에
##파크
##차량
이익을
##생명
뜻으로
댄스
##ike
더해
텅
##적한
캐스팅
안타깝
돌아오는
##.25
##예를
때와
더빙
그간
서울특별시
마법의
가면라이더
되었다는
산맥
의자
벌인
##Lv
기원전
스스로를
##부지
편지
알렉산
##저럭
▲
예로
##당과
him
검증
##책임
덥
슬슬
슬퍼
장사
그놈
합성
##-7
##귀를
현금
동행
##load
타이거
##거냐
시절의
기아
##놓는
사유
싶었지만
일본에
##너지
부적
흘렀다
##들처럼
기사를
##뒀다
너에게
말씀드
돌고
부실
대의
사람이다
같다고
안색이
결정적인
여유가
동성
스미
사정이
금강
하늘이
##소리로
뛰쳐
미치는
임상
무산
허무
##럭저럭
형님
##반이
본인도
##가스
길로
발걸음을
김기
어떨
스파이
##요한
진행된
눈동자
##ath
특허
아버지와
막내
중이었다
남지
##었으니
최고위원
스웨덴
##aid
우리들은
보던
허벅
않다고
작품이
##림에
무심
차지하는
##6\'
보좌
신화
이벤트를
시장을
먹었다
계곡
##았다는
걸릴
##orm
(0
튼튼
간주
나머지는
굳은
숙였다
바랍니다
##었나
시작하였다
상륙
더욱이
부풀
농구
유입
이수
##두에
사거리
마츠
##으리라
묻어
##메가
발이
고소
##저가
##청에
김진
Bl
실수를
어리둥
지루
노인이
##룡은
##적이며
권총
짝이
드문
##측은
세력을
##문과
않습니까
##한지
클래식
##회와
특징이다
##락이
##러워
신부
후려
대외
##인사
##42
##지수
화물
##전대
##umb
찡그
뽀
##년은
왜곡
##바의
허공을
간단하게
있겠지
1988
결성
개발한
말이었다
##쪽이
류현
##추가
이듬
출동
위력을
사후
It
못했고
##ence
##ory
정면으로
보충
##석에서
##일간
가능하며
눈부
같다는
##}}
##색은
문의
장례
시작해
##eb
금메달
묶어
읍
일일
떠났
결론을
비판했다
절벽
손잡
사례가
노르
하니까
내다
각오
66
폐기
##리포
운이
착한
네오
쉬었다
##미사일
선사
##르자
성별
땀을
돼지
청주
아미
단행
주제
58
##후보
가지게
열려
##셔널
자식이
##톋씉
그러지
맛을
탔
포도
##ade
쏜
마을을
앞세
양국
##손이
시장은
불가피
메카
상임
굳어
해라
##사람이
나쁘지
##하자마자
##보드
소년의
##급이
##감도
지냈
셋째
##림으로
버그
있었지
##브의
살이
용인
##라고도
##범위
얼어붙
섭취
황태
중계
골을
##피가
대미지
숨겨
방출
쉐
진은
##구치
시위
##시민
##의로
아머
##백이
##말고
##커가
처형
빠져나가
농민
영향으로
##사단
두어
#!
오바
샀
##설마
##ign
준우
동아
강도
타워
협조
한번에
빤
노려보았다
공연을
사양
화산
##음의
##눈에
##자들과
필요도
세포
연구를
##ance
지극히
##yle
그랬다
흡혈
물러서
PD
##TE
##으로서는
##았다고
장관이
유난히
.....
생각합니다
정식으로
걷고
손톱
게이지
##쯤은
휘둘러
##very
##권과
매장
##고기
##풍의
차이를
학교를
##na
팔이
가리지
##우주
아니에요
방위
##3\'
귀신
지원하는
난이도가
##노스
모두를
유리한
프리미엄
##젠장
설정이
아랑
##리에서
##마크
대답이
햄
알았어
your
실질적인
##거리면서
끝나면
상대방의
북한은
정찰
볼넷
##보게
판정
베네
##도르
하나만
얻기
볼을
여부
##'.
##AA
정보가
사람들과
하나이다
깨닫고
빌어먹을
##가면
골든
실려
반격
무기로
수술을
##그래요
싸우고
기록하며
부르며
예선
##타와
공무
별도의
두루
##now
남쪽
생각으로
일으키는
##강이
##동물
##말도
불쾌
보너스
##조금
##코를
##앞으로
퍼부
##연구원
있기는
나가서
##측의
먹지
창원
시즌을
거는
##공학
조차
나타내는
##되거나
있자
##프와
##센트
구하기
지리
살아가는
통보
봐서
##스트의
김경
많을
54
##바퀴
##인지를
부회
졌다
##터로
##io
거둔
##조사를
##공동
쥔
##해준
97
불쑥
마세요
떠오르는
오를
아무렇지도
굳게
US
웨이
어긋
예언
대조
이명박
알바
##러를
##겠냐
##....”
도와주
##회초
##하여야
종사
이듬해
거세
군대를
총알
##OBJ
분명한
미쳤
면이
no
미세
##네이
##시니
쇄
공식적으로
참모
##92
##봉은
퀴
꿈틀
##룡이
##)))
01
##전차
##브가
고함을
##안과
##야를
##오면
밖의
##지던
##사기
FIFA
제임스
어린애
벌어졌다
##절이
##옷을
인원
##하길
##ink
정류
##???
부자
경우에도
정도를
드라
동그
발생했다
주장이
06
어머
진지하게
##릿한
1991
지지를
유인
##나이트
##음으로
##의의
충족
분쟁
황제가
##공간
##(0
##롭고
식탁
통계
남겼다
선을
루트
군데
##모든
강철
일어나지
군의
뭔지
떨었다
갇혀
숙이고
의미하는
이식
라이더
가계
대사가
운명
에너지를
그늘
맞춤
##커녕
렉
##~~~
갖춰
##세와
사람이었다
##호호
감수
##대한민
##은행은
##골이
자랑한다
쉬고
지키기
##역은
프랑스의
힘에
##레일
구성되어
돌이
##들이나
자부
무적
인하
##자키
##운영
부탁을
못해서
특성을
##천만
##저도
##리얼
경우를
코미
하오
올라가는
스킨
##대통령
KBO
##였기에
서민
4,
발전을
##초가
##히로
정확히는
고속도로
초창
돌리
영구
열차
농촌
MVP
성의
하더니
##.(
##도서
위치해
참지
대표하는
그럭저럭
시작할
##거라고
##꺼야
시장이
08
##차별
컷
해치
거꾸
자동으로
갑작스런
못했지만
##우면
오늘도
껴안
연령
##순히
초래
아니오
인생을
훌쩍
모순
전성
##VA
각각의
포장
수여
김씨는
일단은
웬만한
자리가
흥행
07
하마
그랜드
##시에는
sp
별도로
일일이
##근데
포르투
처음이다
끝났다
한국과
네덜란드
일명
두꺼
커맨
지역은
정교
하루에
없었을
##티드
##렸는데
휙
생긴다
기사단
플레이를
불펜
통치
##급으로
##sp
##히게
클래스
친한
저절로
##.10
##____
전세
말까지
않던
줄기
숫자
여인이
##5,
현행
모양으로
학생들은
##졌기
화성
##들한테
입는
아니었지만
##인들에게
때문이라고
##~200
##사진
넣는
급하게
형태를
이따
##하르
꿈꾸
드랍
##버스터
직전에
교도
##적도
##희를
직접적인
흐름을
##옥은
베이스
##하였는데
공격할
##ary
##일드
아이들의
##바다
##전기
09
비단
수만
##메이크
하느
눈에서
사라지는
장미
보편
파이널
##비서
##제일
##정하고
건물을
밀고
##있는데
브루
##EF
재배
숨겨진
초과
낀
뿌려
세력이
정성
마을에
##퍼스
일본이
교장
자전거
##향은
작고
했기
##버그
때문입니다
코를
침공
분명했다
##받는다
##웠고
평상
취해
들으며
##자라는
수요가
자꾸만
##스피
박지
무난
주의를
스키
##시키며
소장
한가운데
부인이
크리스마스
자체의
계획이
이어질
구조를
좀처럼
##층이
갈아입
고무
기업이
배경으로
SF
각기
소녀가
##질에
것과는
북쪽
행동은
중순
흘려
kt
##름한
##움은
언제까지
노조
출처
사회주의
발견된
##들끼리
##리스는
대신에
##타수
내장
피에
MC
카라
떠나는
지나갔다
법적
##플렉
재건
위험이
외환
체력을
교류
##린다는
사태를
딸이
미소지
어마어
의원의
동화
우습
거느
쓰게
오사카
##내의
이천
##시키지
##(6
강릉
머금
읽을
의아한
##커를
늏
수의
51
##끄러미
상황이었다
추가되었다
##리아를
날뛰
순서
에르
##지능
차이는
승용
쟈
솟구
여덟
BGM
DJ
##리티컬
##oy
창의
유저들이
권한
호수
석유
##이나마
능력치
쳐들어
모두의
급한
##교는
다닐
묻혀
태워
가구
##통에
700
키리
작품은
사건으로
전투기
국방부
수록곡
##~4
빠졌다
깔려
응급
쓸쓸
묻는다
##앞에
##락한
도구
##디를
##뒹굴
##arg
독점
쿠로
요괴
패시브
사드
생각해보면
소지
형의
나오자
엉뚱한
##부족
05
##EO
##래를
남는
되었던
붉게
샷
주가
타케
낡은
나이는
티켓
되어야
캐릭터로
##수석
사랑이
블라
개척
가사
잠들어
서울중앙지
##거린다
##츠키
##년과
공허
친구를
맥주
국정원
##이었어
스카이
만났다
힘없이
반갑
흐느
##어버리는
시선으로
우리들의
군단
##혹시
##월한
어드
##경기에
공격해
연대
유의
##으로만
전철
랭킹
분야에서
##(!)
넘쳐
무의식
##라에
생명의
1960
친척
두는
운영하고
것이지만
그것에
##너의
두들겨
승부를
에릭
끌어당
##돼야
복수를
##안녕
중동
향하는
##담이
##OM
##교사
샤워
건국
트윈
의문을
만나서
요정
리얼
다음은
되풀이
삽입
공격은
스튜디오
챔피언스
않았습니다
내려다
국경
##민족
ruby
부축
매번
번째로
##층을
##위기
보이기
인물로
##스러웠다
스폰
##연구소
1989
정신적
##아요
산을
군주
그레
선수를
##들지
##.11
##피해
##학은
59
혐오
술에
들었던
학생들의
원인을
걸리
젓
리오
one
동북
지속적인
인도네시아
중구
##포는
일이야
명문
##국인
대회에서
병을
어르
진압
이미지가
나서서
but
##더스
##잡을
##가리
##소송
##들에겐
틀린
가리키는
##아아아아
치러
없도록
자기도
외의
이런저런
당신에게
##겹게
통증
##묘하게
##심과
브로
터져나
##)(
##학이
찢어
이어져
발생할
매직
##계와
##.1%
##산시
모니터
받아서
##감의
02
##2010
있을지도
##군에게
##미한
어렵지
분은
권력을
였다
싼
130
들어섰다
경주
이긴
지향
맞춘
##당신이
##스트는
사망한
패치로
인력
팔에
지시를
군사를
흡사
##라노
메모
처녀
##무역
##온을
##CC
철저한
쓸데없는
##번은
역사적
꿰뚫
치열한
작전을
##들까지
욕망
지친
반항
주제로
##티스
와중
부상으로
허리에
전파
##선배
##했기에
##물과
시절에
같고
##테이
야당
후보로
원내대표는
##토와
소매
아시안
##로나
##걸이
잡힌
즉위
김용
상식
##이었다는
마시는
전까지는
더욱더
방울
대책을
자들이
불량
전수
앞둔
네놈
재벌
높이는
진동
110
##도대체
가늘게
ST
알기
##원인
침몰
대통령을
##터미널
진행한다
사전에
##개는
##렸습니다
##레이터
부정적인
정상회담
입구
뭐냐
하반기
입맛
##라이트
##레니
##NN
##실과
##어에
##준비
설사
움직이고
당시에
달려갔다
##봉이
장치
번갈아
전세계
##하루
##가루
철저하게
무너져
양이
##걸로
긍정적인
##ock
계단
체제
##흐흐
나눈
##운드를
질린
물끄러미
##.2%
싶으면
훼손
현실을
최후
실시간
##대화
풀고
##미네
마리의
##금리
타율
##.3%
전투가
펼쳤다
보아도
쳤
##고속
##당한다
연료
한일
냉장
여담이지만
##9\'
탈퇴
동요
어두워
##컨대
있겠다
가방을
비타
생생
##76
첫날
##서비
번에
##디스
보고를
포함되어
선택한
국내에서
미네
한계가
용이
알리는
일부는
사립
##명에게
오락
지형
소외
밭
콤보
싱가
##물관
녹아
느긋
비해서
메리
충성
##광을
극장판
면역
##혈을
동정
기록이
흘렸다
싸늘한
절차를
##체와
말만
거꾸로
아닙니까
살던
##밀리
전무
##LL
굉장한
하나같이
훑어
##바가
기억하고
글이
##테크
놀랍게도
##OP
여전
##곳을
밝혀진
##줘서
이스라엘
##ax
힘입
대상을
카스
##오면서
##43
##가슴
스며
아이스
잃어버린
총괄
쳐다보며
##app
왕은
##사업을
맡겨
##ail
미국에
그대는
##받침
그리곤
껄
승인
해준
##렌의
야간
잠자
##코와
달이
정부와
결정했다
톤
툴
간지
뻔한
##orld
쭈
다투
##ens
##기념
흐트
비판을
시사
파르
불과하다
##ree
##분야
상대방
##됨에
##/201
스틸
상한
노인의
상자
현관
중대
##kr
형은
##장난
##선가
불평
묘하게
##내에서
시대를
사운드
아니며
식량
##83
카를
##팀을
말로는
법인
느린
인물이다
소년이
160
##der
##물었다
작중에서
##정신
걸렸다
비어
MAX
한국을
리메이크
##날이
장로
##클래
대수
##어버릴
벅
##41
놈들
##호에
단편
동쪽
심각하게
크리티컬
프란
구체적으로
태극
##마치
사령관
놓치지
멋대로
##키아
##.12
동안에
대인
위해선
##내를
##창이
형식으로
동계
안전한
입장이
##-19
##만원의
##팅을
##upload
풍부한
##니아의
##범이
승격
헉
##언제
##봉사
마이너
그렇기
놀랄
총선
##네스
콜라
##임금
은혜
승진
##아닌
##쉽게
com
모습이다
좌절
눈초
잠실
##법과
##생산
분열
96
이집트
1500
##백의
아나운
삼각
컨텐츠
##.4%
뜬금
##년대에
덤으로
AC
##추를
##스럽고
##지대
##들에게도
투구
질려
못했을
길드
트랜
잉글랜드
잔인
주자
입지
전쟁의
알아야
일방적으로
back
##명도
본편
해킹
##세스
주며
참석해
##년생
인재
사람처럼
뵙
톡
썬
브리핑
않았어
이제야
되게
##800
채찍
##~5
마누
##르와
##분한
결과에
한발
×
등이다
여기에서
그쳤다
##티를
쟧
##-!
괴로워
대동
본다면
봤을
아주머니
사고로
도시의
얼굴에는
마을의
겹쳐
진료
##던데
시피
것만으로도
게이트
##..”
##이거나
##만도
so
서쪽
재무
대법원
복용
어떡
왕국의
있습니까
비유
블레이
##사들은
##맣게
내려갔다
나을
시간의
메달
우리도
67
바쁜
##몬의
서해
##그러면
시로
흑의
초등
낮추
대성
되었습니다
낫다
플레이오프
##새를
커녕
기묘한
##비드
##CG
##닉스
예약
선수들의
##짱을
걸맞
간섭
##az
튕겨
##과에
##-6
##개국
##세다
무기가
##태는
만들어낸
몬스터를
##치고는
디아
울리는
입었다
중국이
준비해
##만약
붙인
장애인
하겠습니다
되었지만
##커의
##산에서
##짐을
아르헨
논쟁
후의
통하는
관계는
##링이
이즈
뿐이야
##루수
사촌
끝내고
##롭지
급격히
원수
미안해
##목은
많지만
##박이
##ae
##투스
잊혀
##namu
병사들은
##.7%
사단
##하듯이
조건이
살폈다
주간
즐겁게
진행되는
하도록
+1
이루는
교차
오게
##만큼이나
돌린
차츰
출신으로
착수
##/3
##분으로
칼로
구제
최근에
희미한
이름도
##이라기
공간이
이의
시끄러
우유
관해
가져가
##놀이
상반기
엄마는
귀환
##검의
죄송합니다
올바른
웹툰
1987
번씩
지껄
낸다
수하
##질적인
##드립니다
##언은
##죄송
##ᄒᆞ
##부들
폭격
적시
선수는
의사가
선택할
날개를
부들
발견했다
유동
멈추었다
발견하고
투자를
##리스의
룬
있거나
모른다고
벌이는
정해진
전체적인
측면에서
조만
벗어난
환승
##합의
건립
안정적인
노골
매달려
##bb
배워
##젯밤
##image
##쇼핑
나중에는
바람의
주재
##ose
##tle
##각의
사서
##좋게
지점
##이야말로
군은
카알
장비를
##쓰는
바에
루카
금액
휴식
좋다는
##째로
아르바
와이
##적에
설치된
그림자가
마쳤다
받으면
진주
##주의를
SM
연인
나타날
##몬드
##bf
굵은
복원
##초의
밝아
동경
##일으
요구했다
맞으면
비교하면
뚱
##해준다
##재단
지킬
당부했다
점유
말아야
시계
중립
##학원
우물
가져온
풋
노멀
굿
전문가들은
불타
의혹이
##OT
##면으로
##리에게
음료
반응은
##리즘
구역
##훈을
조명
오늘의
있었는지
##내야
허가
유격
##강은
##우에
##비용
꾹
##렬하게
순순히
소재로
##.8%
배포
##인터
말려
##엄마
버티고
##US
레일
복구
무료로
게임에
##기면
##.6%
##경쟁
시집
자국
사냥꾼
코치
##oll
총리는
스피드
##권으로
##82
한껏
HD
연사
제작한
##영웅
##프리카
있듯이
##통의
그만두
아트
##주의의
인구는
시드
서초
유성
던지는
도적
차원의
호응
분산
덮어
헌데
##하마
쿡
53
태어났다
5,
한국이
노벨
##반에
바꾸는
선물을
부패
##키고
전투에
제안을
화살을
깨끗한
치명적인
한방
##능한
고스란히
스톰
@
성벽
출산
목적이
나폴
철거
터라
있잖아
아슬
벌어지는
스스로의
72
##ES
가능할
##미술
눈동자를
전년
킨
서식
필요할
앞선
탁자
전략을
##사회의
##준을
만만치
앗
사토
메시지를
대가로
##페르
요약
우아
여관
뜰
##병으로
##DP
슛
위력
나무를
추정되는
can
부모님
##소이다
-1
##분께
##동과
휴대전
취급을
수단
##견이
측근
마지
정신없이
스태
##인치
트롤
감사합니다
서포
도망치
있네
일종
재판부는
부임
잘생
##으음
프로야구
이병
##구청
겨냥
태어났
개량
##더가
듣자
##셨습니다
토벌
드래곤의
사부
각자의
안팎
##93
지쳐
시인
사천
캠프
##렌이
##자네
##된다면
##약품
퀄리티
##시기
나르
넘어가는
따져
##락의
야스
##https
주워
준비가
되니
전과
##타점
산하
##봐요
꼴이
물러났다
위험을
제도를
##답지
뛰는
실업
##송이
평가했다
##판매
##이었기에
수화
사항은
주어진
야생
장학
##랜드의
꽁
이전에는
##빛의
##었으면
너와
편에
##형과
##플러
돌아간
##Ch
##4,
지나친
##애는
안철수
인종
조선의
가족이
##됐다는
늘려
##작전
하늘에
찻
##오게
마리아
후손
삼고
레전드
취향
포르투갈
##책이
부인은
후후
코스닥
이르렀다
실전
포탑
##위대
회상
말아요
##ase
아홉
##맨의
##때까지
##재정
벗고
방식이
게임에서
알면서도
잃었다
그때는
##화하고
불편한
##적으로도
제약
##작으로
토지
사과를
중국은
국적
뒤의
##노트
##/5
단정
끼워
머리는
파멸
어딘가
기생
좋아한다
푼
##수산
소총
의견도
이외에
보여줬다
드레
히틀
흩어져
케이블
만드
심장을
운명을
의지가
보살
설령
LA
1:
득표
out
시그
##차원
##탄은
맘에
비춰
세레
상관이
배정
올스타
휠
##프로그램
##공화국
연기가
##!!!!"
용산
##.9%
##등에
상품을
했어요
평소에
연설
they
욱
까마
##코드
범행
츃
##신도
나자
##DS
울부
한잔
##회복
걷는
시즈
경우엔
영혼을
##죄를
##91
특수한
쓰러졌다
변하지
부총
흔한
##됐지만
##(7
응용
##ical
안타를
주인공은
시리아
미스터
일어나고
##하기에는
##우스의
비밀을
유학
요코
한강
##궁을
##int
있겠는가
지진
##혁명
싶다면
##소리에
나누는
스킬이
속한
##타운
침투
##일지
거기다가
신발
국내외
##곡이
76
기껏
찌푸렸다
5.
김일
##술사
싶었던
도망가
꾸며
세계적인
##-"
신흥
##부문
늘고
2~3
주인공의
하늘의
니콜
마리오
140
수준을
##시했다
지휘관
Al
“...
줄곧
올해는
사랑하고
비율
##병에
일부가
모르겠
미치지
편리
##관계가
영화의
사장이
##여객
##PM
Com
##술이
그후
보니까
거리에
이른다
##필드
차는
드워프
투어
목덜
백인
##인가요
##거의
혜택
##투성이
##키와
얄
##즈에
##게이
소집
이노
사용이
##성능
치면
##")
성장을
조롱
남편의
뭣
##들며
칩
바둑
대답은
활용해
##널드
##장관
##혀서
##나에게
요소가
##앉아
AR
주한
##하느라
계좌
두었다
않으니
배울
##해주고
##해양
##하다면
##돈을
지칭
같기도
지냈다
##원들의
ᅳ
악의
울음을
사용했다
##황의
없으나
##접한
##채가
왔을
재난
##IG
최상
##체인
답이
##동맹
목적은
이마를
소금
문명
희미하게
옆구
손목을
배에
포트
검찰에
표현을
AK
곳도
흔들리는
하라고
참석했다
##드라마
아이폰
취하고
##시게
종점
##성에서
여인은
볼수
사랑에
맡게
보더니
##파와
한은
##ETM
마드리
흘러나왔다
Pr
나보다
##시아의
시를
설명이
##연대
직무
병행
루시퍼
인정하고
##말은
학생이
##하느냐
담담
라틴
##키퍼
신사
것들
##더의
익히
전제
주목을
시스템이
브레
날리는
##인데다
꼬리를
##위인
정한
제독
그대의
##범은
살며시
면접
생각했
##기면서
신을
요금
중지
따랐다
다다
돌아오지
매주
포스
보이는데
손상
##러니
더럽
보러
폴란드
역사가
하트
뾰
어색한
##소서
카더라
1986
떨어지지
한심
내기
##ash
륜
흔들며
달리고
담당하는
안도
데서
비즈
레벨이
들어가지
##========
##허허
빤히
동참
스프링
한나라당
##br
##("
##="
포함된
##담당
영호
##나라는
##때마다
자유를
토마
참여하는
##조와
상냥
##랑을
하면서도
##토니
##VD
외곽
어디선가
안경
건의
환자의
상대에게
따라가
##ah
조리
매수
지적이
##하냐
약점
재산을
비주
힘입어
##세포
허위
발렌
없어진
죄책
용기를
천마
진행할
##는다는
부착
권유
##??"
힘들게
##신문
얻어맞
##르륵
선수로
나오며
##격의
진행하고
##전설
기쁜
들어서는
헌터
두지
매입
##비한
힘의
##시대의
커피를
묻지
지을
##그렇지
증가했다
반면에
싣
세금
부유
겪은
부분에서
집은
본부
##로이
마력
심의
##맨이
##머스
##어지게
##way
라이온
확인해
##산과
사용된다
차례로
##자라고
재직
환호
밤새
##수에게
뛰고
##저것
서울의
##검찰
##OU
which
받았고
##오르
하하하
실수로
허공에
이어지고
##사나
않았으나
##oss
있음
##더는
##오며
불의
비비
이렇다
바꾸어
엉덩이를
분석했다
##덩이
일어나서
go
승점
감독을
퇫
태평양
##익은
맹세
섀
회계
알아듣
숫자가
유망
도모
멍한
##념이
불쌍한
커지고
전반적으로
##볼까
벌였다
##..?"
##여성
없었습니다
##고와
##pt
##달이
하러
##대도
##교도
모두에게
소림
변경되었다
##엔은
한국에서는
##스포
중부
##랑의
추석
man
괴로
싱긋
WW
##소리와
##타나
##박스
관료
##수라
##마나
마나를
둘러보았다
용도로
마셔
화력
창설
울부짖
빅토
장면은
IC
애가
이르기까지
스크린
샐
침묵을
said
전송
차량을
##..!
될까
급증
##벌레
##즈마
무상
국가가
양자
##임의
##회로
##싸움
크기가
정밀
베를
불러일으
만나면
##피는
##화학
아쿠
네트워크
웃는다
##위원회가
법이
이번이
##주도
서늘
클린
소닉
잡아당
꽃을
나라는
물어보
날을
자란
조별
##얼굴
인물은
만들어서
지그
돈은
때보다
물건이
어뢰
##영과
##add
초기에는
멈춘
단단한
무식
무기는
샬
삼국지
비행기
내비
챌
##+1
불태
동영상
##처음
뒤통
특기
적게
모색
상대할
남았다
##다만
##900
돌리는
의미에서
공개했다
##석으로
들리
크지
의미는
##브로
##웠지만
엉망
말레이
최하
높였다
현장에
##thing
나간다
콘서트
기대하고
반대하는
68
유이
전담
##티가
An
##쿠라
##금지
얘기다
것임을
마리가
Cl
지체
튀어
모양을
나랑
잠수함
드림
비켜
어그
순으로
거에요
모욕
그런가
시내버스
##내었다
사업에
호흡을
화제가
땅이
영향이
비고
벌금
올라왔다
히로인
##놓을
기점
장거리
내정
세게
NH
못지
짱
양보
결제
균형을
아내의
사람이라면
##oh
철도역
##값을
##례가
##board
##호흡
##아무리
카드의
상을
평균자책
##여야
수확
속한다
사진이
여럿
이태
했으니
때에도
나서야
뒤돌아
중심의
마자
##들아
##.-
##::
##랄까
##루에서
Gr
프리큐
##비도
상무
과거를
게임은
발생한다
재발
##EX
여는
컬러
죽으면
가히
##CD
##체험
##커스
쌓인
검은색
배는
김병
##중간
원본
가격을
##등으로
##겨운
않겠다는
간절
이라크
새하
회사가
Un
공천
##끈한
##됐습니다
잘못을
문화를
지방의
사신
##네를
소규모
##일반
##민주연합
##근이
##집니다
봐요
전쟁에
놀러
재차
오만
##ower
##비행
삼촌
##러져
않겠다
##졌으나
남자와
창문
##시장에서
일기
시절부터
신세
##눈을
자신들을
개미
크림
##았어요
##귀가
##승의
지식을
##루에
##이다가
나타나지
##ork
위축
##들기
속에서도
러시아의
##탈을
##너가
자네는
수직
무대에
##ru
병이
느껴진다
KO
날카롭게
놀라는
기억해
건강한
........
##현대
보고서
##척을
공원
탓인지
##터에
뜻한다
##저스
하늘로
밧
맺고
이렇듯
빌딩
##승이
노무현
커서
##+=+=
좋지만
노리
바다를
##라고는
##오와
대면
가리켰다
어둡
비정
마찬가지다
##공주
무소
##GA
발매된
시간도
##크스
과일
캐릭터는
절로
유나이
공화국
위력이
없어도
미라
##더를
삼십
화장실
##고리
모스크
신하
##미르
##작가
아일랜드
해리
##타이어
하나다
##장치
##티는
##57
영원한
##새가
##ever
인구가
비율이
##통상
우뚝
모자라
증폭
##격은
때만
라스
##소비
기용
진학
##마마
요구를
##수원
개인적인
##근한
한편으로는
아니기
형을
63
떠올렸다
##버를
약화
조상
계절
속삭였다
##건데
코스트
대표적으로
##수리
##ba
환자가
지녔
그나
직접적으로
쓸모
밀어붙
것이냐
신은
##실하게
빠지는
코믹스
검정
##였으니
넣을
장문
앞뒤
2:
가다듬
무용
단번에
구석에
으쓱
도리어
뒷모습을
신형
##능력이
##셨어요
2017-0
출간
오페
사람에
열리고
##통은
두리
곤두
권리를
알았는데
들여다
벌어지고
아들의
민첩
##위원회를
돌아가고
원로
불만이
빠르고
어리석은
##말에
선보였다
##질렀다
##ult
하에
##빠진
##련이
아카데미
##운동을
고령
내놓은
##전부터
녀석에게
이쯤
태도로
날은
일원
##비디오
멍청한
상영
잠입
##진짜
창문을
##인듯
박스
##배로
##래요
사랑해
손꼽
진행하는
어설
못하도록
라미
DLC
##그렇습니다
##경과
##변이
들었을
싸운
문제도
입술에
대꾸했다
분기
##객이
밖을
##바는
##으니까요
멜로
될지
만져
팍
언젠가는
씨익
달라진
##개에
황당한
도시를
댜
##우스는
사무실
##공으로
pl
##였지
총기
살아남은
순환
노는
닿는
##시도
요즘은
활용할
##ction
왔습니다
##사관
##부터가
전함
중얼거
내려와
털썩
사소한
해주고
불거
피터
확인됐다
격추
성공을
묻은
##당으로
막았다
선생님이
엄격
오빠가
##민과
많다는
김모
밝히고
설명할
##믹스
전설의
퇴직
##씨에
중견
적다
대비해
왼손
듣게
골키퍼
이별
분들이
##pr
##해에
##기라도
##스티벌
합체
불확
세인트
대마
상세
제공하고
##아저
되어버린
바지
전인
맞추어
투명한
##월드컵
필사적으로
측이
달러를
농협
비용을
그들과
뻔했다
덕분
힌
라이프
전방
깨끗이
재빠
##신한
하향
주된
한없이
안드로이드
무작정
환하게
스포
쌍둥이
아메리카
준비하고
표정이었다
내부의
돈으로
##찮은
아래의
##권도
##걱정
전동
작사
같으니
카카오
나오면서
불사
검찰이
걸어나
달렸다
##군데
있기도
were
강해
능가
전체에
들러
요한
##거리던
일정을
##EP
내면
##:30
##등장
소프트웨어
##루만
글쎄
세계로
설명은
아내를
##점과
##TS
선행
휴가
가난한
표면
##보세요
시합
녀석들이
성공적으로
##길은
정말이지
흰색
##집으로
받아들일
##배의
있었다면
가리고
내던
때면
백리
아니더라도
뒷받침
##산화
원숭
하룻
##석과
조만간
_
확립
세월이
##리우스
멈추지
##곳이
빼면
정부에
어이가
##그때
손쉽게
인연
단어를
중국에서
호의
승리로
##멘트
의식이
출연한
##노를
##직하게
별개로
2020
니코
골렘
책은
관계에
##척이
장성
##타카
뭐지
돌을
##체스터
훤
모으고
크레이
십여
천하의
##규가
보증
##어지
얼핏
두사람
존재는
어느덧
##풍은
박성
끝나자
속에는
공약
바꿨
평이
배트
영향력을
먹기
##72
모르지
처분
하인
시카
외로
##왔지만
사모
경직
##뭐가
원활
현상을
##urn
사가
모았다
아서
한계를
챕
##이랑
##ough
##보에
장소를
자금을
병원으로
끌었다
취미
놀이
##ient
오우
창립
##어째
##/4
하기로
##린과
##)』
구상
##께요
관리를
활용한
측의
손님이
서방
##몬은
원전
가맹
높았다
주인은
##AD
피하기
맞붙
거미
그렇기에
##감하게
##시켜야
빙그레
##주의적
수업을
정도이다
필요하다는
핥
##키스탄
##봐라
어젯밤
##추어
찾아와
륾
대여
##찬을
마무
인간과
모습과
건물이
바이올
애초
올라와
같군
누군가의
구두
##남은
##56
##자다
학부모
말하면서
##인당
설명이다
##.............
##액의
##바를
나선다
수류
공포에
과정이
##다가는
##팔을
메디
##Hz
이닝
요리를
비대
##했으면
돌리며
##리포니아
싫다
##BM
김광
레알
일순
##실점으로
##층에서
유저가
##목의
##..)
선도
분야의
##경기를
##pe
바라보다가
##장군
##동에서
##하였던
흘리고
시험을
##형에
바뀌어
비아
##ale
힘겹게
벼슬
내려오는
파묻
잊을
1950
연락이
##표는
판단을
보여주며
바이러
극도로
잤
진출을
곁에서
영상이
내달
땡
누르고
사회에
her
갈등을
페널티
##법상
자폭
김포
실정
##이어서
뱀파이어
중세
팀에
터질
##우에게
들으면
깊숙이
고기를
##았는지
무림맹
걱정하지
움직이기
연속으로
데려가
##시에서
##법원
무당
##는걸
##나카
권리
조카
깨달은
##이하
1985
다급
자격이
봞
미래의
방안에
신음을
보기에는
##자산
그러면서도
섬뜩
##최근
어렵다는
얇은
공기가
회사를
발급
히데
사라진다
아내는
올리며
아닌지
##내서
인공지능
하였고
청문
##나갈
대피
되어버렸다
##열에
구멍이
분위기는
찰나
낮다
##평균
##바지
밤의
부들부들
모로
특검
##몬이
미래에
##교육을
##는데요
있었으니
JR
##뿐인
깜빡
내려앉
pro
##-15
과제
옆의
##바탕
코어
파생
에리
##GB
##허가
실린
장점이
숨기고
이곳으로
양도
생각해서
얼굴도
코리아
가던
느닷
들린
지위를
##다음
혹시나
카미
##호도
카자
가까스로
##답을
##품으로
##상공
##?~~
뷰
파악하고
패스
##승은
후보를
소리야
62
변명
생각해도
심어
수시로
이원
##이라면서
예수
캐논
들어가고
마스크
성질
1~2
무더
둘러싸고
##건강
지독한
오카
영업이익
짐작할
이제부터
데려다
그대가
##만화
선포
함대
섰
헤아
##하기까지
뛰었다
방송에서
시킨
잘하는
반성
―
위성
벌리고
먹는다
당국
지분
고사
##OD
나오게
##체제
떠오른
멱
##)/
아이언
손아
어딜
다이어
죽이지
##속도가
##황은
모금
좌우로
이들에게
클라우
뚜껑
모자를
요원
##센터에서
아랑곳
##휘는
없으므로
신경쓰지
정예
연구원은
추모
##드릴
##으으
전당
쿨타임
입법
##처가
61
##때문
문제다
고아
##=100%
지내는
첨단
##옥의
설명해
물의
곧이어
옷이
터진
배고
꼴을
상징하는
##작에
오렌
##기야
던지고
보통의
모임
##자식
무술
실용
##백은
중고
진행했다
혼돈
올라갈
말이에요
통틀
달라는
IM
스타크래프트
완공
Pro
##어어
하후
고함
눈앞에서
머무
##블로
##마냥
한의
알레
상하
##확인
휴식을
자신에
##81
붐
##가면서
심정
떨며
둘이서
해를
##리드
살게
일요일
##모드
벗어날
진행되고
침묵이
토요일
##신경
##날을
사쿠라
봉쇄
기준을
했더니
##?」
##!!”
저축
축복
메모리
필살기
쿼
##북한
SD
드립
##기관의
입장이다
##체계
언뜻
인정하지
주축
가족을
해결할
인디
##한테는
실패한
여성은
사무총
팬덤
추종
지도자
##영상
향하고
방문한
당당하게
##ey
##마땅
##순위
그곳을
포수
##하죠
넉넉
쏘는
은은
용납
앞에는
##reat
이세
도움으로
##라브
선명
가도
깨고
##셨습니까
##실장
빈틈
고지
남한
시작된다
이해하지
대사는
대표의
단속
태도가
##바르
공격으로
해운
알아볼
말라는
##록을
##책으로
초상
냄새를
##련한
##경찰서는
노후
꼬리
신관
받았던
놀라며
호랑
##아트
염두에
안타까운
##교회
사다
이도
막강한
##잡이
미드필
원인은
기후
꼼꼼
사카
저하
대하는
쿠데
별명
팔짱을
##바보
범위가
창단
건가요
만났을
윤리
##물고
##년동안
유럽의
##님도
신뢰를
식민지
##sc
협상을
성적이
##클레
##아르
##에의
의학
수험
이토록
지구의
##규는
아틀
ab
터치
뿐이지
##너희
##소리는
조사됐다
하필이면
놀고
##5%
##돌고
1984
복무
맛있는
데이터를
##머가
벌레
김수
##보병
성사
차리고
##orn
사랑은
##te
단위
주유
##영업
이경
87
팽팽
##알겠습니다
무언가가
미간을
##메라
메타
승려
세라
##테일
노사
몰락
##힘을
않느냐
샌드
전격
pr
로버트
사악한
올라오는
##심에서
##종일
여기서는
마련해
잔인한
적고
인생의
트레이드
##포먼
현장을
##시안
두뇌
많기
아래에서
솾
통하지
언데
##투수
두렵
추방
명칭은
아폴
##전선
김승
##억원에
##아냐
##보건
걱정을
외치는
당첨
us
닯
연봉
경기장
아즈
금새
##어이
"'
내쉬며
##하겠지만
인터뷰를
##여러
그것으로
학문
낳은
단점이
가령
술잔을
##감치
사방으로
마실
##행위를
어머니와
##유닛
여느
슬로
돌려보
들린다
실질적으로
구미
##측이
유지하는
스텔
장남
침해
##께끼
40%
유리카
하급
드러낸
안양
중복
갔다가
원래의
건넸
기존에
스코어
그나저나
빼앗아
##보라
##막한
##이에게
카오스
것뿐
일본인
약간은
##미디어
확인했다
전락
부릅
아팠
박영
앉아있는
##역과
원시
죽어도
인쇄
시선은
●
않소
##ef
##뜨린
여지
역사의
거슬
##김없이
카드는
사살
어느날
발목을
남아있
시작하고
흑인
모션
곳의
##군에서
##플러스
##다보면
못한다는
가면서
##언니
변동
데이트
버튼을
대미지를
답을
와이번
힐끗
##장비
띄는
정무
치우
백화점
##치아
묶여
##적이지
조약
천지
유지할
기술로
쳐다보는
##티의
커졌다
피격
평을
해준다
나왔던
중대한
마코
##시죠
룸
다물고
균형
쾅
음모
문장
유진
보이기도
##련된
이불
##ream
##거니
##질환
서울에서
##시피
정체가
검의
##알고
##움의
져
절차
정반
##죽을
대한항공
해산
빙글
필요하다고
사용된
물은
사야
영등
하였으나
휘둘렀다
기술은
말하였다
불빛
얼굴의
라며
마법이
지원이
##드에게
프로필
임진
##리니
서두
03
무대를
will
##디에
달려들
온몸이
그래야
##위원회의
##글로
마음껏
후반에
학술
거래를
##씨도
노력이
.......
인식이
성격은
운송
대다수
분들
이것저것
Ex
오키
보너
세번째
꺼져
오스트리아
##즈로
김해
국민이
오바마
난입
수월
공성
통증이
야외
옹호
->
어우
큰일
헤비
만약에
다가온
보여줄
트라이
사사
시커
앞장서
##ms
##건에
출신인
고조
과도한
나이를
징계
한복
##정지
엘리트
##류에
적으로
##ps
뒤틀
##만원으로
알아보
어처
가방
##통일
##은행의
Pl
지나간
흥미를
##타리
경력
그외
생김
##주년을
##프랑
당혹
걸치고
분해
규모는
##득점
##끝을
북한에
한양
구속영
바라본다
살아온
##전도
이념
번뜩
신나게
넘은
이오
이성을
강간
##아까
후임
검사를
##데다가
등장하지
곡이
씨의
공인
##공격을
완결
##상으로는
재미있
아니니
##ows
##못해
준우승
소속의
##중은
비핵
아득
##사우
소음
팬들
서너
달콤한
분할
두번
일하고
##캐릭터
럭
같으면
##평화
밸런스
아니겠지
##헌은
##시켜서
##벤처
낚시
따스
감싸고
핸드폰
우회
조건으로
##었기에
초보
떨구
얘기는
참가한
의논
겁을
효과로
히카
먹여
##욱이
토우
표현이
지뢰
넘어갈
##량으로
##커는
침대에서
일으킬
좋아하지
상주
##론에
로그
미즈
최순
하여간
##아나
##댄다
병원에서
초반에는
##1000
한순간
이야기도
새어나
리스크
##삼아
##악을
##족은
정차
부모가
##78
##혁신
■
조조
##받게
피하는
##무엇
술이
스톤
불과했다
할지라도
장전
슬롯
##일단
만나러
##궁에
지방자치
##태의
##버리면
핵실험
잘려
보름
##롭다
##자본
위소
해피
암호
공이
아깝
##라면서
박힌
외교부
도약
있냐
##XS
둬
다친
따름
##만여
진상
것들은
관계없이
주주
170
남성이
음주
##시키면
##ife
전원이
##분명
##됐으며
##퍼런
부르르
저리
소홀
창고
##찬은
박사는
##겁니다
##피안타
친환경
선택을
하지는
금세
지르
##내면서
스캔
우호
줘야
오피스
대답에
##소나
챌린
바르셀
안전을
종업
살펴보면
##방지
정도에
수상한
화장품
##때로
탄약
##창한
사실이었다
We
여자와
깎아
흔적이
꿇고
원장은
##OW
가능성
계획은
라면
뻥
##발은
주입
마을에서
안경을
도서관
비타민
##69
##족한
04
아샤
##당초
사용하기
##주교
승무원
속해
터미널
##프란
##만으로는
1,2
보였고
강동
하아
두리번
##사들의
못마땅
일자
##년째
차량이
알려지지
체인
난처
감은
데가
터널
여기고
이해를
지만
지경이었다
놈들은
퍼포먼
##렸으나
느낀다
잡아먹
##찌감치
##없다는
너머로
부리는
않겠다고
##리는데
수준에
초점을
성능은
캘리포니아
있죠
##정도의
유전자
갤러리
싸움에서
갑작스럽게
##74
재단
한해
##텔레콤
박수
싱가포르
줄었다
고민을
콜로
중국과
5%
디스크
서류를
깍
누군지
성큼
##병들이
##갛게
보았을
코코
##곡의
##하리
조달
중앙에
일으켰
하듯
백악
##able
채무
가디언
세탁
아인
근거로
프랜
style
##62
##히면
임기
환경을
의문이
작아
##아빠
##욱은
옴
포스코
해수
작곡가
않는데
애매한
변하는
##(10
전통적인
##오니
부가
##히기
만주
##량과
한정으로
쉬는
조심스레
##병과
강행
기성
##너를
수없이
무라
스위스
만지
독재
수급
나눌
참여할
몸부
열이
##증에
무겁
전화가
참여했다
나치
신경이
생각이었다
##시아는
감촉
제지
##년전
얕
##모르
심해
낭비
어르신
끈질
탄탄
세계가
줄어든
새정치민주연합
이해하고
공업
##상승
엇갈
##멋대로
노래가
오죽
은빛
OST
##간히
##되었기
우익
크기의
둘다
카리스
##주신
이끌었다
글자
팔꿈
없었다고
웰
시원한
잇따라
키우
##만하게
수수께끼
다듬
지역으로
벌여
4000
##현실
걸어서
바람직
이뤄진
후기
그래서인지
스물
다르지
##운용
발의
신동
##터테인먼트
배우고
소송을
불에
이인
쓰던
보았던
##일도
##밖으로
정화
##량한
일어난다
지도를
장의
내부에
병력이
시계를
동안의
걸린다
따지면
회사에
##으려면
3:
반지
##리기도
버틸
제네
CCTV
##배는
감행
던지
모모
CF
##결정
가지를
고르
상인
잘난
좋아요
바다에
카와
##이였다
비용이
바뀌는
나타나고
##윤은
CEO
중원
태그
쓰인
##게는
##ank
돕는
덮쳐
베테
말입니까
##아아아
특히나
##ise
주민들이
인정하는
안았다
펼쳐진
##물질
힘들었다
right
매매
잃지
##스틴
기록은
줬다
신생
친구의
오타
##VNP
이걸로
죽음에
##람을
피난
소용이
##였는지
##리자베
##벌을
쫄
기적
않으려고
불구속
##시쯤
프리미어
##수지
##락에
##전화
압수수
양호
자진
김주
청년이
##6,
레스토
권장
어루만
중국에
##포스
도착했다
개헌
##대륙
식은땀
온몸을
##참모
전역
안도의
##버가
나라에
친구들이
선수들은
악마의
##탕을
만나지
##런트
비중을
개발을
기간이
가리키며
##크라이나
##심사
추구하는
피하고
별명이
누구에게
##랬다
##업계
테라
오른손
따온
##는지를
##슬링
막차
하네
무공이
자연의
딜러
시신을
자발
휘청
##츠와
류지
아들인
기이한
##선생님
돼요
##프에
꼽힌다
##공연
실패했다
드나
검에
별의
##패가
##혼을
달빛
익스
아지
##아슬
##하십시오
시절에는
감이
##vers
##정부의
활동하고
윈도우
↔
##일수록
필립
##air
비난을
##거는
##마침
69
백제
##여름
바를
엄마의
##영구
##MS
##래가
하반
공동으로
그리워
발자국
멈췄다
제치고
블레이드
미국으로
급속
모릅니다
내려온
탐험
프로듀서
드레이
미만
올라간
여자에게
서명
다물었다
##잖은
##집의
토너
방법도
없었다는
예산을
슬프
##릭스
##판과
##밥을
나가지
##cl
디자이너
##......”
책임이
##플래
수익을
언급이
##값이
언더
(2
뚜렷한
Me
예전의
옐
개념이
##헤헤
##은행이
사용자
막힌
분당
열을
##어져서
그해
물가
!"
어린아이
부추
금감
외야
패배를
대목
유감
경매
서울로
2.0
신청을
왔다는
##이후
내각
부드럽
남게
스트레
한차례
거침
##쳤던
단백
THE
##섭은
블러드
지원한다
머물러
통째로
개업
특정한
미르
초인
하늘에서
알면
문화재
안하고
미루어
란테르트는
작가는
##이름
대학에
지방선거
##63
매치
인격
명시
용어
내다보
있지요
부디
##히트
리오는
어리둥절
##염을
스페이스
발탁
있으면서
1982
허탈
집안의
##마켓
청년은
일인지
남자에게
##먹었다
교실
##ool
의결
기세
대강
드럼
예민
격렬한
가담
##루와
압축
##독을
##71
##주의자
병기
시라
오류
사각
##두면
CPU
자리잡고
경찰의
곳이었다
올려다
유아
##야시
너한테
##삼성
우리나라의
보기에
인간들이
눈과
섞어
이기지
최우수
시작하자
연휴
퇴근
##세서
네임
쉰
바늘
수신
##...!"
공자
분홍
관절
두개
준수
경쟁을
##폐하
자문
##란하게
And
##Th
모델로
노린
숲을
포로
설정을
하룻밤
동아리
차지한
구부
즈음
최소화
행사는
관계자
플라스
##손가락
코스피
쏟아지는
##국어
증상이
공기를
갑옷을
입사
위치가
],
넘긴
국내에
코우
지내고
##상도
무늬
##남자
고립
싶은데
연결되어
모범
이윤
벗어나지
##돌았다
얼굴과
##대교
##me
전승
조직을
상속
우리들
##남의
움츠
김준
##중공업
기색이
##출한
엎드려
언급했다
##원에게
##리거나
명성을
##폭탄
끄는
##디움
무선
아줌마
유가
다는
팬들에게
못하다
자유로운
씨앗
##지막지
발견할
##저축
##알았어
은신
됐어
초라
감당
하신
측에서
해당한다
업그레이
##루타
의심을
설레
남편을
국세
정체는
헤매
명령에
대답하지
거란
촉진
절대적인
있다며
보건복지
##가자
폭로
제왕
적힌
사나이
잠자코
아니니까
##이트가
늘어났다
보여줬
사회를
진을
##림과
##미래
##카드를
정치인
##elf
금발
##라미
매체
일이지만
##규칙
##복은
##크리
##ung
관련자료
뒤에도
고등학생
##흐음
약점을
##머리가
##작인
시녀
차로
언제부터
왔는데
##갔을
Tr
##줘요
##시즈
협력을
손가락이
##코스
꿈이
함락
##곡으로
병사들을
싶습니다
책이
불꽃이
항공기
##3%
92
##.01
CG
탐색
말하기
운반
SR
아니란
##기본
안정을
땅볼
중도
뿜어져
느려
살아야
##가지를
클레이
영등포
불려
초콜
뺀
여수
뭔가가
소개했다
오이
##어가고
실어
권한을
남양
준비한
기점으로
미사일을
자그
즐기
##뉴얼
반문
##가수
##조한
버럭
##사옵니다
산다
##자리에서
지긋
##oo
안전하게
##백화점
동생이
기대된다
아니었던
퀘스트를
이데
동서
##전까지
단위로
영화는
입니다
알몸
애들
일본을
스턴
##시스코
덧붙여
유해
혼잣
##두가
##채널
목포
가느
개념을
일들을
제작된
초중
##블린
매도
하겠다는
##신교
##리야
##곡은
##회관
의장
##추진
심화
소란
뒤이어
저렴한
초기에
뿐입니다
디스플레이
헷
관점에서
놓는
무지막지
##anc
못하였다
##지휘
전쟁에서
마키
웃을
##무니
My
등극
불과한
복면
some
찍고
항목을
작품이다
##차전에서
품질
도망쳐
제주도
노선을
94
누나가
편한
&#
##집은
여자들이
##뉴스
##거리에서
##In
오마
미묘한
보통은
##루로
곁으로
##현과
구하는
1983
##LE
캠페인
태도에
기관총
곡은
빚을
과학기술
##파일
싶어하는
there
##마일
78
성이
말투로
멤버들이
형태가
질질
근처의
곤충
##합이
##말의
고난
##때도
지금껏
이쪽으로
##담은
강타
큙
##르스
문서를
##59
낙하
##료는
##겠구나
일들이
마그
기자회견을
##화도
1)
캡틴
겪는
##밀하게
더한
임원
갈등이
조사한
출국
##애의
아티스트
##ier
브레이크
##대구
##uk
브래
땅바닥에
아이콘
뜨는
know
비하
조직의
편이라
받았다고
대화가
마당에
##료로
##량에
##열의
아이러니
않았으며
##산한
##olding
##공개
바라고
##리그에서
하실
##공장
혼인
##곳에서
있는게
시민들이
나가자
것이라면
##반은
이기는
기다릴
이겼
식구
##살의
물결
편안한
시체가
공지
##사스
중형
##노와
아님
추신
소문을
붙이고
루드
##닙니다
찾아서
##무늬
##대비
##워진
##히메
##소사
##시장의
선수의
열쇠를
촉구했다
판정이
주인공인
늪
남해
누구보다
##wikia
공룡
신호를
간간히
보다가
인가
대상은
챔피언십
##자이다
진행될
##극장
##생물
없었는데
물품
진행됐다
라운드
인류의
반도체
지나고
법원
머리카락이
시기를
따라서는
옳은
하죠
##리스가
쪽의
물러섰다
약탈
오르고
위치하고
동그랗게
육상
추진하고
기록하고
내면서
갔을
##사령관
##주면서
영어로
프리큐어
시대가
봺
##버전
오자
트리플
공격력을
휘감
실시한
끝나지
##군사
작정
라이짐
호랑이
시간과
누군가를
##79
협약
##였다면
올라간다
참아
##amp
쳐서
손흥
질환
##청문
##버드
##하잖아
결정할
##+11
인명
어깨가
마력을
##저었다
##졌는지
두드러
개체
활동이
화해
문지
##반도
가능하게
##이었지
주인을
나오기도
도우
몬스터가
루나
##페이스
##-16
##bc
이녀석
지탱
김대중
재미를
##왔습니다
텔레비전
제의
읽은
##제발
황당
있었어요
얻지
강하고
##58
##천군
##어서는
과정에
학과
탱크
단어가
버텨
##할만한
여성을
##하였지만
##렸어
세금을
이제까지
##그머니
##스러울
산책
##옥이
##철을
도널드
놀라게
키우는
패턴이
벤처
민중
마련이다
##공에
##려다
화제를
당의
빽
##잡아
땀이
아슬아슬
##플라
깔아
싸움에
주름
학생들을
행복을
패널
##우로
보였지만
강등
##오르고
##층은
검거
하시는
##증은
사이드
적합한
미드필더
##53
야쿠
##61
심히
찼다
지저
화폐
됨
성취
##키스
강을
공중에서
대학의
FTA
요청했다
##편은
##3000
단말
##자연
뽐
실력은
쓴웃음을
들어와서
변함
몰아넣
##시청
논란을
손해를
바뀐다
꽃이
눈의
도련
광명
원자력
커리어
힘차게
##UN
공수
진의
펀드
후유
떨쳐
##작업
##해지기
학교의
일이라고
##)-
1:1
##right
냥
느껴지지
##버렸고
안동
망할
##CV
말았
개발에
되므로
##뜨리고
대결을
출시된
##일자
en
직원이
##인데요
##바람이
##창조
성공한다
마는
원고
우크라이나
마셨다
중국어
##분석
어택
봐라
후보의
개장
##장갑
터였다
바닥으로
##들이는
##하자고
오십
##권에서는
힙
##사다
기대한다
주장하고
이르렀
실험을
데드
해골
코르
슬레이
그로부터
대문
애인
주역
잠든
##시나
자존심
계속되는
있음에도
일이지
분노가
선거에서
위에는
위태
첫차
분명하다
하여튼
하나에
##겠다며
##타고
그리는
##공자
##/2
이현
##치다
일컫
##호에게
겨누
공헌
소설을
엘레
데도
##괜찮아
언제든지
그때였다
소나
줄리
6.
갖는다
##무쌍
조세
파울
##처분
추운
최종보스
##고마
진한
질주
##타워
일본군
##위도
마저
지금부터
방이
서문
지켜야
##망의
##연패
##뭐라고
조그마한
Te
모의
울려퍼
##레옹
당겨
엘리자베
기기
DVD
##폭력
들어온다
자식을
근처에서
##73
##혈이
도깨
나지막
발효
일본에서는
친박
##||
##지니
##진에게
동인
84
쥐었다
이룰
부어
##장이다
상대방을
##라딘
체감
춘천
상대방이
툭툭
숨진
##~6
되려
##혼의
잃게
시작해서
몰라서
일만
리치
다리에
특징을
궁금한
저그
압도적으로
##론과
고래
##그룹의
인내
혼란을
##주어
세계관
일이라
##.?
스트레스
스즈
성직
일으키며
억누
##ai
인연이
##라에게
모친
##월이
##윤이
##경으로
내용에
자리로
부숴
##프라이
배터리
판정을
들어오지
의회
하차
내수
곱게
내민
1945
##놈은
##천사
##하려던
착륙
##순환
공중에
포스터
어마어마한
##술은
놓을
##uch
##처는
기술의
##igh
난데
유저들은
대부분을
시정
방식은
다음에는
박종
광화
##전에는
원주
심상치
위협을
나타냈다
최소한의
위주의
몰두
휴대폰
익힌
그려진
생기면
##맞춤
입문
##그것은
긴장을
평화를
공공기관
벨기에
||
고통이
얼룩
##부산
소파에
##칭을
두꺼운
##제작
무자
존재로
##참하게
우위를
##ally
선수들을
배웠
마물
사이에서는
##ull
자체도
##af
##!?"
스무
씩씩
방식의
태국
읊
마틴
씨를
어필
종일
일입니다
일주
##년으로
싶어요
없음을
불리한
맷
분야에
들어가자
팔로
주행
아비
분의
분포
추궁
우라
※
큰소리로
##리지만
##드립
##리조
##정부가
느낌이었다
제시한
##가야
박아
☆
흉내
##평이
면제
RPG
한국시리즈
##개와
자체에
것이므로
극심한
##따위
세상은
무도
따돌
제각
좋은데
##나온
눈살을
붙였다
강화를
들릴
말에서
은폐
무승
이진
Re
늘어나는
가이드
냅
순간이었다
##범의
##찬이
증거가
댁
##하는지
선우
입대
##하단
경멸
일행의
늘어나고
##남이
##적일
소스
외무
71
크라이
-3
입국
문제와
일체
##억원이
##argin
##보인다
나왔을
우리들이
항해
##니에
주먹으로
날아오는
##원도
뵈
웅크
박병
못했다는
앞으로는
일시적으로
어둠이
떠나지
않는가
시작되는
얌전히
며느
누구의
드러나는
유권
평민
89
뻔뻔
토요
한눈에
노선이
행렬
##생에
국민들의
기반을
시공
키를
119
##례로
##면은
역력
벌어질
포스트시즌
제게
##있다고
##에게만
what
##위키
법안
증가하고
이어진다
##어진다
##엔딩
나라에서
허허
시작하면
##종으로
##RI
촛불
나뉜
장인
수렴
연수
날아갔다
한방에
악역
이방
##하하하하
##과정에서
##왔을
##iel
WWE
EU
가닥
신고를
##줄기
현대의
저승
비즈니스
##카운
##순이
qu
불길한
반란을
떠들
##마리를
목표는
##맥을
##noc
##uck
장소에
##cb
##쳤지만
분을
잦은
뒹굴
플레이어의
카지
이름에
워크
결과로
전에도
##퍼를
끝없이
즐거워
74
펌
발레
##8000
고도
##━━━━
그때까지
##바나
기사의
드러내고
디버
에로
##만달러
##아침
플루
##복의
2)
확충
납품
맺은
펼치고
##직에
리는
꺽
이벤트가
유적
트렌
##졌어
묘사가
##보면서
깬
본래의
과언이
맞물
상상을
에디
수고
지출
line
##릴라
##러브
바라볼
초반부터
##배에
결심을
클릭
이곳의
##어째서
소속팀
당뇨
액티브
재능을
##atch
관리하는
##행의
귓가에
이례
조사하고
##집어
나왔는데
손에는
##이라든가
그려져
나만
##향의
돼서
의원을
##밖에는
세이버
활동에
하려면
생각하니
평택
기겁
절규
상상도
어디론가
##과대학
들어가기
싸움은
버스를
세계대전
##분과
자리는
##arm
##그것
한대
연맹
##강화
##끄럽게
##JX
반전
각본
마십시오
가지가
주류
역할이
시기가
인물을
##도도
근본적인
거뒀다
빠질
추첨
갖지
이씨는
좋아하고
흘리는
0.5
곳곳에서
##가기
세븐
##펙트
부르짖
작별
일으키고
출루
##위원장이
앞에서는
가리킨다
괴로운
##して
##되도록
##즈니
스노
저마다
유승
##계약을
con
##두로
즐기고
##제국의
틀림없
태풍
누구를
"(
##령에
남학생
##엔의
남편은
순천
##들였다
목걸
##느냐고
기쁨을
대표적
날씨가
##안돼
마찰
강정
달한다
후보자
치킨
80%
주인의
출력
##상담
##위험
체중
##52
##루션
든든
제멋대로
##서스
피워
클랜
##더라고
양을
중후
적중
지주
상황에서도
타락
성에
다닌다
취할
적절히
##irl
##하르트
##않고
시작하여
6,
##우라
신세계
걷기
새겨
우연
대륙의
연습을
풀린
##시간은
잠에서
##랄한
나기
##소방
중국을
악당
상자를
금호
##기어
##벌이
테란
짠
##테이션
AD
과시
나야
시중
##아들
봅니다
정이
1979
##위원장은
성숙
관세
우측
##시설을
처리할
##사라
내려놓
신기한
보이게
좌익
줄이
Love
방법이다
무수한
EP
자각
톡톡
돌아보며
##왔는데
외치며
띈
호평을
주인공을
##경험
##리안은
##시스트
지역이
최적
##강에서
몰라요
용기
##수인
##JKB
혼합
분위기에
##ipedia
기믹
평가는
##방식
엔젤
##ild
끊고
##들에서
##느라고
걱정하는
때때로
하라는
맞대
달아나
제공할
세계적으로
##데레
70%
##수준
공포를
과거에는
##스틱
##초간
경선
이내에
변화에
##thumb
친다
주민들의
전망했다
##uc
소릴
서울에
행복하게
##작품
원조
##기계
넘겼다
바꾸고
유유
풀이된다
##아닙니다
뒤따라
자들은
경계를
조연
##서에서
82
판단했다
who
중에도
모토
따지고
조언을
수장
명심
##통한
##alk
애국
아이들에게
##eed
86
무시할
탄압
다행히도
될지도
전염
집합
폭파
제한이
민망
언급된
쥈
베테랑
인스타
##터에서
범위를
0.2
약물
##거가
운영을
높이고
밝게
설치되어
알렸다
##코어
일의
종결
##로군
##뱅크
손짓
해본
돌아섰다
##세기에
25%
떨리고
##너도
가진다
권위
##커니
구리
동작을
장본
##급은
아니라서
교수의
아케이드
##휘의
##골로
머리의
로맨
년이
색이
일개
한바탕
##축을
폴리
자위
말했지만
UN
##청년
tr
일인
아기를
왔다고
복제
가지로
원한
황제는
닌자
##으셨
##애니
준공
##령으로
경지에
##자이
기꺼
어쨌거나
일환으로
부시
피는
##방울이
바라봤다
없네
우주의
누르면
##지듯
수감
응시했다
열릴
이어갔다
남동
##포인
국어
차이로
##가다
십자
연고
##보장
느닷없이
##타에
조화
무게를
내용이다
##folding
정보는
##ookie
##wikipedia
많다고
찾으러
남에게
받기도
치밀어
누리
쓸만한
상점
처박
신전
##정책을
##대학원
##,,,,
##그림
새파
달려들었다
가족의
버리지
나노
##어느
##EFA
밟고
게재
가깝게
##슈퍼
것의
항소
요소를
죽이려
비롯하여
퇴장
아내와
7,
유카
레이디
못지않
열흘
가중
##움으로
##겠니
표명
띠고
뮤직비디오
귀한
연다
쉬워
사이에는
##더냐
장담
##ings
감추지
타겟
터지는
1981
##형제
홈페이지를
내뱉었다
포격
##훈련을
유저들의
위원장
풍기는
마음도
##오스
외출
속도는
##났고
유산
보였던
타마
##인데다가
##베리
##리칸
동일하다
##터와
##4000
전반적인
##8.
나폴레옹
##.05
꼬박
##방법
명에
직면
##/6
##어찌
변환
오렌지
?"
##으세요
##오라
구형
##날의
웨스트
##하우스
미국을
깜박
일련의
잔잔
##.02
수치가
주식을
오해를
오시
상하이
페스티벌
도를
영화가
##빌리티
전적으로
##끝에
경험치
##ater
주의해야
짓밟
모시고
연쇄
편이지만
없었어
라이플
마법사가
For
측에
비전
미안한
움직이
헷갈
팬텀
##경찰청
배차
Br
무시하는
정황
쓰며
전신을
간편
와일드
인상이
사인
쉬지
기사는
공립
##왔다는
아빠가
만성
내린다
##어쨌
##우스가
101
소속사
씹어
##터널
찍는
유닛을
##런히
가나
미성
##삼진
조항
것까지
호르
앤드
마법으로
성추
##결한
살기를
베풀
##아하
가브리
##다녔
김유
억압
성격의
박주
결투
네게
받쳐
퍼졌다
정상적으로
자격을
유언
둥근
일자리를
일과
수평
##54
역량을
##변에
would
씁쓸한
##매매
##ition
섣
날아가는
방식이다
인물들이
치른
##거려
발각
결정적으로
대부
권고
친구는
김치
##상이다
계획에
입건
##루미
광범위
##외로
종로구
##가시
##피의
서른
79
멈칫
##경우
몬스터의
##가구
인해서
버프를
##/10
것보다는
기대어
SU
지날
CV
당내
마르크
엄연히
투기
##?’
가며
상당의
##소드
하는가
닫고
##했나
말했고
##누나
맞는다
입장에선
이루어졌다
금방이라도
엄격한
생활에
닐
모셔
##십자
##나가고
닷
프레이
계열의
##KBS
유재
맞춤형
머릿속에
처한
바라보면서
홍준
73
현대차
김명
생각지
돌아간다
도심
붙잡아
##"(
국가를
소녀를
뽑는
고생을
병사들의
##냈고
생애
증거를
전하는
의정부
원소
구멍을
잃어버
0.3
##그룹은
칼이
##회담을
효율이
-10
덒래
스티븐
슬라이
회사는
지우
##통제
##으라는
them
빨려
보려고
새겨진
선생이
흐른
마련된
싶지만
##Sh
오다
##킬로
어렵고
수차례
늘어날
찾아야
소름이
##겨울
불필
##CS
아픔을
디젤
건강을
베를린
지켜보던
##지금은
##대회에서
이보다
브라운
축적
무례
어려서
##글라
건물의
##개인
소원
상태의
동지
##아이가
##자였다
무력화
##죄로
사물
끝낸
손목
##고맙
기각
넋을
##가량
능력으로
영혼이
마련했다
여당
##Wh
81
사회에서
굶주
##메리카
##팩트
장면에서
전장
데이비드
차린
##의료
그랑
무신
좌측
##섭이
존재하고
깡패
##들게
오딘
##다니며
Dr
기준이
면도
환한
##그거
키에
도시로
##광역
누구보다도
향하여
최연
##탈이
딸의
##이트는
사망했다
./
작품에
##항목
영감
##)>
##살에
부려
불공
함선
│
무모
적립
비정상
나이로
있나요
살아갈
잊어버
##거니와
기대할
##가인
##번과
교전
와중에도
##......!
##사거리
눈앞의
##예산
##지지만
##~)
부모의
##포와
경쟁력을
##대지
##사장
##파워
##어쩌
재앙
뒤흔
내용으로
깐
쟞
##개선
위험에
친구들과
연루
각별
눈부신
been
서재
전대
눈썹을
금융감독
##귀한
위탁
국가대표팀
배상
펼친
##마로
##백만
##기로는
증가한
고장
AS
##수입
고운
##센터를
91
멀쩡한
들어있는
남짓
##되지는
싶더니
공익
##지거나
##화폐
생각했는데
건넸다
밖에는
시설을
날린
이기고
아저씨가
아프게
이해하기
스토리를
톨
##극을
초등학생
안쓰
엑스트라
복사
극단적인
##되었습니다
극대화
카트
위와
모터
옷차
전지
##욕이
쿠키
헥
무리한
##매치
##내면
자신보다
키는
없이는
태도는
도착할
##아니야
여우
자기는
벌려
한성
아니게
편곡
향해서
광복
백의
고의
암컷
##그녀는
횃
카드로
쉽고
##토스
##카페
##학에
##번호를
야수
##학기
살았다
##가드
그림이
##)’
제조업
가보
자신감을
##르렁
사직
초에
않기로
유희왕
##창의
##학습
유연
말하고는
저러
광고를
사라질
만화가
참여해
인원이
##노인
발명
강민
거고
피부가
레지
2.5
내밀어
실감
인적
만들어졌다
나왔고
주방
피했다
하겠다고
##세력
곤란한
설이
들어가게
나가야
간직
힐끔
한참동안
업종
게이머
진격
해독
##aster
##우우
비꼬
세무
As
데몬
##왔다고
대주
떠올라
총독
생각하기
##범을
다름없는
걸터
군대가
편을
뿐더러
서클
나눔
흔적을
##행사
Sc
말이죠
##ject
진심
타쿠
곡의
##백과
살수
##계획을
##이러
입어
멎
##영구적으로
허물
다그
끝난다
말레이시아
하세요
찌푸리며
짖
##6.
트루
##.09
공짜
에도
##룩한
강연
##6000
스토리가
집무
##되므로
신분을
##겼고
세자
본질
모델을
시리즈를
IP
옷자
##정보를
아침부터
거니까
단장
##MC
공용
리드
제길
이불을
고로
원천
비를
##번째로
행사에
뒤따
몸매
##민주주의
##we
##오로
##학년도
이득을
전력이
##병기
900
감옥에
중얼거리
##갔던
다툼
나니
섹스
당신도
총리가
토오
보스턴
노하
사업이
주장한다
##상가
당신과
반가운
93
##용품
군사적
다이아몬드
갖가지
이외에는
흐려
##씨로
##가능한
왔어
수컷
이화
청산
디자인을
같군요
무궁
간이
삼켰다
발표된
시킬
##코리아
회의에서
미녀
비판이
##장전
##공무원
##개씩
특징은
##원들을
아이스크
퍼붓
스스로가
##그랬
##모와
##이이
##하되
김선
김지
여기가
대답해
##마도
랑
낮고
##중심
장신
준수한
##거릴
##교수
덩어
평안
##라든가
부천
##부처
중시
깨닫게
말했습니다
걸리지
레니
어딘지
만들지
즉사
공포의
##구먼
드래프트
발매되었다
15%
요청을
휴게
##부도
##협의회
때문인
##......!"
이봐
##인천
##wikim
얼굴에서
겁에
##스와의
생기고
이유다
거두었다
활동하는
뜸
스트라이크
알았던
듣는다
연달아
적들을
되나
충격이
like
모노
모델이
귀찮은
진이
눌렀다
무리를
##연속
가능하다는
##')
뜻밖의
본명은
바른정당
##증으로
들었지만
##;&#
꺼낸
날라
없나
죽었
##량도
졸업하고
넘기
##만원에
벤치
##혹은
##채는
루이스
서로가
엔진을
한시
공격한다
가족과
사례를
포기한
오케
그곳은
주변에서
##나미
<<
거리에서
##은이
비리
누구인지
뮌
##시타
근원
드러난다
보복
타협
습관
고리
##시장이
(3
공사를
일었다
##적이라고
자연히
##있어서
하는게
##진해
않더라도
##센터는
필요성을
함유
##오버
##창에
그에게는
##좀무
의상
설문
섭섭
유용한
작품으로
대표를
놀라고
박진
어울려
왕을
당당히
대표와
밤하늘
닛
구양
퇴각
바이러스
역사에
무안
##도어
것만은
##오늘은
##시장에
탈북
달에
기갑
##포에
##데이터
대신해
드래곤이
##노라
##엘을
불타는
설명하고
옮기
카이사
##투로
어지간한
리처
공격수
##전하
가늠
보이자
슈퍼로봇
두려운
##ground
장난을
##르던
주장은
만나기
XX
편으로
부분이다
붙었다
챔피언스리그
##누스
필연
동생을
숲의
도쿠
블로
항구
살을
그때의
랜드
긁어
##MB
전임
##쉬는
청춘
목소리도
##나면
군수
후작
소수의
##갔지만
##기업의
에반
공식적인
##..............
줄일
선언했다
##비치
초창기
벌써부터
감사의
간다는
인간에게
들었습니다
수강
버스터
길어
##보도
##직히
의미의
##운전
플라스틱
대회를
리더십
복도
증가한다
시노
##또한
SKT
상당수
예정된
##린다고
높을
뻘
##저래
산적
상술
아프다
##셔도
밀집
세뇌
왕족
헌법재판
독서
##만큼의
구로
수련을
제휴
##태평
받으면서
##행에
발간
어처구니
힘도
놀아
빼돌
애원
작업이
##ict
직선
적용된다
도리가
##뚝뚝
##광은
가져갔다
충격적인
##빌딩
소극
##해버렸다
##수요
발톱
수사에
우려를
##블리
로즈
진흙
절을
이상하게도
욕설을
지표
뒤쫓
원형
이름과
만하다
명으로
유족
##어제
cl
수동
줍
요란한
출연했다
수화기를
##았지
추세
디지몬
바싹
행운
불확실
소나무
막판
보답
##시장을
스티브
중심을
##회의에
녀석들
##전용
건방
민감한
휘두르는
##사자
규모로
##프란시스코
버섯
대명
생년
실점
생리
깨어난
별이
##과정을
##보증
용사
밀리
##빛으로
짓이
돌릴
스텝
##이크를
그런거
중이던
법이다
발걸음
애들이
##덩어
두터
특집
time
##폭이
##재정부
타고난
반짝이는
애완
노려보고
우정
후술
##가지고
꺾고
인식을
나가면
연결된
니시
볶
##반응
##wikimedia
면모를
##하구나
1,000
배로
##선다
흡혈귀
##빈을
고인
##ble
mm
##내게
지원할
##나르
기자회견
힘과
구한
깃털
육박
출격
##7.
다룰
내성
옮긴
여타
없겠지
옆을
아델
옷은
일찍이
부대를
설명하는
저소득
순간부터
##등은
입찰
논의를
##금과
충실
##괴한
내부에서
잽
##예가
대표로
##요시
##존의
초콜릿
잉여
핑크
DNA
##적이라는
##할지도
##왕과
파격
학부
##++
미노
포기하지
칼리
다가오고
에게
살벌
합의를
##카이도
미터
미인
카츠
저질렀
##ius
온천
오른다
평균자책점
앞으로의
Or
##본부는
지각
학력
##불리
꾸미
지켜보는
몸과
##~10
간다고
않은데
민정
아들은
띤
열매
어리석
만들어야
보세요
집필
##아에게
손자
볼까
##개나
진행한
350
##쳤을
스트리
지금까지의
가능하고
여간
##교에
동조
##형태
노동자
강서
이준
창백한
##조치
##から
그룹의
##행성
애정
##러리
##조심
활을
##사태
연도
시논
##혜는
먼지
##불가
##슨을
국토교통
##결혼
느낌에
증정
로리
리스
##테면
서슴
없는지
토로
자칭
경상북도
정당한
##있으며
줄이고
다니고
읽음
##주에서
모처럼
겉으로
뻐
방심
배당
아스카
점과
위안부
ID
쫒
##개월간
평생을
인피
뭐하는
지키지
것인
도마
어쩔수
##언의
보강
영남
탐지
##붉은
그렇듯
전작의
일반인
의외의
신축
##った
뿐이
때나
##뱻봞
한사람
길러
의기
합법
##라이브
##하시오
##렬히
막지
열중
타서
바빠
역설
담임
사면
절친
##소문
##모스
##2\'
Se
하이퍼
사투
흘렀
다큐
##........"
##아키
##죽은
전쟁은
고려하면
공방
전반에
##렸는지
나무가
연이어
예전에는
##-8
마운
띄게
허둥
동아시아
##대인
아이디어
자책
주가가
##목적
정도만
기분이었다
삼성은
1%
안성
사회가
아버지에게
사용을
##.03
곁을
조우
대회에
명품
##구장
남자들이
##팔이
우루
새빨
비정규
그렇습니다
##사상
안산
지랄
것이야
##oon
되어있다
문제였다
매력을
수령
##결국
##두의
미뤄
##버스터미널
집중적으로
근위
폭탄을
##51
##술의
연못
다케
대령
##워요
##트랙
맡는
음원
##7000
먹어야
##new
장난감
믿음
##comm
##겼던
##작업을
몰살
그녀도
정발
청룡
걸음으로
##주머니
벌을
직원들이
얼떨
가마
패턴을
##때부터
##숙은
북핵
거리며
평소에는
##지역의
보호를
##내일
본토
있더라도
##nocookie
열지
##사무소
이사회
기꺼이
##치던
어려웠다
부부가
성적은
##클리
비는
##조작
##테는
##렁한
선동
시리즈에
정우
원하지
가느다란
##ky
##들이고
흠좀무
##링크
##ount
실드
모스크바
##카미
미끼
물고기
##락으로
방사능
이전부터
현실의
83
겁이
통증을
표현할
부르기도
##두지
해야지
산산
넓게
기간에
높아지고
어려움이
외전
쪼개
활발한
↓
박수를
떨어져서
경제가
얻는다
병역
하기에
의자를
탄도
인사청문
계략
웃기
##사항을
쓰러트
엑셀
제트
목구멍
양은
타당
고가
##버려서
##희와
보육
잡으며
##것에
##LS
##하와
문화의
십자가
60%
바라본
무뚝뚝
나뉘어
엷
##카라
se
멱살을
노스
야기
봐서는
감사를
싸웠
전망이
리뷰
몽땅
되겠지
솾꺂
음악이
their
크리스탈
철회
그루
이따금
울먹
##마리가
학생들에게
여러번
등장하며
데에는
##EB
##죄송합니다
비겁
##les
##참여
때처럼
##있지만
스팀
요동
##도리
계열사
하프
▶
##인걸
없군
##주간
김씨
##암은
통행
숙인
마산
##뜩이나
##두리
간파
무겁게
##국장
송파
끌어안고
강대
나츠
##속은
히죽
고통에
##7,
히토
##람이
##wo
##좌를
후로
##차와
##신고
튀어나온
##렸으며
얼굴이었다
않았나
취했다
아군의
추리
ag
적었다
##테고
깨우
##월호
유한
##그렇다
##우선
유닛이
코난
##분도
박찬
밟아
##지역에
유심히
판결을
##런은
세차게
사슴
기소된
Man
할아버지가
결혼식
##어스
일본과
선생의
선정된
목숨이
로얄
##려다가
능력도
일찌감치
파도
중국인
써도
선발로
대는
연예인
공개한
생명이
저작권
달걀
##발에
깨물었다
소셜
뜬금없이
##마르
##MI
페니
다녔다
선생은
했다가
시진
##설은
정유
감자
##화되고
##하다니
닮았다
수주
우에
중심이
Be
수뇌
이니
달의
졸업한
##margin
오페라
신혼
치를
오가는
##하군요
맏
느껴질
아자
Mar
##화할
인근에
딘
치즈
정책에
##설에
교섭
##달을
##양과
##아아악
대학을
초고
##월을
##버튼
##봉의
높다는
규모를
홈페이지에서
##회전
##림도
도가
적에
ED
이름만
와인
잡으면
미미
친구인
파크
JT
김원
드물게
로비
대통령에게
난민
마린
것에서
##ple
##국제공항
남성의
##렉션
민족의
삿
비주얼
왕복
통틀어
종이를
내려왔다
거인
싣고
컴퓨터를
벡
풍경
##업은
생년월
그곳에는
##상태가
하사
##술에
매니저
없다며
성향이
명목으로
준비하는
오신
등장할
명예를
목소리였다
##초는
마디로
사업은
##가장
일족
##골드
그러더니
前
통칭
##청에서
이르면
떠는
장소로
다니며
##함대
이끈
텔레비
0.
춥
놓지
우세
##악은
도루
친구들
편은
특징이
미세먼
정권을
보자면
종류가
온몸에
탁월한
밝혔습니다
생각했지만
의도를
똑같다
레이폴
회장을
##-20
복도를
납부
불참
##인줄
떠들어
##가도
거기에는
##)!
##튿날
쉬며
눈치채지
책의
해주었다
##번으로
##근을
##일본의
1200
뇌물
##ven
시뮬
되니까
제출한
재회
원의
보낸다
까다로운
굴복
##규의
둥글
드롭
##모니
박탈
역사는
땅에서
해결하기
##로서도
빠르다
우리와
이것으로
##이젠
지르고
##맞아
챕터
##=300
많았던
보기에도
1973
기간을
기획재정부
문제점을
주머니에
##양으로
성우가
봅시다
신속하게
일인가
깨끗하게
해서는
마차를
집의
자네의
예상대로
치고는
때리는
##업자
표지
럼
급여
##위원회에
위함
비명이
##ert
자본주의
##ins
스탈
헐떡
꺼내어
##주게
손오
이메
형상
90%
나뭇잎
##인권
숙박
당한다
##아뇨
꼼짝도
채팅
약해
사이클
유머
선호하는
알아요
행위는
인스타그램
하와
##명이나
달리기
소련의
##킹을
##궁이
경이
##내렸다
시시
##연승을
싸우게
연구소
판매하는
##살인
유가족
##원이다
관하여
##형님
일삼
경력이
허공으로
대대적인
빠지게
##볼을
하였
주민들은
당국은
##당국은
뮌헨
시즌에
앞세워
어디가
해임
차관
명백한
여론이
##체육관광
라우
무너진
##지주
헨리
3~4
off
답답한
좌석
공산주의
교토
보정
세이브
오셨
플레이가
확인하는
남기
새벽에
저으며
##파괴
선생님은
팔고
기구
##8/
신지
시카고
새하얀
##ME
유나이티드
지독
살기가
제시했다
설립된
감아
SH
105
모르겠습니다
##근은
재학
부스터
난폭
반지를
바리
다시한번
##ious
받아들이지
##방과
이루어지는
승낙
부당
##ION
빛나고
그걸로
달라진다
사용해서
한타
해마다
찍었다
친일
순간이
결정하는
시크
##입을
大
스코틀
말리
숙련
절단
포털
맞추는
전향
알았지
##만원이
##링은
##싫어
입구에
시민들의
없었기에
##마음
##미에게
요구하고
아리스
여유를
윽
받았지만
병신
달려들어
평소의
주어야
오너
척추
방한
않으나
떠올리며
현직
서울시는
자지
부인의
감금
특화
살펴보
편히
뜬다
자택
참사
많았고
유물
##렴풋
많으며
##째를
경의
플랜
맡기고
도시에
차트
냉정
일고
##업무
상용
붙는
밝히는
1978
사육
우월
태양의
##벽이
만큼의
##주에게
##가지가
사건과
##여개
해고
◇
##옥을
##혁을
후일
없기에
##거리에
샌프란시스코
홍성
more
테이블에
없겠지만
보여주지
##웅은
주면서
살아서
맡기
써먹
펼치는
War
추진할
##버는
gr
연구가
울었다
##유로
##충은
신문을
최상위
보기엔
장소에서
떠나고
공교
호감을
##ii
존재할
연산
무색
##》(
정사
다루고
마음속으로
Go
##대한민국의
했다면
교통사고
최종적으로
편이었다
왕비
스펠
줄이는
##색과
##:10
짜증이
##아무래도
플레이어를
하지요
한명이
Station
뛴
자막
경쟁이
노동당
##erv
##정확
운항
##(8
뜨겁게
중학생
하우스
왕조
##진도
영역을
인정할
##이군
일람
##타니
##ely
아름답게
비스듬
결정이
임마
##했음에도
개선을
##여기서
감독과
프로그램이
방탄
과목
먹이를
나비
기숙사
##집단
행동으로
국산
황홀
살해한
견뎌
옅
예금
쩌
아유
분노한
침착하게
하나였다
발산
지나는
##편에서는
홍준표
뒤져
##결승
##대왕
본사
할때
헬리
경제의
깔끔하게
꿀꺽
유비
원작의
줌
여파로
코미디
선조
하므로
브라이언
능력에
바뀔
해병대
##레인저
들어오고
예상치
히어로즈
병에
스스로도
현실적으로
실존
##》,
난무
소주
노릇을
전속
넬
잊은
##프스
이동하는
##진화
최경
대왕
채취
넓고
숨은
에밀
알리고
합작
##자료를
##외교
##올로
여자친구
드라이브
공존
##위원은
재임
오세
저주를
AM
빈번
부회장
정치를
덩치
중얼거리며
박용
컨설
##플로
##또는
있겠습니까
위원장이
내걸
여기저기서
멋지게
말고도
프렌
대뜸
##지니어
기세로
##공사는
##감히
유정
효과적으로
##트에게
할머니가
##년이나
광장
마을로
체제를
진정으로
전교
동급
논의가
현실은
사내를
해에
##회차
절감
##AI
부르지
북한을
마하
특급
수상했다
무표정한
SC
비교할
주파
##에서나
앰
레스토랑
나뉜다
말처럼
BE
한이
##주인공
##블릿
팔레
뒤섞
1.2
이튿날
토니
부끄러워
##9000
다르지만
어렴풋
##간은
그쪽
지가
처절한
대전차
따르고
##......?"
##황제
공개되었다
가격에
##효과를
연결하는
박상
자작
음식이
면허
이야기에
시점에
섬의
결혼한
올드
치워
##양함
##축제
Ph
감각을
무엇인가를
##함께
##····
고고
블래
##부턴
드러내는
##크레
if
붙어서
화면을
##삼국
흡연
아르바이트
##어차피
굳어졌다
##저우
땅으로
##애도
여부에
포괄
주저앉았다
정문
슬그머니
오피스텔
あ
전달했다
##원래
씻어
높아졌다
커다
사진은
안토니
저에게
##만하면
##처에
##tern
SCP
##으윽
옆에는
총장
##우스를
세계는
죽음이
없어졌다
호전
떨렸다
사용하며
거주하는
am
의도적으로
##자들도
미친듯이
이용하면
소중
감각이
가뜩이나
##받기
##정원
차세대
교복
노골적으로
연구에
찌르는
##했듯이
포인트를
표를
##...~~
망명
##갈이
비닐
지배하는
하지마
뛰어들어
##.0%
국민들이
타츠
생활이
##없음
참여를
##해버린
##됐을
뼈가
병원을
계속했다
양식
UEFA
##ron
##마법사
##문화재
바뀌고
7.
동안은
어쩌다
이래저래
속속
꼬집
육체를
##울한
모에
머리칼을
가지의
가르치는
장군이
##노총
모르겠어
김연
비공식
황보
내었다
어이없는
당장이라도
##발사
미쿠
않다면
##이용
##버의
##평은
헬멧
높이기
간판
수긍
언론에
릟
명도
##라인을
번은
##영에게
##모에
계란
텍스트
스피릿
##리히
발전에
##스럽다는
더운
돔
내다봤다
사찰
짊
행사가
##리더니
신선한
삶에
디자인이
하겠지만
##''
궁금해
빠지고
조사에
##선수권
##둘이
##욱의
##~20
##년부터는
##MAG
보아야
레이스
청년의
부분도
영혼의
피해는
아이에게
##잡한
작업에
현실에
몸무
긴장이
##9,
맘대로
값을
제품의
##랑한
나서고
담당하고
같지는
강남구
아츠
일리
##전시
들어서자
이름이다
독자적인
##110
안정적으로
삼진
실례
스킬은
##문제를
농림
평일
사랑과
대포
지자체
피부를
거두고
무시한
뉴질
처리하는
다음의
##테의
뭐고
장원
품은
뒤통수를
개나
낱
능숙
성은
시위를
쳐다봤다
주게
갯
##스테이지
모아서
-5
캔슬
커져
이렇게까지
답변을
생체
부끄러운
말고는
부재
받았을
".......
she
실컷
기업들이
##나나
##이시
프랜차
##되었다가
벌컥
동점
기사들이
엄지
달려드는
공정거래
##대회를
이러는
가축
저녁에
시켰
틀림없다
다니던
자자
커튼
근거가
록맨
박사가
##번제
인문
수록된
##이었다면
경부
심정을
##높은
##!」
높지
하자는
아니잖아
##용과
으음
시작하면서
들게
거느리고
차량은
##혼자
미남
등장하는데
##배치
여자들은
똑똑히
퉁명
않으면서
새해
##앞에서
원장
##(?
트래
제품은
##퍼가
모듈
손해배
##동원
고스트
알을
##주군
##다리를
흔들렸다
셔틀
부합
결정한
유래는
돌았다
##연장
짓은
치매
##진보
평온
무게가
##몬스터
터무니
협동
운명의
기본으로
신조
문화가
이때는
##게이머
예컨대
##투쟁
사이코
##칭은
히데요
듬
##베르크
마련한
이밖에
분주
맡았던
서면
안된다는
##내로
앓고
##브레이
교과서
해결을
##평의
딱딱한
학교가
라파
##궁으로
쉽사리
죽어서
##슬라
노트북
##;;;;
##니아는
아까부터
지나쳐
시에는
유료
GP
거센
트라우
종전
펼칠
원주민
버그가
지구를
몰아쉬
세워진
스타트
들었는데
##성인
횡령
##베리아
터졌다
상승세를
날에
생각된다
아르헨티나
에이드
배의
좋습니다
되돌려
잠에
##걸까
무너뜨
마법은
로렌
##uper
욕심
일각에서는
골짜
정부를
치명타
휘둥
별명을
##인터넷
병사가
멈출
그들도
까만
몸짓
코트
성격으로
##7/
##Ar
플러
호환
##있었고
검으로
일간
후미
프레임
##일즈
##.08
거슬러
떠난다
알겠습니다
360
항공모
꾸짖
따를
때마침
때문일
경쟁력
##협정
##월말
면세
문제점
탐사
공간에
프로그래
자이언츠
ro
##))))
마땅히
##상대
전두
섬에
노숙
별도
##몰라
견디지
##엄한
의원과
잃을
돕기
눈빛은
재판을
만류
##글쎄요
##세인
약속한
지켰다
##밴드
##ann
시트
걔
##청구
기도를
불어넣
자신만
폭이
##ody
돌아보
상태이다
해변
아무렇게
환율
타이틀을
##기관이
##대로라면
죽이려고
##오픈
맨날
서지
집안에
몸뚱
웅성
##하였다고
자들
히메
표현하는
펫
##대행
##red
##리라고는
루비
탈취
찾아왔다
서는
##과연
##변호
윤석
갈고
관장
##부채
단독으로
##이트의
역의
됐다고
후반부
마지막까지
성명
아니었고
BL
##상태에
줄줄이
챠
큼
##파리
흐뭇
이뤄질
##약은
피부에
눈도
##ual
1972
이송
소원을
다름아닌
개신교
역할은
따윈
아쉬워
색의
통솔
##곳은
포럼
사용되고
##전력
CS
##심판
산림
압력을
경상남도
지금처럼
테고
성폭행
유니폼을
도리
행위가
##정부는
##이네
내공을
배경이
강력하게
드루
시마
성질을
노래는
사슬
수단으로
개인적으로
내지는
모여서
##전환
지원하고
누굴
경과
##종과
DC
플레이어는
##상인
꿈은
비서실
논문
##버둥
##700
꼽히는
남쪽으로
으르렁
타이어
다운로드
회사에서
##동도
##썼다
속옷
만지작
체인지
재빠르게
##통화
날로
now
가능해
대도
오승
하르
와서는
순찰
##로마
##입은
길이가
##열은
겉으로는
##~8
승리의
##기간이
불쾌한
##간다는
##엔이
제목은
스트레스를
티베
권총을
1975
홋
##(20
##히면서
쳐도
동천은
드레스
##덕이
##코올
##ica
부속
이유에서
그렇게까지
##패의
선뜻
##워치
셋이
나에
남아있다
기울여
내려다보았다
독을
일쑤
봇
뜻대로
장소가
콘솔
##:20
유치원
경향
박정희
검출
##롭게도
어떨까
언니가
게스트
군림
하루가
##월은
##자신의
내려가는
깔고
특혜
평타
쓸데없이
그치지
순간을
멀어져
곡이다
사람인
##ero
잠긴
##어버린다
어디에도
농담을
포획
##거에요
All
배드
의도가
##RO
##침이
##저녁
심부
서번
##년간의
끊었다
사실이지만
##로선
##하든
그분
##방위
못하지만
넘버
##결은
##샤는
즐겁
햇빛
조화를
장치를
##챘다
모델은
타인의
그랬던
가능하지만
입시
잿
우즈
시뻘
선보인다
남매
빛깔
아버지인
찾아내
보상을
##장기
거둬
도요
하지메
##짓는
그쪽으로
##결의
더러
몰랐던
밀리는
바와
##고생
##과학기술
##미스
무수
##여명
##보안
대답할
경찰청
##탄에
부위
했잖아
이광
삶은
사태에
기마
한번씩
장병
예상하고
날리고
정치가
금치
되물었다
##물며
않았어요
##돈이
박원
관리가
기분은
이들도
볼트
머물고
민간인
자처
조립
##********
순매
**
명나라
동계올림픽
##신다
BM
##싸게
방학
##파트
여인을
다문
스나이
칙
캐리
닿을
대학원
##니시
##ans
동원해
##공과
##억달러
사실도
##다닌
##마른
##영어
자사
맨체스터
변호사는
여기에는
수줍
마셨
##경비
하느냐
검찰의
생전
최악
자신만의
##ics
인간으로
##?...
가는데
##맛이
내에서도
내려놓고
지시했다
불투
광화문
스치고
##균이
캐스터
버전이
붙이는
한성은
예뻐
흔적
분석이
질문이
떋
##청소년
##land
시청률
힘들고
1974
##ata
##잠을
코토
##렐라
끓어
##투자증권
의미심
##펀드
##야와
요격
강화하고
씻고
##라운드에서
방은
강사
선보인
뽑을
##물이다
댔다
##윤의
무얼
가라앉은
이승엽
모시
##충이
전략적
##우치
횟수
(1)
could
새끼가
사람이라고
여부는
##에르
연관이
상체를
##초로
등산
##란드의
세월을
거부하고
##bl
구간이
함으로써
울어
보드
되살아
##자문
쇼핑몰
있는데도
##군단
##했을때
무소속
깔린
찬양
##irst
리스트
인테
##별로는
없었으나
##약의
On
고시
##되어있다
걸어가는
아마추어
중재
귀중한
지르는
비중은
샤를
##검에
##da
만만
잃어
레어도
편에서
효과적인
##항에
냉정한
주장에
테니스
곳에는
##치킨
(4
미소지었다
죄가
##of
##IVE
말했던
##무로
끼여
시신
적군
넘기는
##거리다가
##기엔
##미아
##본이
믿는다
마블
갈래
개개
##~30
너프
3.5
있지는
내딛
변화는
도피
$
동구
롬
##서운
사정없이
인연을
##그대로
##해야지
##수들이
의무를
프론
김형
학생회
녀석들은
잔디
마포
##뤘다
메르스
##의원
규정을
##여대
"....."
##냐며
##부분을
하루종일
##그릇
바쳐
##재산
찜
화면에
##었소
풀었다
##으응
자존심이
관내
손실
신상
어빌리티
부스
여자애
##ty
심정으로
스카우
본능적으로
시야를
눈동자는
숱
over
김희
충격과
매력적인
얀은
파기
분석한
거였다
한순
##해보면
차원이
##워즈
룩
##궂은
허공에서
정서
잡아서
오토바
any
중첩
새로이
•
명칭을
달성했다
거두어
맞춰서
질의
사치
부풀어
##안정
몰아붙
애정을
충격으로
한단
새겨져
아끼지
충고
##미온
스쿨
부리
소년을
올해의
특성이
##4%
도와줄
##귀의
넘지
불문
처벌을
험한
후방
녀석도
##DI
못하며
##연도
인정한
사회복지
저건
유력한
헌신
마을이
보고서를
비치
제안했다
기세를
##포럼
빠뜨
실패로
##선택
동일하게
##/__
여하
치면서
##히도
여길
베타
사항을
후에야
빨개
워낙에
주먹이
되었으니
##푸른
붙어있는
##번이나
제노
6000
강조하는
실사
어른이
들며
완벽히
적용되는
뭉쳐
##정도는
마운드
택시를
##설명
받아들이는
산악
부분의
헬기
허리가
##LG
##류와
닌텐
장무
강구
공주는
잘생긴
갔던
노력하고
##화될
명확히
##레드
천막
환경에
##화장
국도
승강장
몸도
##였어요
##격인
시너
LED
그때부터
일렉
키타
(2)
##스럽게도
##파인
##효율
난감
##에에
##입구
##시요
선착
전념
##불명
범행을
선진국
방어력이
조율
어둠을
따위가
따위를
중요성을
불길이
나오지만
##-09
급기야
내셔널
과잉
아가씨가
##가던
##요즘
확고
##son
복장을
화살이
덮고
##.“
업고
##(+
차림
단호하게
##네임
잡는다
##뮤직
기색을
Wind
시술
##구성
모호
##업으로
내놓고
##대부
능력치가
GT
관념
into
뒤로는
추측이
언데드
ar
발버둥
#000
전해져
##국내
오던
##타마
문화적
##ext
긴장한
##름에
##.15
내에서는
##쌌다
추기
상대하는
팔뚝
두려움
면을
적정
나무에
진출한
中
상해
제도가
##겨우
##리온은
맡는다
엄밀히
누운
##연재
쳇
##련은
국민을
자원을
정해져
콜라보
국내에서는
산에
크래
뜨겁
서포터
죽었을
설정상
끔살
New
##-01
##달리
떠서
##니케이션
괘
##.07
합리적인
홈페이지에
김윤
이야기다
##우뚱
지정된
돕고
##경찰서
##생으로
OS
이곳이
놀라지
재미가
저쪽
당장에
두려움을
뛸
##8,
##광의
추후
걸그룹
##위치
조각을
1930
##없고
아무렇게나
##미노
##대요
일행과
펴고
##끝이
되기를
주의할
##들짝
##그러니
띄워
빌리
한탄
한중
곳까지
냉랭
##eel
##문서
선회
설탕
##테이너
##JKO
지역구
임직원
실시하고
##겋게
명명
그리며
위력은
최전
##투어
화력을
##연과
퍼즐
공중으로
백수
벌일
##ds
일산
##근의
용맹
밝고
##았으면
요구에
이상할
합계
팰
##돌프
##군도
기대에
능력과
가려고
오디션
어찌할
인텔
달려온
##맨은
숫자를
취하는
생년월일
예정인
들자
마법에
피우
영동
##릿하게
않으므로
야만
##adding
##크에
헤라
태우고
사용되었다
살펴보았다
현실이
1976
신세가
##맨을
##니코
방침을
스파이더
이야기하는
걱정할
괴상한
끊이지
실시한다
알아채
잇따
시리즈에서
철갑
##그린
공격적인
커질
배후
신경질
筌
방의
신념
좁혀
저녁을
##lect
발길을
##았으니
JTBC
고독
공작은
거라면
기업을
토르
##캐피
##무성
##서비스를
효과도
##ors
결정에
독고
근본적으로
##이라구
운명이
##마츠
달을
로빈
카네
##유예
상공
독이
옮기는
##겨서
리베
##진다는
없었다면
되겠다
부대가
이왕
##하에서
팡
팔려
가뭄
생각만
##집고
보입니다
##ml
예정이
##나오는
서로에게
##이에른
반은
오두
##도전
동의를
수중
장이
듣던
쐐
##만하다
명중률
요구한
##cd
##보와
상승했다
이뤄졌다
##쩍은
전제로
##판사
언어를
##삼은
##레오
열정
##님에게
##사냥
##저항
당대
##다고는
규정하고
뿌리를
민원
트라
오스만
악수를
##돌을
있으면서도
##시아가
##체계를
들어도
격리
헛기
처리를
협의를
##신인
공작의
분노의
죽였다
일본으로
법조
북아
무리하게
나왔지만
삶이
플라이
삼는
당당한
느낌은
우편
##사이드
OP
멸종
Ad
대답도
좁아
미키
##시온
##찮게
의사는
##리코
애용
사방을
##BO
정하는
원칙을
FAN
다급한
화들짝
심사를
소름
흐트러
선수들
기차
##기금
낯설
플래시
영화에
실시했다
짐짓
했으면
등재
##활한
##ush
각오를
청와대는
##란트
위소보는
그치
하늘은
##기술을
##웃음
호박
##거리로
엄마를
유세
성형
##NI
발음이
신비한
줄어들었다
##AE
##.06
조속
카메라를
기업은
발발
불빛이
##수다
bo
마이크로
재판에
##맞게
##LA
감기
일컬
파손
싱크로
##을까요
들어야
환자를
정신과
##청과
누나는
신데
꽂아
샬롯
댈
##싸움을
마늘
##열한
##가지로
##론으로
보라색
##아스
대다수의
주저앉아
하남
계속되고
##3/
##해볼
##홀에서
열대
표출
무기의
##유희
민병
훈훈
##터테인먼
않으려
신중
준다는
싸이
이케
출생분류
받아들이고
수수료
국민연금
##은은
유신
정부에서
와카
금메달을
악을
원리
##ruby
누구냐
밀레니
주장한
##질과
말하지만
##곳으로
##끝까지
별개의
희망이
말에는
##농구
##시작
감정은
보기도
카일
국회에
안개가
백화
부드럽고
집계됐다
소재를
##9/
##보통
낳고
##시경
##inal
이루지
느긋하게
오줌
찾아오
##나왔다
판단한
압수수색
나중
제품이
낮에
위조
##해선
뱉어
##머리에
피하지
황제를
##짜고
왔다갔다
천년
마법사의
해볼
10.
싫다고
중위
짬
각인
닿지
버림
호화
탱커
걸려서
##어쨌든
##하셨다
##디스크
박재
뿐인
피곤한
활용하는
##물리
##양에
샴
걸리면
차차
한밤
대가를
흔들리고
용암
수혜
협회
##바닥을
##자금을
교역
지켜보
##선언
안이
확연히
##같다
사임
프로모
##으리
변한다
아름답고
햇볕
불안해
##하겠지
근육이
신분으로
땅의
때문이라는
안쪽
운운
##역이다
##리케이션
##제기
##필살
속은
##형인
##뿐만이
치안
방송에
##유지
수단을
연동
제라
기억에
##enter
##ᄏᄏ
직결
##로이드
전국의
##글을
##것처럼
민주화
두께
돈도
모진
남이
철무
##위원회에서
대미지가
보시
최순실
가면을
검열
##이었는지
##기부
적들이
숫자는
##대리
미국인
장군의
##업의
##자였던
1971
머신
집회
##쇠를
선봉
부끄럽
##외다
박물
살았던
광산
구조가
뜨거워
스트리트
환경이
시작됐다
난이도는
##ese
이브
리버풀
아담
##장이나
저와
##르다
틀어막
잠깐만
##)]
##구도
##최대
문은
동창
쌓은
기업에
텍사스
##렌을
포기할
##뜨고
did
무단
구축함
혀가
나타나서
##예정
##지도록
##:[
##계속
##read
서운
인접
##헌의
반려
##게다가
아스트
##기동
##주십시오
아수라
연타
과다
했나
생겨서
원더
##정에서
바지를
##해야한다
개혁을
영웅이
갑작스러운
본명
올려다보았다
뚝뚝
에메
전전
편하다
무명
들어올렸다
##몬을
기종
비참한
##프게
DS
가세
시비
창피
##벨이
##녀석이
고추
나눴
##넓은
떠올랐
투로
현실적인
나른
반역
억지
한번만
예정이라고
상시
가루
슬며시
##소총
처분을
두르고
싶지는
중전
제목으로
배터
표절
무심코
거머
영어를
끄덕이고
휴대전화
극한
색을
미성년
검토하고
##캠프
##방해
안쪽으로
명절
소속으로
##나쁜
이토
무대에서
##이기는
휘날
모양인데
졸라
덩치가
정진
뽑은
덩달아
재사용
뒷걸음
다가서
가급
겪었다
엉덩이
고른
대를
##측에
##혈압
아이템이
##재와
선물로
눈길로
전산
##톤의
##아에
##잠시
보나
돌아와서
##fr
돘
확장팩
생각하면서
각하
##룡을
투척
##리온의
증가하는
##보수
중심에
##국회
있었으므로
##eep
단발
##레이가
감독으로
원인으로
##-9
커스
KTX
동작으로
##-08
##알아
북극
추상
##표의
##박물관
오라버
마리를
##터면
##박근혜
실적을
빠지지
셈이
틈에
이뤄지지
##피로
수행하는
스칼
최선의
##..'
##방한
##oul
근로자
거니
우릴
##먼저
##휘가
번호를
내려서
양대
##관계에
##사업에
삼성전자는
시리즈가
충분했다
##소수
정신적인
##르드
##효과가
있었나
귀여워
늘어난다
##포드
##는게
냉동
남동생
대대로
설치해
줄이야
판매를
##atic
달했다
선천
태블릿
들려온
놀려
명령이
합시다
##슈타인
기분으로
##LB
승차
##aus
넘을
타오르는
공주의
원치
이룬다
하루를
불릴
맺었다
흐름이
배낭
떨려
수준은
##효가
요인
무릅
드래곤을
셈이었다
##망에
전보다
국무총리
##요금
틀림없었다
머리와
##맙소사
##베이스
##것만
도사
싫었다
##.,
바다로
##할머니
이어나
자유의
내용도
집어던
##웠을
about
##그동안
##했음을
대표이
그에게서
건물은
아니나
##해방
보고도
##근로
아님을
대행
우러
##다툼
거실
성공할
서울대학교
모종의
호출
박쥐
상고
괜찮다
##제도를
못했다고
padding
##MAX
##하야
대담
##복합
전투의
구름이
손실을
담을
##었을까
싸늘하게
움직임에
##파티
>>
데모
바래
하든
고대의
한상
벚
##환자
##하시고
##ye
1920
##사법
둠
디바
판단이
데미지는
이후부터
지금쯤
감동을
행정구역
시켰다
다저
그곳으로
생각이다
강아지
가지지
부모님이
도시가
##웅이
센트
잠들
소속된
북쪽으로
##주식
따서
도와주는
##수아
뿐인데
##싶은
골고
높일
달려오는
개인이
환자는
릭은
순조
##/1
왕실
추산
덜어
##ittle
해당되는
똘
파인
휘두르며
복종
끄덕여
##원전
거점
정리해
PP
##ason
국가에
분수
직전까지
정규시즌
Bo
##’,
난사
압박을
편의점
##됐어
게르
관람객
상관없는
##티노
고블린
티셔
커맨드
지나서
##집행
전해진다
짧아
의아해
##모어
잘해
콘스탄
##학부
영지
Le
킬러
아마존
뚫어지게
##리아와
낚아
흘러나오는
남자들은
##령과
##슨과
대위
채우고
아군이
##한테서
##신용
##메르
에그
결국에는
지옥의
현황
히비
기회에
모티브로
##바위
틈이
##und
아루
1969
줄도
버렸고
이때부터
아찔
경신
맞추고
동호
원이
반으로
##이었어요
##볼넷
표현한
##차지
평행
##박사
아레
##나라를
샹
어려움
인조
##아저씨
뒤인
뒷모습
마오
전광
떨어지면
##cf
무거
##!(
출제
동성애
살면서
##신청
헤엄
죽이기
값이
밝히지
최정
Fl
호호
곡으로
성공적인
##★★
원한다면
손바닥을
절도
그레이트
##러블
##버릇
제공한
##거짓
꼬맹
##주의에
##-14
옛날에
거침없이
추출
부정적
못한다면
생산하는
기울였다
결론이
추진하는
##물어
직감
발목
반사적으로
인간들의
##-07
##도서관
할머니는
파악할
##민에게
방영된
자회사
뭐든지
조직이
확보한
익숙해
스커
1977
2500
##무사
겪어
열리며
고뇌
##adient
잠잠
불리며
시커먼
매월
메이드
???
when
생선
이를테면
##(18
To
저놈
##책은
렀밻
감정의
진출에
앞당
##쉬를
넘어선
##자라
통에
선원
##학회
학생은
보이던
축축
히든
##시키면서
##천년
SE
있군
밝혀지지
사와
토크
국군
신년
까는
주니어
동물의
자궁
갑작스레
뛰어들
##클로
잘도
순진한
자체적으로
출연해
##망은
반박했다
##눈이
앨범을
장난이
거세게
세우는
##나니
쓰이고
##-02
내놓았다
지나자
품에서
One
##스토리
공격의
아그
들어보
위치는
발에
ᆫ
할아버지는
##차단
와타
위생
##하였습니다
활성화를
##교로
구는
하시오
##께서도
차분한
받았다는
동료가
있을때
폭스
기동전사
떨어지자
##었더니
편이고
산이
##증의
변함이
싫어서
##네마
만난다
결론은
조사해
보이스
오늘밤
클린턴
쩔
##창은
선거에
##노래
##히코
밀착
성향을
##ner
전투는
메이지
마련됐다
화상
멧
##구간
하단
차이나
국무총
미흡
위압
##끼는
올린다
##처로
티어
성장한
##AK
see
최근의
다양하게
도망치는
이하로
포켓몬스터
구석이
출신이다
있어서도
##심리
##차기
하자고
선생님의
전라남도
암시
인제
가린
##────────
^
주장도
되었는지
이루어지지
떠돌
안습한
가져와
##짐이
공고
재해
피카
해군의
##께선
지크
편안하게
어찌나
후보자는
걸세
##혔던
명확한
시기는
뜨거
##귀에
낙선
서성
##사령부
직업을
이동할
달라질
스타리그
북서
충격에
문화체육관광
일조
##시키려
마법소녀
##그것도
##빙글
경찰과
강점
맥스
기다렸다는
콜롬
##쾌하게
감추고
개발된
##무기를
고유의
슈퍼로봇대전
견인
사업의
극중
##들일
법은
숟
매진
##화해
가공할
이쪽을
단검
서글
후면
대답하는
후속작
분석을
천둥
맡을
##비아의
##시대에
민주통합
구속영장을
날개가
##광고
껌
##타인
민주당은
터트렸다
한걸음
띄고
발령
''
들썩
바다의
1963
Mr
아세
##에다가
구석구
모으는
배수
해주지
츄
모닥
##.04
시간동안
보로
##하리라
홱
##불능
##록의
##-17
죽자
무거워
##이었으니
립
강의를
##형사
누릴
look
아껴
공세를
현상은
##수술
도로를
도시철도
흘러내렸다
소대
차에서
바스
상처는
##오랜
유격수
시선에
오디
백두
애로
명칭이
해온
자연스레
##장치를
블라디
힙합
전도
##함도
생겨난
노려보며
틒
우습게
가다가
비워
전망된다
철권
친정
안주
흥분한
주기도
말일세
##대던
보리
괄
일꾼
LTE
파란색
너희들이
중력
##7%
##액션
동맹을
서있던
새정치연합
단연
박차고
두세
어딨
##라지
들어본
구간은
화력이
때문으로
##천여
##거에
##수고
짧고
##회사의
제니
지름
않거나
들었는지
받아들인
##일째
나에게는
World
곰곰
주포
냉장고
##서클
업로드
##(15
##쿠스
성균
행방
예상되는
##렸기
##XX
서정
자연스러운
알아들을
##ational
양손
발휘할
상태는
에서는
하이라
추스
내밀고
##떨어진
천하를
##여진
물류
바란
한지
쓸모가
가차
##버스를
##ener
고객이
선택하는
주목된다
선장
지게
의미다
##명씩
휴가를
왔고
##르타
석방
월간
질서
알고는
가족들이
##없게
##테스
##코인
##변의
살지
감당할
자민
오른손을
##노조
##귀는
긍정적으로
선배가
자비
감정에
##상태로
이고
##olog
##소시
돌봐
용서해
장군은
##마당
##각으로
규정에
##류로
##열차
몸부림
서바이
소유하고
호불
##급여
##플레
##수익
에이지
행보를
##줄기가
소중히
인지도가
##거기
틈도
경찰관
등장해
시키고
##DR
##바스
##죽이
목사
익은
떼고
##other
기호
대통령에
맑고
our
크기는
넘어갔다
탔다
군이
##천에
침범
프로그램에
에너지가
캄캄
'201
##불명의
생명체
장탄
중산
이탈리아의
##ions
만큼은
셔츠
쓰기도
판매가
기자가
내용과
처참한
쨅
빛은
텔
내서
돌아온다
##........."
잘만
대학에서
리타이어
이야기로
해리는
##각은
사안
Ver
생각하게
##기적인
정규직
##관절
##통과
비친
학생들
한몫
맥주를
성추행
수행할
메일
헤어진
##마리의
LV
1968
##report
관습
발병
꽃잎
소폭
주를
늦추
마당
down
##건한
이르게
이해하는
##항의
길다
사기를
체계를
##기억
충성을
하쿠
정을
##갑자기
조선시대
이상하다
##.18
꿈에
공교롭게도
##팀에
##self
원유
열두
집요
촡쐑
무한한
8,
윤곽
인식하고
##이것
KOF
##랜드는
되었으나
약속했다
년간
내로
호시
##노선
만났던
##많이
모라이
진급
##슬로
##요리
너희들
##독립
배반
생명력
지성
불행한
멀지
쑤셔
히나
##생들이
궤도
잠겼다
뛰어넘는
##돼지
물들어
사람에게는
꼽았다
잊어
##부분이
배어
장점을
등장하고
##시내
이카
다르다는
##무스
##가락을
카구
괜찮아요
##사정
##등하게
##차적으로
바꿨다
아나운서
근래
지낼
캐릭
##원장
에리카
##스페
반환
bl
박은
사죄
돌며
##아버렸다
열혈
잘못한
##할수록
##행복
말들이
펼치기
시흥
스킬로
물로
get
무엇이든
무쌍
별을
씬
##패스
공산당
##더미
받던
없이도
아멜
염색
##막에
실패하고
독립운동
대부분이다
냉정하게
##대응
시비를
##찬의
삼켜
비롯된
시늉
사주
들어보면
떨어지기
아래를
DF
##탐정
번만
출구
정권의
##식사
마시오
직속
어김없이
어찌보면
##도다
자초
수로
나서지
단원
##⁄3
빵을
##자이자
단호한
지팡이를
##테가
조수
background
기간은
슬픔을
군산
IMF
1940
##마지막
무너지는
뤼
##위까지
##?!!
성실
신주
서열
않겠어
쓰러지는
푸르
##주의가
깊숙
협조를
난리
레인저
“......
125
다큐멘
오라고
짓는다
용기가
작성한
카알은
공적
성기사
통로
공명
아드
푸는
##짜고짜
##교와
##미트
##음이의
알려주
다채
명성
조인
비례대표
##arry
하마터면
감격
라인하르
비정규직
일방적인
믹
그리스도
들이닥
스타디움
후보에
띄었다
닥쳐
##기보다는
노란색
##돼서
##말라
제천
재료를
찍을
위해서였다
보호하기
##주행
사용시
속셈
가리는
이정도
사원
##치듯
##enc
안젤
모양새
듣고는
술집
그대를
빈곤
바이에른
정몽
모티브는
불필요한
진도
웃기는
##기소
의원들이
기대가
##건담
분신
필라
지적도
부족하다
포함하여
울리고
자취를
##ism
어스
##일인
##연승
떼지
##끄러운
시도를
프랜차이즈
아래와
실제로도
방황
됐고
저게
Cr
칼라
수비수
의사의
체질
도망칠
있으리라
##퍼드
오른쪽으로
내륙
네르크
충실한
가두
##부동
비판하는
역이다
알코올
있구나
방안으로
현수
이상하다는
기피
되는지
지지하는
꾸려
맞출
학교는
##구장에서
교향
가지만
##벽에
대안
##게이트
##면과
서있었다
전선
모습의
##~1
이전까지
풀리지
허가를
탄식
괴물이
건강보험
가신
입김
범인
행위에
단행본
벌렸다
잠정
##장애인
주부
##마법을
설치한
아이디어를
구조조
레이드
솔직하게
##채의
김도
##말씀
서쪽으로
츤
타지
##비어
에라브
바쁘게
변하고
has
살인사건
누군가에게
확인된
울컥
익혀
아쉽게도
일어서서
상황에서는
##ars
점심을
부하들을
론이
어미
출전해
단절
마마
달려와
넘었다
허락을
##ought
천문학
##-18
##->
감축
느꼈던
교정
#00
해야만
못했습니다
##세라
출전한
구청
OVA
걱정은
##락은
오빠는
태양이
목표가
움켜쥐고
##활성
세울
서고
##ness
그림자를
점수가
강화하는
##건과
산소
진작
##하나가
소유자
이사장
좋아해
##앤젤
열기
인삼
눈치챈
하기는
가량의
버전은
본의
단검을
##트넘
##준다는
##염이
##시장은
just
아플
왼쪽으로
요인이
##erf
##성군
##하지마
뚜껑을
나타내
가자고
충실히
##강도
사지
불끈
향기가
##세종
벽이
다정한
##축구연맹
##NNB
깨뜨
없자
중화민
오프라인
선비
의심이
보았지만
마음속에
버려진
걱정스러운
죽어가는
##가만
네크로
처지
BB
그릴
남편과
##III
##당연
대표이사
맹활
빼고는
이호
내세워
넘길
부의
우르
나가기
만회
이단
##백여
##울이
시오
##.(...)
울면서
노력하는
##역할
##택이
중상을
재미있게
##시켰고
정책이
수단이
##루타를
##사격
수비를
박사의
패배한
이상해
작품에서
트레일러
함께하는
공동체
면담
이창
법무부
그랜
책정
막대
강력히
넘어간
도깨비
한국으로
##쿼터
##인조
테크닉
##자한
만능
체류
교육부
타입의
구성하는
처음이었다
병과
##(9
엑시즈
##ium
##용에
리즈
캐롤
계시는
다짜고짜
받아들였다
과정은
공주가
자세가
제목의
인질로
구자
구동
##사용자
경찰서
음성은
외치고
잽싸게
선정됐다
주위에서
차량의
밀쳐
잘못이
서랍
AKB
사거리가
짝사랑
##장까지
너희들은
##근무
개교
박물관
사장의
##득한
재가
생방송
로마의
최저임금
##~!!
##잡았다
오니
주민등록
"1
달랐
##디자인
끝에서
성질이
어딘가에
화려하게
원내대표가
##DX
장기간
쌀쌀
순서대로
김창
범죄를
상담을
기울이고
치료가
건물에
흥미로운
느낌이다
##병들은
싶었는데
성격에
신용카드
이소
아들로
유능한
이산
있는지도
##거리기
##보우
위해서라도
##때가
소리지
호기심
하다니
크다는
##4/
가정을
성명을
##!~~
게시판
사라지자
오스트레일
자원봉사
##지하
##킕덦
##란과
현존
계약이
결승전
##각에
뭐니
초록색
##ouse
구급
오늘날의
충청남도
김한
까닭에
고성능
비추어
알려주는
의장은
##스파
##유리
널려
헤헤
##긋한
파편
캡슐
페어
환생
움직이며
구간을
거울을
누구라도
##느냐는
##이라곤
코가
인프라
현명한
분명하게
해머
##젝트
뭔데
이쁘
나리
칭찬을
##the
정형
표정에
펼쳐져
분석이다
메구
원래부터
##단한
완성된
사납
키운
##뭔가
##분부터
반영한
게임으로
##곳의
관해서
상대하기
##면허
천상
그만두고
##게시
닮아
굴려
##노스케
시즌이
아무말도
멀어
##씩이나
것이지요
돌아다니는
##트럼
##버스가
##회까지
바꾸었다
##GO
득점을
명령했다
##거늘
##였나
##ode
햇살
##내리는
노선은
파동
재건축
북동
찾아오는
재능이
##-06
##DA
태어날
##네에
##월과
동안이나
만의
그때마다
보여서
찌르
소리였다
김이
##부상
비아냥
인물의
사관
악성
##6%
샀다
학대
숙이며
시절을
개발이
아쉬움을
##ated
속성을
먹이
##가지의
Sch
주변에는
사냥을
환경에서
중점
ᄋ
뻶
##다니고
##방안을
죽음으로
##제길
##투가
아끼는
##외선
따르지
기록해
덴마크
##칙을
스스
이야기의
유니크
진행되었다
나타내고
김두
8.
관해서는
데로
종리
나직이
다이스
핸드폰을
##계층
스윙
틸
현명
재즈
빼앗긴
##빌어
소생
프로리그
##그려
말미
싱크
홍진
막은
입체
허술
##년에서
정보통신
##ren
침체
후예
##타임이
아저씨는
성주
시외
플러스
비벼
쓰다듬어
캐릭터들이
각국의
##취가
##토막
수치를
##난을
기밀
섬유
안된
ᅲ
오싹
빈정
개의치
블리자
애무
##commons
오디오
##그렇지만
##센스
도착해
영화에서
##________
##갈을
대상에
에어컨
사이즈
##네와
무죄
##????
대기하고
일격을
랄
##맞는
부대의
Part
외래
아메리칸
출혈
사라지지
##>,
리나
낭만
주술
##생활에
지분을
부서져
태클
하리
마나가
신발을
현재도
자들을
민생
##한테도
##패턴
설비
프롤
##년에도
저거
어디에서
만들어져
##있기
꾸준한
##간담
##안타를
시리즈는
구입할
##달은
받았으며
##순한
##아름
원딜
##뒤에
##재료
220
기능은
보행
상환
게임이다
시게
화끈
들었고
줄여서
햇살이
돌아가서
지수
반응에
몰린
해결하는
III
감찰
##디와
누워있는
특전
것에는
+2
##플라이
파일을
##성큼
동력
꿈꾸는
가로질러
신중하게
열기가
##쯧쯧
확대해
바르셀로나
##다오
다음을
어디를
발생하지
흠뻑
아직까지도
##홍은
증인
그것과
농사
지장이
대나무
##장수
배차간
촉촉
##봤지만
바람은
##암의
##었죠
##ret
꿈도
지금이
##임대
소문은
순진
아부
역습
훔친
계셨
입맛을
##점검
국가는
##부분에
초기의
개인정보
##교과
##후훗
미지수
많았지만
임진왜
뼈를
주문했다
##능을
##숙의
##절부
##지점
##하였을
시설이
범용
방송국
드러내지
##탄과
망원
키라
##지시
금이
맡긴
입양
MF
리틀
##이어야
##바리
##카스
마주쳤다
##레이트
아래서
##수정
##인력
im
대량으로
##바이오
보호하는
유포
##MM
만남을
상당수가
연회
##려니
캐치
부드러
그렸다
##시키려는
진행을
숭배
유방
##reak
##파에서
##그걸
쿡쿡
지난번
측면이
친하게
맞으며
##기둥
보태
줄이기
상가
UP
8000
가의
그것들을
##보내
야권
프랭
중추
맛있게
##왕에
바랄
##갔다가
경고를
구하러
느낌의
온도
오키나와
인체
##물인
##헌이
알아보고
장래
중거리
앉아있던
##척의
자그마한
대두
##...............
##블랙
지나가던
一
깊고
글은
면적은
장소는
준결승
##ype
말해야
발동할
##극의
우르르
초당
소감을
얘기도
기증
조사에서
구체적
부부는
##퍼는
sc
거기까지
다급하게
##우리의
불멸
헬리콥
담담한
백호
방송이
##잡기
에픽
워크래프트
정세
##헤이
청탁
임용
##우드
돌아가신
끝장
##아이의
##농협
학사
페르시아
이완
광경
스탠드
죽었다고
호평
깔끔한
대우를
웃음소리가
##란에
##마사
눈초리로
갇힌
##컴퓨터
##달의
원산
꼭대
혹시라도
발표를
##앨범
산타
세웠
첨가
두터운
우리들을
##골프
##그로
꿈의
##협회는
딛
독도
해봐
약하다
특이하게도
프로그램은
##pen
양복
##장에는
자기에게
주석
캐시
선거를
시원하게
찰스
주도권을
##퇴근
##쿠의
밝힐
생기지
방안이
위해서다
##이팅
빌드
탐구
사정거리
##9.
믿기
주니
기세가
##~7
왓
눈동자에
##쯤에
생김새
##삐를
유니콘
김영삼
상금
연일
존재의
발견됐다
인정했다
##어촌
##BI
명목
일깨
본회의
너랑
배송
키우고
않았으면
##나라에
수사가
은은한
무공은
외형
계집애
원숭이
죽었다는
9.
데려온
부모를
##고용
충분하다
썬더
사상을
112
보기는
파헤
##재생
##학교를
##하겠
데빌
아낙
##급에
집결
일본판
가치는
##마니
돼야
##었었다
잠시후
손님을
은혜를
처지가
호텔에서
잠시동안
야마토
필요했다
뾦
살인을
영락
정동
##클래스
괜찮을
##....?
그렇듯이
때까지는
##고래
향한다
103
##품은
##현에게
살리기
금요일
소설의
##전국
금액을
맞추기
중량
패키지
라인을
투입해
포함된다
하계
수소
MB
일렁
찍힌
친근
어지럽
주인공으로
굴욕
정신병
##뿐이
손길이
쳐다본다
자손
가능했다
##무대
##회계
씨발
진다
움직인
기다려야
따뜻하게
준다고
주머니에서
베이비
자살을
만들면
돌아가지
##gradient
##오라고
##줘도
구하고
##꼈다
GM
양육
##융합
매운
주제가
선이
지어진
모드를
상단
방어를
##yst
파산
탄탄한
##무진
호응을
보이면서
##프트의
중요하게
##상황을
빙글빙글
팔찌
냄
쏟아졌다
##카나
독립을
아름다움을
화난
수레
##사이에
##식도
##퍼의
##사전
450
만세
##usic
타이밍을
뒀
겨루
올라서
이동을
240
늘리는
영화이다
악용
##답시고
##:50
불완
설립한
##oint
“.......”
##SY
후진
마감했다
화합
시청자
##(11
##거라는
성경
##가미
현안
맥락
##어야만
하나미
나름의
linear
##티에
##갑니다
일인데
확정된
체코
호날
##하지요
사망한다
뛰어나다
##......?
##커로
##계에서는
머금고
확고한
##깊은
##처의
잘못하면
넘기고
일할
##못미
리처드
신성한
천주교
##택에
지식이
스킬의
단종
딱딱하게
성큼성큼
주셨
판단하고
예가
한번은
##중독
##쳤다고
전적
고심
##bd
입구를
##벅이
##샤의
저가
설명한
잦아
##들에게서
##인해
기대고
예전부터
아뢰
뻣
탐욕
지를
높아서
옆구리를
##토론
펄럭
].
way
누구야
##도한
백지
인디언
##레인지
##aby
회장과
참여하고
괴수
명의로
벗은
안간
1967
개명
##아이를
##:40
##혔고
정전
뉴질랜드
##리츠
##_=
##소리도
선고했다
##TC
행동하는
##기간을
구워
사우스
이에야
짚고
##대공
##음이의어
##청사
합창
바빴
##화되는
여기저
투수가
현기
실효
속성이
섣불리
말하기도
시민의
정립
있기를
누워서
특화된
"..."
시스템은
유상
접어들
##어져라
기다리던
나직한
후반부에
##유치
외쳐
보지도
언급을
하지도
직행
동대문
가오
노을
내려놓았다
프로젝트를
##드득
세력의
비스듬히
##꽃이
친구로
##이것은
인천공항
##선도
방과
워터
놓는다
시속
합친
##메이트
나게
멨
La
하츠
##는다고
##러시아
발생하고
줄어드는
개구
비늘
확대를
##일부
##침한
약점이
잡아야
##tr
이타
자존심을
##주춤
쓰러질
트위터에
닫혀
불꽃을
불고
공시
##바운드
낮춰
##당신의
수라
##점도
썩은
##궁에서
심하다
영토를
만년
##어야지
##:201
##광주
LP
맺어
정리하고
줄줄
##칭으로
벌이
입혀
버스가
##HD
생각한다면
알지만
고분
##여년
손도
당황해
정권이
말인지
##레븐
##링의
지적이다
허무하게
됐을
중점을
존재하며
아이들과
##남북
##먹기
##어에서
##소재
##>>
##호흡을
##....'
소프트웨
가져왔다
##궁은
매혹
##.......'
방패를
부탁해
시야가
선택의
시나는
연출이
낫지
뜻의
가져올
또렷
있은
조아
이론을
##EL
가파
밑의
동생의
쫓아가
내려다보고
위임
하였지만
부서진
오죽하면
못한다고
샘플
##슬리
라시
##공헌
부는
패널티
##날에
형식의
##니다가
느낌으로
곡명
로열
##적이라
멘붕
어머니에게
법한
##샤가
학교로
현실로
세미
음향
하냐
복수의
수염을
지구에
BPM
탓이다
##!!!!!!
분배
##바시
민감
혼혈
Ed
고종
합의했다
겨를
쓰일
다른데
효율적인
중기
애당초
도울
스핀
후인
대답한다
##유산
이룩
위대
취급하는
##세자
이누
질끈
열차가
끝없는
##놓지
위협이
교육과
당연하다
원한을
아무렇지
뾰족한
##그것이
시끄러운
않으니까
조건은
여권
OCG
욕망을
실리
한편으로
세균
세로
##250
크롬
##세기의
##회에는
내리지
day
망설임
삼았다
탈환
##시간의
앨리스
국제공항
##버섯
날의
안정된
장착한
##나리
담았다
##した
치기
##즈에서
문자를
뻔히
버리면
조영
화제
골고루
드라이버
##외과
살아있
##그룹이
번째는
1962
안절부

##린에게
##벌써
##준다고
간접적으로
##You
4:
이제껏
편인데
접한
하나라도
##편성
가능성에
##파라
뛰어들었다
불합
높다고
해명했다
조심해야
삼성의
sm
정조
더럽게
이후로도
##태평양
뭐든
입성
쇠퇴
챙긴
그나마도
##줄은
배우이다
발언은
기술과
철강
프레스
늘어서
불린
##미안해
유지했다
가산
어째서인지
##올해
##울을
드러났
서비스가
보내기
동생인
들기
국왕의
팀으로
휘말려
De
대낮
말들을
##GE
오후에
##회에서는
감안해
장갑을
이루어지고
##기관에
멤버로
제기했다
경제를
에드워드
정신적으로
##거죠
##우니
시급
##쿠가
무장한
해석이
##변화
가전
성수
스코틀랜드
##이신
그란
저번
당황했다
뜨며
사뭇
피와
츠바
##그와
한구
사무라이
눈만
국가에서
뭇
애널
이상인
토너먼트
##놀이를
감소했다
양적
오가
칭호를
태양광
지정되었다
디펜
말끔
가르침을
벌린
유승민
모르나
밖에도
지난주
동료들이
방향이
장관을
총재
##에너지
##bs
쯔
투자가
갖은
잡혔다
어색하게
책에
멤버가
혈압
난이도를
##산맥
실상은
##하드
##매일
승률
위법
샤오
지면
##타르
선수이다
★★
순전히
퍼스트
간절히
치루
메이플
남는다
##고객
고개가
부딪혀
##빌어먹을
편이며
##국적
풍요
대응을
효율적으로
##기한
컨테이너
학생의
헛기침을
쓰다듬었다
이해해
레코
때렸다
시바
초반의
우울한
늘어져
연세
요양
목동
##두었다
##큭큭
조국
심리적
그것의
모양이군
사료
독보
고객의
뻗어나
착공
##피에
이쪽이
흘린
문에
숲에서
간략
안된다고
##주님
##실점을
오면서
이러면
추측된다
원하고
만들어내는
미련
조별리그
로스앤젤
황후
라이언
살피고
##설계
##/12
마쓰
##족과
지역사회
에미
전경
##독일
소꿉
바그
커진
가슴은
생각지도
해달라고
업데이트로
사십
다뤄
강아
##트도
##후우
##알을
미얀
밀접한
유닛의
제기되고
유지하기
주어진다
경로
포효
무림의
##스테이션
##SK
##빨쟢
오징
치르
재활용
##ara
##No
군을
한수
여자로
킴
업체가
재등장
유학생
더할
아레나
프로그램의
##박물
가득했다
##밤에
역사와
스타일의
z
김인
남서
##총장
##-03
##ina
기관이
복장
단계에
도망을
3)
박경
그놈의
터뜨리며
##ube
만루
디즈니
사실과
##테러
##코스트
나뭇가지
문화예술
줄어들고
2%
##관리를
남성은
##칸의
##끼리의
Ro
##산업의
도시에서
되던
##BB
##CE
실루
인물이었다
불가사의
시안은
수성
멤버들의
경전
##아마도
처방
비율은
빛으로
미용
여태까지
격퇴
표정의
닳
주에
오리온
밤은
손해배상
서울중앙지검
7000
부산광역시
##협상
끝낼
주었고
판다
임직
##지더니
##JKS
##(=
say
거리의
먼지가
주한미
깨진
제기한
신입생
선대
혼란에
두른
벼락
멤버들은
되새
조치가
BS
킳
##제에서
그것이다
마땅한
So
따스한
부족으로
##못한
방공
사례는
있는지를
배경을
##이놈
마드리드
경성
싸워야
얘기해
##크크
세기
##브레
생각되는
일행에게
자금이
걸을
투표를
##법도
공사가
발표할
##교육청
##막의
필름
대접을
##세계의
유미
대장이
경기에서는
##노이
날마다
##erm
소니
겸손
##지역을
놈들을
쓰면서
코인
운영에
##rd
공장을
시모
확인을
##미친
##듭니다
치마
시간대
있었으면
NBA
##부에서는
행방을
진출했다
거스
##다닥
됐다는
돌아다니며
근무하는
##코프
의원들은
##절대
도내
여성들이
##8%
히로시마
##롱한
생각하자
과태
학생을
기색
동쪽으로
냉소
예상을
민폐
섬세한
귀찮게
##방식을
묵직한
##덕은
##잡는
공화당
주었던
지원해
힘들다는
##행동
하이브리
##하십니까
##로니
악기
외모를
부흥
지금에
##릇한
명단
모르겠다는
##っと
자라는
기술이다
거부하는
바깥으로
시조
마일
발생해
겔
보전
##단체의
자료가
못했는데
미안하다
괴롭히는
넣으면
튼튼한
창밖
스타일을
무성
##매니아
BMW
백만
사탕
분석해
마스
자들의
번거
유영
빨갛게
까딱
거렸다
악영
정답
리그에서
개관
선명하게
##하구
대청
미래가
##우린
사실로
##크루
이어가고
뻗었다
양심
망토
전신이
피해자가
골치
녀석과
쵸
해야할
##고교
방법에
하였으며
못된
사교
성인이
같았지만
Con
##사람은
등장은
승리한
##혜의
에레
승인을
##ND
뿌리는
면에서는
댐
명단에
영향력이
실적이
용서를
의혹에
##텍스
포토
때리고
중얼거리는
일격
남들이
그러고는
넣는다
활기
##단장
살릴
##비안
##언정
스콜
##mp
비교도
화면이
##클린
계통
고개만
한글판
Is
붙들고
다행이
추천한다
왔어요
cont
fl
가다
지중
이곳저
증상을
믿어지지
박태
섬을
이펙
표했다
시야에
폭력을
휘파
개최된
보고싶
정하고
생략한다
##구단
달려왔다
##예는
##록이
신탁
것만으로
##느는
조장
정의당
대회는
왔지만
바로는
생각과
타이탄
영상은
마시며
수인
방안도
##유와
##해지면서
##해지자
오노
주제를
정치적인
끼얹
서남
횡단
박명
본관
##내자
가사를
없어져
1965
사방에서
##드리겠습니다
##9%
##사고가
죽인다
##호오
석탄
##재해
커스텀
구분이
워커
어떤가
움직임은
##시설이
개구리
지나갈
적자
음성을
피투성이
기합
자기네
##패는
##rain
아사히
누르
울지
기름을
닫았다
섬뜩한
읽는다
##시픽
내쫓
##측에서
고려대
인정을
류현진은
서울을
안중
##...,
경위를
기억은
##뼈가
먹게
압권
광대
싸운다
##ied
선택이
쏙
##네다
빛났다
비밀리에
번을
증대
있을까요
다정
뻗은
허벅지
}}
##원자
심야
바라보자
실정이다
##장면
말게
신형을
마이크로소
군중
##려도
##리시
발언에
only
##드릭
태운
모드로
코스프레
새누리당은
##매김
퇴출
경제학
법의
따른다
관련하여
위해서라면
말부터
월등
보인다는
주어지는
일가
##팔로
##네트워
에피소드가
새까
##고등
이쪽도
수류탄
등지에서
##증과
남기지
##마케
고치
윈드
##하려다
로이는
얼어붙은
제국이
생활의
좋아한다고
개는
AFC
애초부터
비둘
##ohn
##거리다
##)[*
고민하고
##차도
연세대
거지요
버전으로
건강에
##fl
올림
상황으로
##때의
석사
##니버스
불러서
왕자는
##~!"
잔류
짜고
정규리그
대적
강수
뮤지션
##],
소식에
아랑곳하지
GO
##군주
대회의
주기로
문제점이
터져나왔다
##보아
장비가
사용하던
##리우드
어렴풋이
단련
구도
몸무게
군용
기하
말린
한쪽에
##지역에서
계속되었다
다름이
##호기
제공해
살펴보고
토트넘
##분히
##여겨
1948
EC
##홈런을
흩날
늘어진
안절부절
매드
장차
따위의
일이라도
##학교에
만무
정석
정상이
털이
##마인
##미도
##토에게
데이빗
추가적인
지나면서
대서
검과
게으
않고는
적절하게
고민하는
에피소드에서
입장에
##공사가
##년여
사시
##나보다
간과
국경을
수거
적과
##표로
스컬
전이
할까요
독려
팬들을
##최고
CH
일품
부러진
못하여
주려고
기사들은
##통상자원
인간들은
멤버들
전화로
지크는
숲에
반격을
서초구
말투가
##크리스
미수
닿아
But
궐
악명
숨어서
아무나
고모
죽어라
근거리
##농업
##사고를
무진
의류
레벨을
##맥스
##충을
걸림
##운수
내포
뺨에
대출을
이들과
인질
##섭의
##컵을
##감사합니다
찍혀
물어뜯
촬영을
쓰였다
규제를
김장
알렉스
인과
번져
BBC
간담회를
거래가
##’(
판문
##blo
막혔다
제국을
##코에게
메카닉
이루어진다
선의
개봉한
기록되어
.........
장타
프로레
##언더
##해야할
파티를
즐거움을
장려
##웅의
한때는
피트
そ
##대변
냉각
##제이
상생
회고
시스템의
번이고
서태
##이하게
##확률
##hy
##두근
꺼려
차근
이겼다
들어올려
새우
카이로
기록하는
권리가
스즈키
어찌된
BR
몫을
머물렀다
닦고
미하
숨기
슬라
말이나
견해
포옹
되어도
방송된
##셀러
매출이
안드레
##명인
이루릴
height
비치는
나흘
유럽에서
상황이라
##년차
캠핑
토마스
챈
##-05
르네
신작
##내려고
가르는
최진
떨면서
끌어안았다
말썽
매복
채우
처절
경희
배웅
장관의
탄성을
예상했다
나름대로의
째려
love
일당
월요일
무엇일까
##리려고
꿈에도
##홍의
크기를
금빛
정상에
○○
사일
영장
문장을
누이
##그들은
##덩이를
##주기도
팬티
악물고
잔혹
지갑
거기에서
##맛을
##시라
분노로
형상을
##칼리
##엘프
다한
태백
왕자의
패스를
신정
판을
こ
상류
턱이
아파서
원래대로
##동계
##......,
드물다
액체
치부
어둠에
누구에게도
##책에
과자
달랑
버서
깨닫지
다행이다
##과거
##인들과
사오
좋았을
고려할
##기아
##왔어
착지
패닉
논란에
교양
팀에서
퇴치
##프랑스
외침이
사람이나
부평
한순간에
사나운
테레
글자를
붉은색
보이면
낄
##스타인
바닥이
한국전쟁
새마을
일시에
again
##유통
사람이야
##-.
##겠고
구매할
영광을
En
이루어질
자리매김
##그렇소
케네
한도
노력했다
##fer
이장
에워
12.
읽기
부진한
건전
문헌
##단계로
범인이
##아머
##터스
##센의
상정
기록에
##개념
엘프의
신학
USB
느리게
마력이
머리로
공격한
FANTA
걸맞게
이끌려
도의
##술로
몽고
소설가
규명
결국엔
공백
무어
자랐
##왔기
누나의
도망친
뿐이라고
확률은
알다시피
찾아가는
프로게이머
##!’
##폴리
##단위
##해군
설치하고
부당한
당황하는
활발하게
{{
##건물
##돈은
최선
트릭
##관에게
어렵다고
웜
이상적인
출시되었다
##외의
##주의와
쵕
칼은
월급
낳았다
쥰
##유도
모를까
혈액형
난데없이
세팅
##오래
단골
헌병
부도
지못미
편의를
##inc
송영
##사람들이
소용돌이
##비슷
카리
관악
공학
보아하니
군복
또래
##씩을
가졌
##검사를
108
유쾌한
북궁
만들었고
발악
좋겠어
##레스의
공주를
카사
많았
##관인
달러로
이르고
진로
찾는다
해왔다
##록시
소라
별명은
돌로
정리한
국민에게
##엔을
평상시
그렇다는
케리
면치
##오는데
것조차
급속도로
빨간색
##대대
##소프트
##케인
##덕을
안치
들어오면
##너와
로저
무능
삼은
검술을
적용해
못했기
물량
보구
1964
##박혀
##row
##균은
요미
거두며
먹어도
자격으로
연합군
이빨을
꽈
발끈
무지막지한
대체적으로
내일은
서늘한
발키
관련해서
아가씨는
##ames
##MBC
자극을
##하는가
반응도
기뻤
지폐
후반기
능히
격돌
##위원장을
채운
분노에
곳에서는
돌려서
비행기를
레온
##시스템을
본적이
청약
##알이
##상태를
생각나는
해결해
##스나
##......'
##EM
웃지
부하들이
비쳐
서머
저서
이석
증발
벽돌
투사
제작에
태어나서
성분
##레어
일컫는
##가이
##부키
청취
시점에서는
두개의
##개정
띄지
뿐이고
##+=+=+=+=
반대의
##ING
비참
성문
줄게
투여
동료를
좋아할
불로
위지
##배나
##준과
함은
##한데다
깊숙한
제대
치사
소리다
##행으로
갱신
##그러고
조종하는
입게
##vent
+10
부리고
뽑았다
단사
견해를
기수
각국
살았
손과
망토를
그딴
Windows
끈을
넷째
절대적으로
대상의
동남아
크로아
기업들의
한결같이
##벨은
##채권
부러워
몰입
##마라
##처벌
팁
카피
필요성이
μ
욕설
청원
조조가
추진해
꽝
구해주
모습에서
커뮤니케이션
앞까지
성격도
천진
예상보다
물어볼
##수학
능가하는
##협은
##년엔
Day
원작에서는
못하면서
연상케
같소
열광
로보
온전히
##난이
입힌
총장은
여론조사
움직인다
고안
대도시
않겠지
지점에
불편을
##카에게
전하고
패턴은
하늘과
머금은
지휘하는
##요원
도입한
형제가
##라라
부탁한다
##동네
올린이
패스트
모라이티
##훈과
점포
저들이
##틴은
영의
과학적
기온이
비공개
서포트
있는지는
장편
여배우
제안한
당하지
언제든
비상대책
쌈
도출
##지난해
##장구
친분이
이야기하고
##축산
정중하게
루머
섬광
얽혀
내게는
"...."
을지
정재
멈추어
##리에이션
##시키려고
##왕자
찔렀다
##보조
##론하고
방지하기
사람들로
코노
신세를
김에
물과
이륙
가하는
갸우뚱
보더라도
치아
말아라
예리한
미션을
##스터의
동문
라인업
##가들이
달라졌다
솔직한
영업을
유태
##ield
우렁
자르
끓여
담보
작렬
되잖아
리모델
젬
##플릿
사람만
트레이닝
충주
평가하는
가주
##들리
엷은
##+0
저어
희대의
##첩을
레바
쓰이지
##.16
뒤바
분들은
흐흐
hand
##연합회
색깔이
이름인
자유자
지으면서
##지지는
미나미
작전에
자료에
부득
Of
잡히지
테오
기어이
개성공단
것인지는
그였다
제작진
##시키는데
계층
인물분류
하락했다
보석을
크레딧
##렀고
][*
쿠바
엔터테인먼트
##명에서
눈여겨
무의식적으로
시큰
모이는
##카드는
##ator
##범으로
캐서
급격한
늘어놓
도끼를
통화를
생각하여
파괴하는
마주친
국한
태연하게
허구
필두로
이벤트로
##rip
근심
시작부터
짜증을
상관없다
넣어서
다리는
##없을
가져야
어지간히
섬멸
유선
그만한
##마에게
##지옥
##족으로
부족해
##블루
흘러내리는
여사
##디지
키울
식당에서
요구한다
버금
원동
구성을
중시하는
상사
추경
결혼할
흔적도
꼴찌
신병
쌍용
don
##크리트
오메가
일으킨다
자신감이
피스
싫어한다
##아치
리본
보스가
대응하는
소리만
죽어버
##비나
1961
송도
성으로
부지런히
빠져서
두면
##관들이
##있으면
믿었다
섹시
##ople
##산동
메트로
##토르
통용
더는
올라가서
뺐
모르겠어요
힐러
##이닝을
##================
총리의
님이
##테스트
제재를
깊어
##체제를
종교적
톩
두려움에
나열
##이로군
기분에
보듯
동거
네놈이
우두머리
들이마
당하게
##오염
아니어서
옷에
페어리
##건축
##오더니
전통을
아슬아슬하게
가정의
라이온즈
공개적으로
##자전
FANTASY
##TF
찼
끝내는
##적이지만
##하셨습니다
파키스탄
구호
이마트
탄력
케빈
아까의
넘는다
할말이
스포일러
있겠어
명확하게
강조한
때린
지시에
조폭
이유에
포함해서
관심과
예쁘게
천장을
##테미
밀어넣
한심한
언론의
##동음이의어
정기적으로
##혜가
210
물건은
국가정보
매달린
블랙홀
영문을
다니면서
나쁘게
인사가
해놓고
가릴
컨디
##있었던
고용노동
달인
판에
롯데는
진에
없거나
그을
친구들을
전국에
##이라든지
프리미어리그
##.^^
내뱉은
산업통상자원
이규
조나
IN
없지요
자네를
낙엽
얼굴만
하듯이
전까지만
조금의
##덕에
선교
하스
##,[*
업적을
팜
용도
사격을
##군인
것입니까
##그런가
죽음은
지위
강성
벌인다
##개조
의견에
##사람을
손짓을
함경
##다섯
군웅
답게
##히자
설명에
던가
흔드는
당황해서
때쯤
밤에는
않음
선별
##,,,
신속한
다스리는
타르
직장인
##좋다
결정된
##임과
##마력
반이
동전
정상화
##환과
미적
탐정
##거예요
입는다
발언이
스크롤
돌아보지
##객은
정은
형성된
못생
샌슨은
##STER
모험을
격렬하게
인도의
##큩봞
거겠지
울프
##연방
##증가
내뱉는
무심한
주목할
1966
교회의
조사가
의구
무섭다
FM
경력을
기회는
팬이
여름에
담담하게
증상
성당
버릇이
##조용
##중계
계속된
주위로
의무가
놓칠
##데가
정의를
제의를
##물도
드러누
##VER
시일
열람
TVA
투구를
##만다
로우
어울릴
산탄
아리아
인테리어
소린
없단
##에가
la
나서며
##ution
주문이
추억을
밉
##!!!”
용서할
##순으로
딸인
길이는
보도에
분비
마련할
강림
던질
베리
dis
않고도
마가
##션의
글래
우체
리차
지팡이
##인구
발현
데뷔한
요르
전달하는
넘나
화약
회차
미세한
눈꺼
키요
들리고
렀덕봞
운행하는
##ope
한신
##자들에
덜덜
들어오자
##트레이
멀뚱
핀란드
강탈
호불호가
##런의
악수
군대의
1946
사용하게
##CN
야채
재위
음모를
슌
지났다
개화
미쓰
담뱃
사람이라는
메세
웬지
질이
가끔은
바다가
인형을
##선한
옮길
절약
입맞춤
꽂혀
빠져나가는
##호환
양주
찢어진
##쳤다는
마우스
유유히
우선적으로
본래는
##후군
않겠습니까
어쩌지
방해하는
##품의
무기력
다양하다
줄어든다
사방
제기랄
3%
참가하는
##예의
느슨
조현
찾아보
군대는
열등
##느냐에
눈치채고
맞물려
자리잡은
##타지
아는지
단식
저것
이씨
##으라
##히토
여진
재고
체념
지방에
매스
수락
조던
승용차
##불의
태연
연구하는
##전에선
##올린
##ward
침착한
없군요
시민단체
실시간으로
가게를
검사가
발길
영화분류
경감
쉴새
##반으로
있겠소
##nb
껄껄
남미
아침을
개그맨
무난하게
않겠지만
건넨
역은
책상에
하진
확보하고
제레
칼에
떠나기
##런이
행진
끄집어
설정은
자에게
성희
호기심이
희한
성균관
금전
##양양
##만명이
친절하게
흔들고
##발표
재학생
인턴
제사
##줄기를
만드는데
안에서는
##스터는
라이트닝
무슬
떠나서
소아
잃는
낯익은
하더군요
여겨진다
아들과
줘서
휘어
good
##크로스
##탑을
##포시
흩어
불안정
무협
##;)
중이라고
병사를
##자신
닿았다
##일기
기사단의
포크
안해
##fter
불렸다
진술을
케이크
##시킨다는
나로서는
日
왕위
유이치
"......!"
여부가
능동
음양
감싼
폭포
드래곤볼
질서를
딜을
전복
조이
람세
조조는
매그
##제인
##~15
Star
함정에
출렁
##연에
저자
경기의
선언한
불리고
국가안보
##디다
피규
##ちゃ
극우
회견
##악이
노인을
출신이
##,0
펀치
참가했다
썼던
##지검
검게
##-30
포병
커다랗게
토큰
피니
미소녀
깼
꾸벅
##새로운
##att
얼버
정현
날아온
##인사를
##IM
##점이다
11.
어벤
##시끄러
부위를
##よう
에티
죽이면
6·
신과
여자도
할아버지의
들었어
위엄을
포즈를
##데도
그거야
호리
##느비에
숀
따지자
최고위
##혼이
대역
가르침
##길의
매서운
제목이
동갑
확보할
누님
슈트
직격
친구와
한숨이
축구선수
벌벌
교육의
깊숙히
우아한
위험하다
정준
상황과
빠진다
어쨋
여겼
##레스는
##활동에
호흡이
기량을
올라가면
##자국
경사
기인
창이
아기가
끌어내
오산
설명한다
다르고
통과한
발광
영유
음력
돌변
풍겨
매듭
##NE
##종에
차체
호기심을
반동
##기간은
##chor
수군
지현
마스코
둘러싸여
의사소
than
영국에서
드론
통일부
속여
처해
차지한다
pe
유용하다
##기타
##김에
접근을
백업
##겁지
##송을
내공
한세
도청
불륜
주인공과
동영상을
말하는데
않았던가
지그시
서울중앙지법
유즈
비난했다
PV
##오나
교무
##마니아
실루엣
##법이다
Col
##우도
##천과
믿음을
뚫린
시민들은
##아동
가즈
##앞으로도
진열
놔두고
림
폈다
중성
부인을
밤낮
##값은
보자마자
##도라
집행유예
접기
당직
수험생
항목에
##레아
아차
##어가며
결혼식을
다할
접근하는
인간들
##대한민국
응시하고
##바야시
테일러
정원을
문으로
첫사랑
##옇게
1900
##수급
##크에게
가급적
##닷컴
단어는
정도라면
OG
강북
##아직도
##데르
빙의
일절
일직
휘하
##주의는
##위안
급식
소령
패거리
전차를
스탭
의미도
테지만
플로리다
##Al
TP
만이다
하나둘
신분이
저질러
##님께서는
쟤
정정
성향의
##놓으면
없었으며
##더구나
쓰러지고
분량
준비했다
늦어
##어나는
부수고
##엘과
무장을
페르아하
빛과
##려나
현실에서
##덩어리
대응할
의문의
판단할
보인다고
무제한
까맣게
지원은
##남을
##선지
활동한
일괄
말문을
빠져나갈
##버리기
타격이
뻣뻣
전라도
##호쿠
끄떡
드러내며
무의미
기지를
키보
##itch
붉히며
##독이
모르니
스켈
##필을
점거
하녀
제거하는
아들에게
조사할
##화에선
통로를
육아
안가
카카
무너지고
않았기에
모음
보였으나
115
안심하고
인류가
위상
참기
이전에도
해외에서
개수
##암이
놈에게
사회공헌
모빌
개국
뺸
쿤
사리
가운데서
수녀
아무말
언어로
고혈압
막론하고
청동
규정이
##갔다는
괴이한
꼼꼼히
대책이
수다
##이리
##_1
위원회
##정상회담
이순신
확인하기
식별
영어판
제자가
##벌의
무전
##버리자
아니요
것이었고
백색
대검
공격력은
부럽
피한
아팠다
##위권
트윗
##왔으며
전쟁으로
꾸민
1800
촻
눈썹이
유배
더듬어
##바람을
##밖에도
손잡이를
무르
그라운드
쓰다듬으며
여자친
청나라
한마디에
가족은
고문을
없애고
붙잡았다
##어른
춘추
일그러졌다
##저와
민영
이사를
점으로
##되나
어수
가능하다고
차량에
회의에
군에
매출액
파격적인
섀도우
##주던
세제
잣
명이나
없었어요
말했을
##이래
##거진
관제
그랬어
–
세워져
거치
웨딩
응징
##덩이가
CIA
크다고
기여할
눈앞이
##상자
##출연
폭염
주머니를
##주마
기침을
기억하지
무녀
양손을
여운
인생이
북구
##었으니까
##캠퍼스
도시는
##쉬가
님의
인위
명인
은밀한
뜻밖에도
먹으며
##희에게
맥도
##팀으로
떠나게
일정이
조언했다
스카웃
##?.
등번호
##리스타
단체로
놓친
##성우
##델은
미국에서는
끼치는
진전
날렵
의거
가위
여자아이
얽힌
겟
##선발
일루
둘러보
들어섰
공습
미묘하게
셜
토막
##결제
##요를
만료
두가지
정책의
##와라
내놨다
나무로
것인지도
완수
저술
제이크
신진
주실
북측
시어머니
리프
안면
해봐야
실상
치르고
크리스티
장례식
노려보는
사나이가
도마뱀
출시한
나타낸다
패키
돌아가기
숨겨져
막아야
##AF
받았는데
자켓
동결
나이도
펼쳐진다
표창
##ivers
평등
물러난
비핵화
쇳
##줄게
##턴에
강화할
인천광역시
##1%
##지원을
부딪쳐
프랑크
피우고
##극이
차용
높아진
역할도
##:15
디시
배급
지킨
전국적으로
##북한이
공기업
##짐에
울며
급격하게
음악에
두목
기억하는
수에
상태라
서북
##문제가
엔지니어
관측이
마중
##둥이를
거리로
진성
기준에
AF
빠져나갔다
##-13
단계에서
##CH
128
많습니다
##가을
정녕
제스
연구개발
적재
이때의
지경에
험악
놀리는
입지를
오류가
최우선
변명을
합쳐서
경험한
활동은
아니었다면
혼자만
메시지
테스트를
##리케
정례
##하기엔
시뮬레이션
##색한
##샷을
##담보
고마운
당겼다
전기를
전투력
일어나며
김무성
##죽여
천장
끝내기
쁺
년을
왕자가
의미심장한
사악
끝나기도
본체
할로
##조치를
무식한
포함돼
한국판
##각한
##레이는
공간으로
되어있는
##".
##5/
거잖아
##전에서도
공간에서
천문
신형이
가운데에
##대회에
##년경
잔잔한
그처럼
저항을
GB
스텔스
##세가의
몇가지
협약을
만찬
레이첼
손길을
수명이
##센터에
손질
희생을
##곡동
손가락에
##예방
박준
토리
호러
안그래도
##벨트
##펭귄
솾꺂뒧
습격을
조금이나마
카게
믿기지
부대는
불상
양념
최고급
##일이다
##de
마리는
멘탈
##츠카
떠밀
에버
일년
었
반갑게
자라고
활약으로
들어가야
글자가
자도
##혼은
유라
깰
##바와
중요하지
##비밀
고루
파주
취하지
여름철
펼치
##아니요
전하의
##그야
괜한
김일성
##DB
##공작
절제
##맨과
축구를
형식을
음식은
##무와
옅은
내리기
평가다
##결과를
방해가
인터넷에
##동강
데리
이데올로
연이
BGA
말인데
공주님
주장이다
방북
윤성
한마디를
##겠네요
탭
실습
##!!!!!"
돌아가야
##부담
무난한
##냐면
##기들이
##지었다
엔트리
매력이
이형
억울한
##살아
심문
##나중에
사용해야
##사슬
사랑할
성가
마법사는
##렀던
법원은
묶인
색다른
떠오르고
미군의
게다
##ations
양현
접근할
북한과
지적을
손바닥으로
팟
##주공
난처한
하였는데
부작용이
##VX
국정감
##자드
민사
건드리지
##심도
계정
물든
인증을
노르웨이
워프
아빠는
##두었던
##캐피탈
군대에
라그나
획득할
다짐했다
농장
접근해
역임했다
##풍에
시너지
소개하는
운영한다
조르
고집을
놨
바티
##보컬
##정류
유관
##지상
공영
미쳤다
편견
신한은행
엔드
어드벤처
레베
마요
기록하였다
말하
수료
박차를
성과가
피의자
않겠느냐
어리둥절한
##교류
##메시
##TO
방아
기대하는
급등
##속에는
##천으로
##코치
아넬
부부의
대입
본작
##났다는
밝혀진다
독한
발송
포터
인력을
제기됐다
잠복
들자면
곧잘
주겠다
##적으론
투수로
##갔다고
되서
제너
빽빽
익숙하지
빳
##부사
겪게
내무
얌전
패한
##iles
TF
애는
파스
산으로
위기가
##계좌
##차대전
##함으로서
##문화를
혼동
##려는데
하나밖에
Co
묘사된다
직업이
지금까지도
##팀과
좋아했다
접목
네임드
비웃는
마카
쇼트
마나의
간첩
징계를
사랑한다
하기에는
사례도
##더링
뜻에
타키
위협하는
마음만
흑룡
##ible
친히
쥬느비에
##폭을
##예선
##ger
##식사를
모양입니다
해당된다
오대
모양이야
전액
생겨났다
않았는지
쇼크
있다니
마계
보군
하물며
자동차를
##Bl
##자로서의
진단을
진행이
추는
퇴원
무책임
구성원
당원
키르
관리에
금품을
미코
##저어
공안
##엘라
배구
최상의
##진출
이질
유망주
##누군
잡히는
정체불명의
##삼이
가꾸
출발한
##차근
##aj
맞닿
예리
맞아서
타이거즈
##받으며
파고들었다
위헌
갈라진
very
##ane
9,
올라가고
건장한
드리고
외국어
##모양
강조하고
별거
결심한
초토
물어보았다
이동통신
만화를
마인드
탄생한
상습
실체
시작을
골로
##스터를
약이
##oot
페미니
우리나라는
슬리
소유한
바는
알아낸
곤혹
솟구쳐
시가총
정선
기관의
형태는
상태이상
회담을
바라보다
크나
회의가
동료들을
이미지는
출신지
때문이야
마왕의
목욕을
제목을
코웃음을
껴안고
1944
평소보다
##딩을
군부
놓으면
주의가
전통적으로
##브와
사설
회복을
받자
1949
##맥이
잇지
싶어도
일선
좋았던
##riend
위해서도
닻
눈길
필요해
##GC
남겼
스바
성범죄
##fa
멤
웃긴
이익이
달러의
돌리지
버전의
##여행을
공의
남겨진
놓쳐
방어력을
손의
저희가
인정받아
포기하는
깃발
딸은
전신에
주시오
##ystem
척을
맥이
솜씨
튀는
##꼬리를
드래곤은
청와대가
당기
돋보
##회사가
않겠소
입술은
##가격
뉘앙
two
프로이
황태자
사무실을
##작용
마시면
건재
교수를
##레타
##했소
토론을
도화
파열
##성공
거행
중급
중이며
every
쫙
##이럴
투신
가챠
것으로서
##지라도
병사들
빠져나와
차림의
##나야
결말
가득찬
내세운
여러분의
##버거
리플
표본
흐음
참가자
메고
뒤쪽으로
##엑스
가엾
##ning
목격한
에스파
함대를
파업
가득히
##연수
##ley
##가나
목소리의
##몰아
콕
##머리의
##ール
길시
강화된
공격하고
무서워서
불신
##부탁
"2
든든한
인상적인
Mk
##5.
전폭
지하에
향기
김천
병사는
짐이
세계적
초대형
이곳까지
##DC
한산
짚어
체제로
동료들과
산출
영향력
좋을까
헝가리
일이고
한번의
##form
어쩌고
외부의
##word
재밌는
브리핑을
안됩니다
주황
풀리는
지켜보았다
달성한
운동이
선에서
##소연
간격으로
등장으로
고통스러운
옳지
##스터가
하루는
##맹의
10,
당국이
승리했다
think
##관도
##콘서
##사항이
##부르
수반
미친놈
숙청
대타
##낌없이
##노라고
챌린지
농산물
영웅의
보류
무차별
법학
소환해
가격으로
##------
##기적
나우
법에
##agon
국가와
하여도
집안에서
캣
##ady
이러고
처지에
파티에
체결했다
논의할
했어도
##....]
##람회
##짓고
모두는
병사의
스리
##라디오
고향으로
운차
마이너스
##수출
##겁지겁
br
휴스턴
활약이
국제적
전라북도
일등
##끝으로
1.3
돛
나타낸
순위를
##리어스
조조의
누웠다
##느가
##iet
망치
초식
지사는
##~2
도발을
걱정하고
외모가
변할
발사하는
거제
##당연히
되거나
플래그
경제에
못지않게
비틀거리며
레이싱
##왕국
##덕의
해저
손꼽히는
있니
친구들은
걷어차
풍경을
도쿠가와
유흥
##어린이
지역에서는
감춰
넓혀
공작이
말하기를
제프
사수
티아
전한다
충동
발부
당시엔
측에서는
계실
제후
서울과
비명소리가
Mag
AV
남작
뿐만이
스태프
표현은
던지며
##미리
##잘못
카탈
날에는
##이라지만
기껏해야
백운
이동이
되었기
지상에
심호흡을
차분하게
미러
간간이
나무의
##50%
포지션은
앞이
주루
상상할
##홍이
두드려
향상을
날린다
엔딩을
찬란한
##rans
##특별자치
깨는
미끄러져
▼
시진핑
인정해
식이다
연설을
##방송을
총선에서
##익이
##시여
후보자가
##-25
"3
리우
##연패를
##!...
들으면서
##수호
루피
궁지에
##명령
해보고
아니었어
##요일에
대화는
무효화
방문하는
볼에
동메달
여기서도
갔고
특공
파악한
됐습니다
부문에서
사로잡혀
아르헨티
##아앗
썩어
##것과
Up
속임
태자
lv
몸통
신재
덩어리
올리지
일대를
드러나지
##인민공화국
린은
숨길
테츠
##줬으면
대관
##먹는다
마음과
예견
목욕탕
강하
끝도
오토바이
전해지는
0.1
가혹
잘린
취직
##cont
res
등뒤에서
발견되었다
넣으며
접촉을
피우는
##유기
예시
허겁지겁
##회원
쓰리
강인
안좋은
고든
구성해
tv
##만명을
##처에서
Do
숲이
연마
단점을
졌
세력은
애인이
."
소진
##세상
##itt
기쁘게
안내를
재장전
둘러보며
##성적
전자기
드립을
시작될
욕심이
생각났다
##되니
부녀
성분이
오른팔
모퉁
뒤였다
평화로운
##정비
북경
한인
##꾼이
민속
성장이
작용을
다가올
역량
것이요
세련된
실력으로
최장
남아서
##금속
협상이
정치권
기괴한
확보를
##안간
##갔습니다
##그러자
##제르
무대로
들이밀
전성기
모르니까
##먼은
정신나간
에볼
##가라
##살은
비밀이
실패를
##my
켜고
붙잡혀
펄쩍
감을
배꼽
나직하게
##옵소서
트랜스
김구
실시하는
아파트를
##개소
미숙
판단에
스치는
예산이
Fate
강변
입장은
외엔
정벌
배웠다
변질
에코
예술의
산의
##올시다
##비리
벌거
고민이
분위기로
금의
코카
없구나
짐작이
영하
굳어진
있거든
##지수는
인구의
##노미
고구
##거요
미시
이문
당나라
신중한
진행해
(5
내준
고위급
하루카
##타우
성장할
사이는
내력을
디에
그러기
해줘야
##즈카
##시킴
##었군
성폭력
박신
코멘트
천하에
대중교통
운동에
프로토스
벌어진다
##reen
거들
주교
중년의
베지
확대하고
##vs
##ats
가성
스님
##줄까
SA
티나
##인칭
바뀌면서
요령
옵션이
빛에
서진
##역까지
##드나
##소환
외계인
##RPG
이안
정치에
집안이
스타일이
##리스와
의지로
이야기했다
실태
국방부는
어린이집
신원
포인트가
냅다
법도
여자들
능력치는
줄로
공연이
도덕적
안타깝게도
STA
신데렐라
왕과
삽시간에
폭발적인
평범하게
##십시요
##수나
폐허
권위를
##망한
##촬영을
제고
##본부장
공정한
시점이
선풍
##강점
일그러진
##삼촌
주도한
클라이
##order
뿌리고
배치된
연상시키는
뎀
##fore
간호사
인프
##록은
세실
##려한
##티콘
녹여
양키
##특수
호크
법제
달려가는
네르
##iew
구조조정
혁련
타이밍에
엿볼
핑계로
##보상
청량
치르는
Gu
##득점을
그릇을
인재를
하찮은
비류
얼티
지혜를
##퍼센트
의원도
들끓
##스럽지
원칙에
한쪽으로
새어
도래
ld
불허
부총리는
동탁
##수단
문명의
상위권
클론
없어지고
해줘
##저희
맴돌
홋카이도
구절
높기
활동했다
##줄에
##~~]
건다
딥
here
끈질기게
휘발
분야를
##nbsp
에메랄
##돈의
우루과
박기
난리를
보이지도
##!!)
공평
존속
##천원
가출
내년부터
살아남을
이복
원수를
건물로
관심도
살피며
뒤쪽
물체가
##었네
##/11
##기는커녕
것이어서
##eath
##들면
건전한
고귀한
나하고
만렙
팀원
혀로
결정은
웅크리고
한손
침대로
##칼을
##듯하다
웃더니
여자였다
출마를
이그
안간힘을
기막
우상
년에
##소스
제한을
전국에서
##그렇다고
미약
자유자재로
##이었나
박원순
제품에
##사람의
가로지
읽었다
댾
##말해
불안감을
피자
생생하게
송구
이며
강인한
찾아낸
플레이어에게
노원
저번에
외침에
저자는
급속히
닌텐도
##고사
##법률
##레기
##협약
세를
아포
등뒤로
반납
섬세
귀찮아
부근에
신부는
심사위원
술잔
못합니다
유리하다
##시스는
피신
##무한
느끼면서
##평가를
##올랐
##루이
##틀을
기관은
로젠
무영
창당
혐의가
인간들을
판사는
정인
무릎에
##현장
생전에
도배
타운
되길
결심했다
아닌가요
캠퍼
혼을
로고
컴백
패전
##창으로
권력의
##소장
있자니
쫨
##msys
헛소리
포함됐다
발매한
인원을
##orea
올라섰다
나미
##행사를
##ny
중반에
남겨두고
주시하고
눈길이
몇십
나가게
##수영
트랩
우대
##문제는
ldmsys
엣
가든
박씨는
##광장
옮기고
제거하고
힐링
마피아
고객을
위원장의
묀
방화
조형
글씨
노바
##IL
부릴
떳
스트라
합류한
돼지고
어그로를
움켜쥐었다
##흐흐흐
않았을까
자물
마지막에는
##디아라
##たい
받았으나
등교
영국과
##ック
##다녀
사회는
헤쳐
기체가
밑바닥
##하였다는
출퇴근
일어나기
당도
유민
##그나저나
안녕하세요
중이
뚫어져라
##Sp
노력하겠다
##수용
##잡은
마유
낙관
다하고
##론적
매개
##솔직히
위상을
묶은
위촉
성대
자루
##나가와
유니버
개념은
그것들은
임팩
웹사이트
어라
##었지요
##저으며
##블을
뛰어내
아래는
전장에서
##방사
##식물
꽁꽁
흥분을
물었고
찝
##기병
종속
행여
존재에
말그대로
임의
개발해
바보가
선수권
소환할
part
공조
최재
그분의
##했듯
지울
생기게
##색에
빙빙
캠퍼스
##모도
가졌던
청와대에서
##엔진
분위기다
턴에
라이짐은
하이라이트
##메다
유고
불투명
음악은
목소리와
땜
만들었던
까지는
##규를
계속될
##클라
세리
자욱
주인인
번식
은메달
조례
톡톡히
당연하지만
높아질
金
스튜어
##핸드
타석
##news
##강과
##..]
##이더니
쉼
나인
좋으면
##타나베
(3)
처리가
##무에
##요가
봉투
소장은
##같아
한국은행
확대할
사람이라
い
순위가
메아리
부작용
열악한
레비
세컨
변이
절정
비만
강해서
청주시
want
살육
찐
애프
강화해
보내지
##치기를
서대문
##(17
장관과
뒤쪽에
전설적인
##2%
##꼬리
웬일
태조
##좋아요
##아로
강했다
원화
천인
상쇄
품목
예전처럼
군단의
피닉스
드레스를
##다드
앉는
ᄀ
친절한
##우나
다이스케
하이브리드
늘리고
연주를
실장은
마수
##He
깁
##대만
어땠
춤추
큐브
피츠
카토
통영
무지개
예감이
레버
임창
달러에
##다닐
높지만
계획이라고
확신을
보라고
반경
차근차근
찾게
좇
다름없
##윞돘
방긋
지켜본
후쿠오카
##let
부양
어정
##그렇군요
배치되어
배제할
떡밥이
##방향으로
내질렀다
##랭킹
오비
농락
등장하여
새가
왕위를
털어놓
##UM
영수
##길에서
##사이어
무렵에
증거로
알려준다
사방에
AA
조슈
##YP
##눈썹
스톡
EBS
김정일
규칙을
직후에
##들중
DP
쿨타임이
무실점으로
오빠를
##해주면
##슬쩍
##골의
##션은
##소개
기업인
인생은
후쿠시마
미식
원흉
##에서야
##한국의
일대에서
##EA
최성
흐른다
승리에
1958
RA
정경
샤워를
나무위키
입구에서
OK
황폐
비교가
본디
김씨가
책에서
유럽연합
작화
스트라이커
살아가
시기의
##년대의
갈라져
두산은
##갤러
자행
GDP
명단을
##노미야
분노와
흑백
산정
탈당
가리켜
싫다는
주일
전학
언니는
통화에서
기득
##██
킥킥
미로
안되고
얘기하는
##화되었다
요란
그림은
허리춤
##제조
끼친
des
컨설팅
모양인지
들과
명백히
방대한
도망가는
몸소
조경
친위
달라지는
돌아서서
상대로는
마취
##마이어
시각이
적용된
패러다
사랑하지
##온과
날리며
최상급
##삼을
소비에
응모
걸어왔다
공장에서
산업의
내주
봄이
일원으로
##구경
의원들의
##언론
##부대를
##통신은
대비한
다정하게
합참
너가
정명
프레데
궁궐
여겼다
개인적
써먹을
##장소
터보
소망
학위를
제각기
글썽
방정
수입이
닿은
##냈지만
마을은
목덜미를
구입한
잔혹한
들먹
수시
구성이
걸요
공유하는
나누었다
소속되어
배우가
주위에는
다채로운
##んだ
영감을
생각해요
##않는
발견되지
죽여야
other
밀양
입히는
도착했을
일상생활
##aa
선수단
주인공에게
하우
빨랐다
애플리케이션
장마
살리
##기업이
먹어치
##람쥐
##런스
삼키
비슷하지만
##공급
하곤
화기
##신도시
부통령
뚫려
매만
230
물리적
친구에게
안쪽에
페이스북에
##SA
##릭은
장사를
아시아나
언급된다
성기
근거를
그렇게도
향수
요구할
##연습
야단
열자
달라붙어
끈다
최영
야심
비율을
then
반문했다
##시께
분출
탄소
대니
사명
보물을
무수히
놈도
애처
##ful
오퍼
훅
##~12
##안녕하세요
##바꿈
##잠깐만
퀵
만기
기술에
의뢰를
##day
##아미
##은의
고영
최형
행복해
##호호호
1.6
졸지에
##rop
바랬
##............."
사대
주마
채널을
쩝
광양
얹어
매화
거둘
호소했다
베고
##사구
깃발을
비누
소홀히
꿈에서
##종교
##한정
##시켜주는
##슬롯
디자인은
무모한
바라보더니
매니아
##들께
첩보
탤
뭶
퍼진
##개월이
앉으며
##공산
명실
대화에
때로
상냥한
하던데
##?“
강렬
신영
##단체가
불은
하치
제정신이
신촌
직전의
덱에서
방향에
쉬어
(2018
바디
봤어
##이상의
##협약을
입안에
고객에게
0.4
##지배
남구
##과제
##성이다
갈리는
가문이
준다면
##만명의
수업이
지방자치단체
##마음을
찾아보기
갑판
불리우는
않겠는가
##부리
꼽을
##공학과
##합니까
산다는
이리로
##슬렁
규탄
보스를
##호텔에서
미세먼지
##인민공화
케르
정도밖에
##전인
##쿠로
수풀
꺾어
볼륨
마지못해
##퍼트
##이야기
침실
##학급
독일은
생활은
흐름에
##탁한
적기
유병
이용하고
##개미
배척
동물을
재료로
애기
우선은
지점에서
##이라기보다는
##적과
신들의
역부족
희귀한
모르는데
사랑한다고
##중대
만도
미혼
튀어나와
##올렸다
##으로의
##서리
실시할
일어나자
##다르
수양
경질
어때요
위아래
확인되었다
다니엘
##교육청은
##속도를
4~5
등에게
매몰
내려간
띈다
##들어가는
디렉
변모
##능력은
##키에게
취약한
구해준
사이에서도
##중으로
나보고
발견된다
피해량
들이켰다
일행들은
그립
남았
전부를
아시안게임
물리치고
극단적으로
무방하다
보이나
오재
바위를
과거와
양손으로
백작은
속으로는
어려서부터
##받던
구세
여왕의
맞이했다
##JP
##통으로
새파랗게
##닥쳐
##테라
갈기
깔깔
전장에
##장으로서
##루미늄
1954
후우
광주시
사무실에서
박세
소름끼
##카게
호감
##구조를
챙겼다
좋겠다고
##란스
구나
혼이
##업체인
역시도
술은
저글
긴장감이
%
##애틀
인터넷을
그동안의
보고했다
캐릭터들의
##변경
의약품
때와는
##한게
별안간
물체
다급히
##다크
##순을
소실
금화
종영
드리겠습니다
넥타
인간에
원격
머무는
국민적
Comm
전면에
##다가도
상황도
https
##요소
참았다
아트로
외야수
This
귀엽게
알았지만
##순은
정상회담을
안색을
삼진으로
왼손으로
##분해
##플렉스
알면서
말예요
도전을
확실하다
아까운
##its
늘릴
##들이며
코스튬
갈까
일류
해지
##되서
편찬
뛰어가
프로세
내려다보며
##먹어
계산을
long
물질을
최고로
공격했다
##금에
직원들의
더없이
이쁜
##아가며
질풍
에이전
매섭
실질적
보로미
##타점을
잇달아
조합을
재래
##않은
마모
오랑
##영국
성도
##전문가
##드려
결단
삐죽
엉망이
컬렉션
경제부
흙을
##자로부터
##꾸라
일축
정신은
##150
독창
덮여
##식에는
어지러
활발히
##TR
숲으로
신문에
유저들
현지에서
전설이
살림
원년
벗어났다
가족들은
##자리가
##리고는
바닥에서
##객을
이동속도
나빴
농부
대수롭지
부모는
두드렸다
판매한다
##UP
##미츠
삶과
##attle
##평생
문턱
맞지만
##보유
뻗쳐
##나무를
##/200
##사라는
##시드
시즌에는
##해보이는
도입된
##공제
중개
자전거를
누그러
막판에
##났다고
유학을
과격
조철
일격에
유사하다
지나가고
지금이라도
소개를
했었는데
긍정적
##들목
##까짓
##했으므로
본선에
리볼
조력
부품을
##목록
강습
샐러
비용은
돌멩
비관
오인
##놈들이
##부대가
##기관을
##ote
##글이
##하겠소
중요하다고
파랑
색으로
폴아웃
Qu
##갔는데
##플루
##일관
음흉
##사업의
임금을
##ター
구조로
보고서는
여하튼
##부한
태권도
가슴으로
할머니의
급성
위협적인
차림으로
##ien
않았었다
##천마
##지기를
아내에게
##센은
은밀히
헤르미온
성적으로
상승한
##ライ
추대
자발적으로
퇴임
정의의
사정으로
세가
고백을
중후반
일이라면
##질서
레닌
아니므로
에인
재촉했다
연안
##리도록
사태는
##ited
적들의
##au
##아가씨
따라붙
##회관에서
바이크
후였다
볼넷을
원작과
##IR
어나
소식은
회사로
##톤은
규격
택한
투하
##세상에
##걸요
##글로벌
왕성
싸게
보상으로
##eah
##str
##주기를
##해졌고
1/3
센트럴
얘길
연구는
##닐라
높으신
넣지
##시지요
훈련에
##여보세요
올리기
##센터가
사람들에게는
ad
거지만
건방진
원피스
주변은
아니냐고
주차장
굶어
신빙
맞먹는
빠짐
들면서
영국은
칼럼
##대서
ver
법안을
관계도
##물가
##피고
차릴
##됐는데
발짝
생식
오늘이
가로막고
따지자면
병살
훤히
##됐으나
독일어
앉을
성스러운
노릴
##테르트
팔라딘
의심할
거시
관심은
문체
사태의
삼성이
은행의
뇌물을
그렇군
뚫어
사막의
겉모습
분대
##우야
모형
애틀
수요를
경고했다
생각하던
문장이
지침
학자
개월
최후를
쪽도
---
평화와
##준다면
그것보다
##OK
아산
퍼지는
협박을
리뉴얼
부르기
찬찬
로스앤젤레스
##만일
국왕이
스테파
##다와
102
##><
김호
벨로
역사적인
김은
순수하게
##겨워
선구
##부대의
##할게
인벤
##드린다
수준인
초능력
후계자
칠흑
자체로
##이노
##층과
떨어트
합의가
##무림
진공
첼시
투입된
민주통합당
장치가
기준은
적용할
국제사회
꺼야
클라우드
사무실에
비평
엘리자베스
조여
증시
##트론
미사일이
SN
숨긴
능력의
레벨은
남아있던
보이지는
##표준
한들
금발의
후훗
가설
영영
이관
열매를
위스키
연결되는
출몰
허우
ᅳᅳ
맡길
콘텐츠를
CM
자잘
채소
막무가
인원은
어마어마
PK
스위치를
##게임을
신제품
상태에서는
치닫
김씨의
##보려고
메이커
어찌되었
말기
대회가
불안정한
테러리스트
카밀
결정한다
##메탈
##소유
온화한
인근의
퓨처
옳다
로버
개최했다
대구광역시
##FO
박해
자정
극적인
시늉을
명동
인성
내부를
지금과
행적을
요란하게
다가섰다
사용했던
##범한
##사이로
동작이
##지않아
백무
Vol
시작했는데
짜리
백악관
존재감이
탄창
촬영한
프로그램이다
##서버
냉철
유죄
rem
시도한
##북한의
##직은
끄고
공손히
##arl
날아간
##푸드
담당한
선두에
프린세스
BC
##뭡니까
방식에
##직업
병력은
##음식
흐르
이상하지
##세도
힘없는
##으실
부위에
신청할
사람들에
##ony
리조
스쿼
임종
놓치고
바람직한
정일
보르
팬들도
끝마
브라우
기댄
방어구
올려놓고
##시원
둔다
모자란
지역과
법적으로
김성근
에스테
보잉
카스트
툪
해양수산
올라오
사망하고
위치한다
오빠의
라스트
은퇴를
존재감을
버는
패밀리
바다에서
휠체
고도의
##추의
개로
혼란이
대다수가
발표하고
##름은
##경제의
선거구
연금술
##ana
공표
##하임
1956
해리가
장시간
보여주기
##ute
풀기
인스
왕조의
녀석들을
당국의
부회장은
개념으로
끼칠
##여명을
맛은
미도
호투
콘크리트
손녀
##비하게
##요는
강이
뜨지
나처럼
애쓰
당시에도
##いて
재검
떠오른다
좋아한다는
우치
나라로
임무는
청의
스페인의
놀래
딸과
보잘
##벨의
넘겼
박인
올해로
크리스토
상대방에게
##독의
##턴트
주겠다고
극에
##오에게
활약한
##돌파
물어보는
결승전에서
아이와
지원에
##인형
BJ
두말
생을
자녀를
떠오르지
##라디
##거짓말
절반을
서경
사고의
털고
확정되었다
양동
쓸쓸한
[]
복선
생기기
컴퓨터가
##들어서
함수
##운동장
까마귀
뒤쪽에서
예상했던
##=500
미소지으며
싸우다가
모시는
##과장
교육이
위치로
전한
한국군
이을
조류
삼성화
엔진이
##omb
피라미
멘토
고양이를
내주고
##상관
가미
##청사에서
계기를
커지는
1600
##전형
도입을
슬금
펠리
##치에서
왔는지
사장을
전개가
그땐
빌린
긴장된
변호사가
집중하고
인간적인
렌즈
##쉬의
네모
##안도
봶
혼돈의
이사장은
##가입
소리내어
돌린다
결별
##있다가
내전
몸놀
블럭
생사
여기를
정치적으로
급행
팔과
##지법
농담이
두었던
봉투를
만들기도
사우디아라
##희망
사무실로
봤던
비키
재상
슐
##미즈
갈비
달라서
서울은
##~~~~~~~~
덫
순정
않겠
잡힐
갔는데
격침
기침
##가에는
##여보
차갑고
##잖게
증진
전통의
크기로
실책
물리학
겨냥한
꼿
정돈
편리한
##수무
벼랑
걸맞는
떠도는
책임은
생각했을
5·
러닝
제국은
획득한
전화기를
>"
전두환
두려움이
소리없이
시스템에
##턴의
넋이
격차가
NE
타다
길에서
##xx
##해본
##ents
인민군
정색을
사라지게
인생에
..."
나온다는
유메
고향인
그치고
레코드
포함하고
피해자의
어둡고
총에
테르
##순의
##판에선
베란다
결계
병으로
별반
인건
요청한
개발하고
그친
##)」
옵티
알자
지속될
되지는
깨져
후한
히가
자신들
상회
성동
스텟
엉뚱
##일에서
##더와
##왕후
남용
분쇄
통찰
공격과
보도가
흥미가
게릴라
##억여
비자
양측
기업과
거부했다
프로그래밍
##(16
휴먼
안타까워
##인방
녹화
요청에
많아졌다
살린
형과
벗어나는
팽창
##검으로
내밀며
증여
물품을
##です
짙게
##퍼런스
프라임
프로그램으로
##러와
법원에
살리는
여기로
환원
##지않고
##줄로
형용
기계를
설상가
동국
칭송
부인과
TS
##볼트
##부진
##wh
스테이
싸구려
##사마
##카타
농어촌
사그라
제작사
종족의
초부터
부여하는
합치면
##머신
##복으로
방문이
##나에
비약
밟았다
옷깃
일진
소지가
##틴의
라마
뒤에야
회복이
따랐
행하는
how
카지노
##염의
##왜요
고맙다
증인으로
##토미
##났을
마누라
분담
한명의
모니터링
콜롬비아
##남과
없애는
졸업생
칠레
야당의
##루살
꿰뚫어
##시험을
진흥
워리어
김혜
모을
성희롱
처리해
고양시
조종사
##:2
##~9
##네트
##본은
##위한
박현
가르치
젖가슴
사나이는
무기에
##AB
#1
올해도
##인만큼
공통적으로
##연구원은
보호하고
##밭에
불리기도
사고는
패트릭
풀지
카타르
##철학
속박
츠키
친선
풀릴
어설픈
자세하게
##=400
야구를
일대의
소우
지사
하염
##ARD
hel
경향을
싸가지
체계적인
남녀가
봤는데
##學校
없을까
않지
##발매
선배는
심정이
평화의
덜컥
결단을
박지원
##두자
##;;)
##프로야구
MG
적당
도련님
높아진다
선체
##완이
있는데요
구타
서강
물체를
##안군
##)》
인기는
##자아
청사
복잡하게
자네도
##센티
내리쳤다
묻힌
##기반
남산
없죠
판단해
코멘
##충의
날고
얽매
##이었으므로
이희
##전체
세르비아
도장
생긋
아군을
계속해
과거가
소용돌
EZ
한류
iOS
스와
단백질
왕위에
충청북도
##인상
교육은
중앙의
난감한
후보와
맳
벚꽃
확보해
두려워하는
긋
##모씨
어지럽게
초라한
처리하고
##대우
한진
공간의
평소와
떨어지게
1.0
1.8
헤치고
소피
다리로
찬찬히
##안고
챙기
##카드가
군인이
##엔터테인먼트
양해
단언
##데스리가
둘러싸인
대륙을
##lock
##삼의
과반
##일에도
하드웨어
##자루
여캐
오아
##졌으니
애리조
##명령을
##..!"
케인
눈빛에
지지자
2017-12
##utt
공은
엄습
메이크
##res
사진과
서번트
시도했다
인천국제공항
정대
트러블
##소니
금연
모던
1953
주관하는
꼭두
욕심을
진영의
나타나자
끊은
억눌
과제를
범인을
쓰여진
1955
프랑스어
##(30
불안을
살벌한
전술을
##킥을
남발
총체
우즈베
##했네
차서
정류장
군데군데
##시시
##gif
판사
##んな
서양의
왼손을
##카에
퍼뜩
내미는
##방학
꼬집었다
청렴
##라인의
내놓을
추신수는
변장
스쿠
##rist
전기차
IIDX
튀어나왔다
##놈을
단추를
지배를
진행되며
망했어요
Night
관계자들이
샛
딜링
해결해야
비에
목걸이를
뽑기
유익
고를
수배
좌파
##교에서
역에서
박도
좋았
##아버린
유진은
덕택에
이후엔
성난
정주
용을
시끄럽게
들어주
시궁
이선
라인하르트
##담의
수치다
나고야
다녀온
말장난
성지
포드
여태껏
사회적으로
임금이
중에선
##매체
포맷
우주를
술과
늦었다
##시계
보였
##비오
이드
다하겠다
이강
##지역으로
일제강점
거머쥐
던진다
##IV
사례로
자영업
도망갈
##신지
##リー
##장로
##입고
##디네
페이즈
##성이나
자원이
홀리
카디
총재는
위치에서
차의
##사람들은
차렸다
신약
학기
코끼리
게이지가
사피
화재가
1941
적용되지
##날은
##조약
바바
##새누리
티켓을
##공공
##지않은
##프록시
절반이
알아보는
##발생
벌어져
##rew
##루살렘
기다리며
##객들이
들여다보았다
담당한다
##중지
덤비
지방에서
##대수
##아이는
쉽지만
최고경영
깨알
터지고
참여한다
재킷
할당
기상청은
국민들에게
##곡인
머리도
살살
매출을
최적의
게을
왕궁
그녀들은
관문
금천
노력은
근육을
어렵지만
##asy
구울
##퍼니
}}}
이루었다
##ets
##증권은
기습을
호통을
조합이
제약이
짓이야
굽혀
표현했다
동물이
알렉산드
큐어
간절한
우승한
주민의
하루도
틈새
##사우루스
##잡지
엠블
##튼은
지평
백작의
새끼를
끙
국회가
기반의
##아카
##워져
입힐
3.0
night
##년제
공짜로
딸기
중증
카에
쇄도
못하기
전문적인
##등과
##헤드
겨울에
##례는
신랑
신에게
횟수가
##정말로
대지의
바라지
차례의
타면
##고에서
##이었으니까
##네트워크
여지없이
표방
##편과
사르
##아이템
고마워요
##차례에
##by
젊고
제작진이
##건히
것이네
지속시간
지칭하는
역할로
아니예요
경복
감탄을
꼬옥
순회
클러
생산을
예의를
민주당의
##료의
칵
감겨
씨와
바꿔서
탁자에
##문화의
같은데요
둘러보고
선명한
쓴다는
1942
보단
참가해
폭사
##빵을
로컬
##사업은
덴마
굳어져
챙기는
##했거나
날뛰는
어플
타기
##대면서
롯
##진영
##장일
자식은
##아버지가
##운과
곤두세
정신의
보여주기도
밀린
것이죠
##옆에
음악의
지나도
놈들의
못해도
작년에
가까이에
루키
만끽
란테르트의
수박
일생
영상에서
##로지
##밭을
현대건설
##시니혼
아키라
2,000
Ap
옛날의
##press
펑펑
반대를
제기된
것이라고는
동족
외로운
인용해
무궁화
기념으로
빅데이터
있잖아요
주인에게
기미가
일대에
험악한
하숙
소령이
공부하는
전부였다
장면도
어드밴
()
돌리자
얼떨결에
정민
연출을
##apt
유리하게
난생
늙어
지오
하나님의
제르
앨런
##공식
##셀은
같애
죄수
팍팍
도시락
밤중에
제도의
요코하마
##워크
쪽팔
##외에
시아
##병원에서
쥒
물건들을
물방울
동등한
상태인
##했으니까
대결에서
##완화
실명
##리스크
성문을
욕구를
포와
처참하게
##테오
##분까지
싸우지
삼성물
구겨
징징
치자
눈가에
영역에
패리어
공동대표
모르겠군
선택했다
##.13
##iver
입점
##6/
##인식
캄보
여신의
빨래
짓눌
att
아쿠아
##(199
과세
다큐멘터리
후작은
포함하는
바라보았고
엄마와
올리면
노려보
안다고
미안해요
##───
##회사를
겨울철
아테네
##곡에
##카드로
인피니티
노크
라운
스르르
##ox
우문
##우면서
(20
##객의
독수
##탄도
자리에는
##지리
계기
##기관인
시작되고
##네스코
무리는
Dream
절차가
폐하의
파우
댓글을
떠넘
##모노
##완의
필라델
샅
돌발
한다며
존재한다는
사기꾼
죽어야
##여도
재보
사이트를
시상식
##품에
GSL
머리에서
##만이라도
세계대
올라타
##필이
She
붙는다
온다는
신종
선보일
전환을
알라
본연의
재계약
작전이
질책
단계를
질을
누구든
작용할
1959
신음소리를
거쳐야
##이었을까
빅뱅
멀쩡히
압수
다르기
##협이
대변인
되찾은
않았소
정중히
##규제
##덴의
전월
언제까지나
##남부
천을
시무
사용가능
업무에
유지를
욕실
행사에는
##위다
처단
##그레이
##.........."
공유하고
만들었다고
선수들에게
##An
##으냐
##간으로
운영할
##영이가
What
걸면
엄한
질문은
##DJ
북방
안돼요
율리아
IB
어림
생각난
채우는
제출했다
내려갈
한판
비난하는
빚어
펼친다
가능하기
캐릭터인
시끄럽
##시인
불현
전생
진상을
개최한다
아침이
##뜨려
##휴우
백여
우리은행
##품과
숙소
요구가
문제이다
응접
왕국을
두명의
##구슬
유부
유예
유린
##라든지
##보라고
매장을
배리어
효율을
##끼를
출판사
볼이
보스로
수산
싸고
잔여
Team
유용하게
꿈과
땇멲
현대자동차
수제
창시
신부가
아버님
##드컵
정박
##리다가
##리온이
PR
대자
##비서관
러시아는
장동
일리아
##-04
정자
가사가
무덤을
1952
화천
언급하며
역에
농사를
많으면
가할
##벗은
반발이
저축은행
##━━━━━━━━
Amer
내보내
장안
난장
헤지
##람은
설도
속아
##하시면
신라의
생각해야
고려한
철도역분류
말하길
부탁했다
휩싸여
##쳤습니다
##led
그칠
학년
##잔의
잊어버리고
본진
이기면
드리는
지점을
##대강
수건을
막힐
##잖습니까
##피트
사춘
포지션을
농가
지진이
##yes
수록되어
한손으로
##ham
긁적
들떠
벨라
STX
에어로
come
경연
도도
사귀는
생각에서
예사
##나라가
다독
일회
##전공
날릴
의식의
##가르
##아리를
판매량
랜덤으로
##배틀
##점인
존댓
명씩
주요한
##커니즘
175
강세를
##납니다
못하자
안심이
CO
밤마다
계십니다
마련하고
##병원은
박고
##에까지
일례로
기대감을
##노인은
말다툼
1947
거절했다
능력치를
##SR
놈이다
민자
알았어요
##꾸러
이철
##스타일
따끔
말했듯이
추가된다
구애
시한
##놓아
활약했다
##칙한
##커와
내팽
사생
양상
참가할
돌아가게
##시리
그런대로
선보이며
##대나
극도의
1.7
ᄃ
준하는
키보드
##나절
##파르
건달
해석을
김세
무릅쓰고
동남아시아
##슈는
##천한
스미스
울트라맨
##질한
봤자
입지가
다각
##직으로
날아갈
독일이
지시한
라비
사범
고통과
대위가
변화의
##정동
##레로
피력
속출
총합
스스로에게
국가로
이동해
전문의
##모금
심포
1943
##자니
송곳
열리지
(2017
오스트레일리아
레이븐
양상을
이래서
##atter
식은땀이
##일라
무너졌다
이용한다
무예
##삼거리
나타나기
Oh
부활한
신속히
의자에서
토시
##출신
칠성
일이니
좋아졌다
가능하도록
불가능했다
프로덕
휘하의
유탄
채울
##골에
##실장은
##식한
크나큰
알루미늄
##사부
시스
허다
개정안을
NO
##내셔널
##뜨렸다
일이라는
절실
아니한
##이는데
##협을
##놓고는
부분으로
여성들의
그러고보니
부두
영리
원리를
몬스터는
##이죠
발작
##dd
파파
##기보다
거치면서
##틱한
이쿠
잡혔
한마디도
##대다
##튼의
신문은
플라즈마
삼키며
##하였기
주위가
대신하여
빛나
승계
사귄
있듯
도미니
불공정
있었으니까
재편
애썼다
파운드
성공하면
구실을
설치할
##예비
구비
##계급
##블러
느릿
##람의
컴뱃
##아니라
##토벤
테지
정리를
주기를
플레이할
##pro
##그러게
뉴스를
##분별
파츠
가리키
가차없이
##추천
DM
##제품을
##-21
동북아
말해주
옮겼
가했다
수입을
전원을
##취한
입자
뭍
타치
##모아
박동
저들은
기조
호프
##DD
자서
페르난
##철과
고참
산은
1.4
오르크
교내
##냈다는
NHK
알아본
##금액
돋아
측면을
빅토리아
나와야
사에
##작전을
결정된다
##비록
##윤리
치지
##만과
센티
귀족들이
임진왜란
들인
가문을
##했었는데
뗄
있었을까
##뚮끏
선한
##~40
이어갈
재혼
지내던
##데는
출연하는
줘요
재조
사물을
##능이
##이탈
##세이브
페인
##타자로
##rough
치른다
##탔다
쌓고
##빈과
##정령
상표
전일
교수와
꺼내서
그리스의
##han
기운은
쩍
불균
타오
##가루를
귀엽다
떠나야
아프가
핵무기
낳을
백발
치중
##자에게는
1939
사절
자취
남극
인사는
모드가
서울역
스네
여린
주소를
##으악
경험과
아이고
##좌의
소를
동무
윈터
타일
세일러
차례에
계획대로
스노우
행진을
##슈의
엔터
집안을
##다리가
단점은
고증
버티는
강기
가봐야
미군이
남아있지
불규칙
자연을
인물들은
##SC
##ily
뷰티
찻잔을
물질이
쓰는데
##신기
위화
찌푸려
가라앉아
사이좋게
##칼은
역동
만족할
##응하는
지휘를
했기에
넘어섰다
원칙적으로
##중소
모나
우려도
격한
슬래
##학적인
꽃은
##안에게
다름없다
필요하지
했으니까
관리하고
목도
직원을
말까
일이나
파악하는
자와
##아이돌
면적
##라이어
마코토
말해도
사생활
휘두른
충고를
드로
초강
##문제로
말한다면
지기
진작에
크라우
혜택이
따라오
Girl
스카우트
##이제는
초점이
##KR
리비아
얼버무
공통점이
날도
##시키거나
발사한
never
예정입니다
비틀어
오버워치
스칼렛
##시엔
##어쩔
##반짝
묶고
그지없는
진군
##즈음
셀레
말릴
베니
봉건
더러워
사실이라면
집어넣었다
##필은
고자
빨강
##민들이
하와이
끓는
마차가
조건에
캡처
##차라리
보내야
분위기의
알겠지
명과
새도
##가정
제공된다
사라지
##리프
##로에서
고통은
오르지
언급되는
다녀오
안하는
아닐까요
아모
##니아를
대대적으로
결정적
##인이라는
투자하는
##Ex
수식
껍질을
카운트
납작
상경
안방
흐를
증기
패를
복귀한
주장하며
향이
레이블
빡빡
적어서
대량의
명예훼
종합적으로
토미
지라
편도
버전을
##탈삼진
다음엔
여론을
판결이
흔들리지
기다린
##천동
류의
##급하게
사전차단
바뀌지
브랜드를
##징금
보루
넥슨
##분할
맞대고
파워를
캐릭터에
##しい
반영해
주위는
게임에서는
##비아는
쇠사슬
삼을
남자친구
쪽에서는
음란
##시스의
본작의
입히고
멀다
##버스는
치료에
##국립
골라서
##렁이
##드라는
발견해
만들게
백성들이
업그레이드를
블룸
막히는
란테르트
퍼부었다
넘어간다
##매직
##미국의
가라고
애정이
제보
코로
예정이며
먹던
반을
하더라
##고수
인접한
부정하는
##~18
넘사
귀신이
누구인가
##앉은
공연히
아토
##지에게
##행위에
눈물로
이드는
회심의
존경하는
구의
왁
과실
저널
노력할
경기력을
피오
가맹점
내려진
##몬과
FPS
동생은
탈바꿈
것이라며
##대까지
지나간다
양천
공백을
멈추게
오르기
##정권
승무
Time
make
시청자들의
##투아
사용자의
##어쩌면
의견은
조그맣게
##귀족
##애나
##XSV
##웨이트
고향에
이글스
갈릴
예비군
티가
요시다
평론가
대형마트
발주
보여주면서
시작했습니다
안좋
금리를
역할에
##딜이
##르릉
문과
사키
화신
오르며
카시
칼슘
섬에서
신체의
일어나면
##베르트
선언을
츤데레
큖
교류를
지정한
있는데다
##유저
##자네가
하셨다
꺼내는
국장
나눴다
세미나
소비자가
포커
기준으로는
오피
##만장
진리
##내는데
##제기랄
##곤의
개연
통역
음성에
말리는
보았고
##커피
여야가
조원
태연한
최고위원은
검사는
에디션
차별화된
린의
발칸
체납
##년대부터
이미지로
##캐슬
달릴
방관
##ears
합의한
주의하자
##BE
##업과
용자
차남
작업은
동료들의
꾼
##렌과
스토리는
##재에
대승
구석에서
##요의
평정
될까요
선배의
이벤트는
인정받고
IV
사장님
클리블
가솔
아슈
##......」
##{{
들어오기
##란도
남경
2,3
거실로
##하려다가
##레와
##스타의
사랑한
붙여서
##서방
백미
##문재인
범인은
사업으로
볼드
화답
나오던
##play
개새끼
첸
루트를
##night
##:45
문성
웨이터
옷자락을
노비
쉴새없이
대잠
원피
##심하게
해주면
1936
콘셉
돋보이는
뺑
##코로
놓여져
##셨던
무너질
반대편
어쨋든
##이라던가
시크릿
##의에
유교
열기를
대화의
컨디션
이뤄지는
##고자
서적
##청와
공포가
초월한
"201
것일지도
순조롭게
하십시오
유모
##VCP
자립
닥치는
마시지
않겠어요
##면적
가상의
재개발
아이스크림
##리려
하버드
펼쳐지는
##형이다
심부름
반영된
##격투
##리리
##점수
사납게
말인
##금리를
##pds
끈적
장점은
##하우
바치
볼때
만들며
요인으로
아직까지는
스틱
친밀
때문이기도
무마
##해지면
보는데
##화했다
틀림없는
##해수
독수리
작품인
##레스가
상대식
주기적으로
##프레스
임의로
팔꿈치
네티즌들은
##KT
강대한
찬스를
퇴역
토키
cr
##더니만
존재하는데
##손은
남다른
##재미
폭으로
대국민
민주당이
버드
젤리
MSL
시대에는
전작과
항공모함
##진아
잔에
압력
통일을
왕으로
차지할
파괴된
그분은
집어들었다
부하가
아쉽게
강도가
##휘를
##(1)
##다녔다
##풍으로
시켜서
외국의
기자들과
##냈던
보시오
언제라도
사당
MI
##고마워
마주보고
##댁은
기겁을
네리아는
트랜스포
##서기
겨드
거처
##이것이
##고시
실을
금융위
나뒹굴
노력해
선정해
##01
##iam
노랫
의도는
사용될
피하며
텔레포트
마라톤
회견을
잘하고
지지율
논의했다
##먼이
상봉
칭호
싸우기
하이드
눈치였다
고우
거치지
상관하지
등판해
##사실은
온다고
아연
##듣고
틀을
##PR
##ange
유리가
말했다고
노태
대박
데프
##탕한
걸리고
##내용
##ude
정성을
깽
싸우다
지날수록
중요시
쟢
할지도
해결될
##어때
##outube
##히어로
극복하고
##병들을
잠시만
동안에도
동래
대여섯
도와준
##TH
파랗게
펌프
끝나기
일이오
존재였다
찢어지는
착용하고
##고려
덱을
일본어로
Super
선정한
아니라도
천리
조직에
##기관으로
상성
터득
미소로
찾아갔다
특이하게
동향
모험가
믿음이
진실이
기획재정
매고
일본식
남자였다
배트맨
##모자
부자가
진수
##장에서는
브레이브
가창
이범
됐는데
끊임없는
##스크롤
숨졌다
한계에
보너스를
광경이
바치는
강세
보스의
##홍보
##냄새가
##이해
살다가
펭귄
선택해
님은
린이
했소
목걸이
신경써
방문했다
##창작
##첨단
왕따
줄인
간만에
##현악
##악마
해낼
##폴리스
휘몰아
##댕이
##마블
구르
통합진보
접견
들려온다
##바지에
못하던
태양을
자식아
나아갈
##탱크
감춘
분데스리가
##blog
절정에
엘다
파도가
폭발이
여겨지는
오늘따라
##아니오
말투에
##ident
보였는데
고갈
기념해
##루트
양극
##wn
##그러운
##보지도
참여하지
대쉬
바이킹
체험을
대각
그놈이
후보자의
이때문에
의욕
초연
##상하게
과감한
지경이
러시아가
##바인
먼지를
체력과
온몸으로
지루한
때릴
뷔
##치오
투자자
강하다는
사이트에서
맞췄다
다했다
예배
바르고
##나긴
드라마의
얼라이언
##거리자
아버지도
##sy
이래로
##교환
##사드
싫어요
성숙한
종점행
##아이고
##열과
장정
파밍
거냐고
자국이
하고자
대할
붙을
옷도
##루스의
주는데
연결해
원작에서
##타임을
미셸
전부가
정직
히라
뽀뽀
황재
드립니다
##리듯
껍데
아이템은
무죄를
월등히
텃
##align
여주
않음을
거물
산성
스매
They
이야기할
들뜬
영이
뒤엉
지켰
고통의
유저는
##조에서
##-200
치렀다
최종보
문파
히사
고르고
연평균
##큰술
##-201
약속이
하연은
화장을
되어서야
우유를
여자들을
정책위의
환상적인
헤딩
호는
##꼬박
##녀와
군요
손상을
눈동자로
##명만
소득이
##니깐
싸웠다
취지로
연행
머릿속을
수작
와야
임명되었다
업적
이면
토닥
본거
브라더
맞추면
예기
하염없이
따가
##ause
수석은
##왕에게
많으니
경제적으로
뛰기
##들이기
1300
##당장
##분만에
상원의
않았으니
제국에
괴멸
포함한다
##바겐
장만
충돌이
태을
않으려는
비오
##FFFF
무기와
little
가와
교감
보우
남자로
영화로
##ement
##칠한
전동차
お
제사를
고려하지
##매의
영향은
경은
알제
카니
##옵니까
시민이
딛고
키득
웨이브
제작을
당연하다는
괴롭히
##NC
##인원
가둬
That
##······
입소
수준에서
##포도
근절
아니하고
외국인이
##ha
없으
기체를
데스크
바쿠
직원들은
만족한
택배
##해버리는
펼치며
지급하는
##궐선거
무턱
화장실에
1~3
예술가
공휴
뭉개
지구로
##년만
마징
뺏어
혈관
갑니다
비집고
under
공력을
사연을
왕에게
인물들
찡그렸다
##이치로
이름에서
책략
개요
슬럼
가혹한
팽팽한
햇빛을
공시했다
##번역
애착
긴밀한
##괜찮아요
##불에
삼천
시험에
적색
인데
살아가고
이슈가
주인님
지원하기
사적
유스
난해
작중에서는
일말의
bet
돌면서
##노리
원자로
##남에
먹자
겨울이
##주려고
##화하여
정책은
밋
모닝
고맙다는
여유롭게
##노프
##(12
뒤척
정장
깨워
Str
출동한
한화는
형성하고
##)!"
초음
허영
아프가니스
한경
핵을
것만이
캐릭터와
기반이
옛날부터
낌
책으로
여가
정거
부상이
많았는데
##법한
극동
죽거나
짝을
먹혀
##카쿠
기점행
자잘한
집요하게
기른
##ision
걸어가고
부탁드립니다
##방금
론은
것이기에
퍼포먼스
전부다
정신차
순간의
전략이
준은
판명
유저의
용서하지
Min
(2016
것이었지만
남아프리카
상세한
104
말투를
소상공
국민들은
만인
벨트
귀족들의
테니까요
캬
##시어
추세다
홍수
대답한
은퇴한
2017-11
문구
##해달라고
소노
태산
줄까
페이크
##일지라도
가정에서
사이트에
전력으로
##플랜
서려
찡그리며
기념촬영을
##칠을
소파
교사가
애들은
한참이나
연인이
##...」
##오토
반찬
나라도
독립된
인사들이
문구가
붙여진
그렇죠
보도를
당국자는
맺힌
동명의
루크
수행하고
시애틀
##눈으로
CNN
웬만하면
서귀
찾아낼
##년까지는
유쾌
하품을
선보이는
없잖아요
결여
잡몹
빙긋이
기고
불러도
올랐고
허브
##팅이
##나무가
반발을
결사
들어설
고양이가
봐선
도맡
들어오게
해운대
먹으면서
##ts
찌푸린
따라갔다
##지진
꿇었다
아우구
딸려
필시
리모델링
포함되지
시각을
문화에
야릇한
제품으로
좋아해서
한국에서도
##는지라
##이번에
유서
틈타
106
##숭아
자선
키도
책임지고
##애니메이션
동포
##드리고
맹활약
빌런
작다
##-----
##야에
미주
욕구
숨막
엉거
역이
##국민의
그로서는
There
호들
그녀들의
보따
현대중공업
##유니
거부할
천하제일
##점슛
금강산
#2
낳아
마이애
정했다
##놈들
##당국
##천지
유소년
로스트
##erson
소환하는
##고리를
##du
스릴
이백
감염된
옥상
권한이
대체할
받들어
국내의
소재지
머릿속에서
주상
에이다
##자만
대학이
부르면
##였으니까
##게이지
한반도의
알아낼
집안으로
족히
관련해서는
##완은
등용
혼다
##위성
붙일
과도하게
마운드에
징수
##less
지배하고
잭슨
천도
강호의
사정은
흘러가는
##턴간
암기
찾아왔
##방안
##NNP
##앉았다
경로를
눈치가
민주노총
##턴은
pre
기르는
대단하다
명예의
##들어갔다
주식회사
낙찰
{{{
차분히
##렸지
고산
반감
가기로
까닭은
남편에게
##미션
모면
국왕은
도로가
아르메
레슬링
시작했으며
내겐
##었구나
폼이
##관계는
토마토
대시
이반
히로시
##무도
공격하기
말씀은
봉인을
체육관
객관적인
삼성전자가
노가
이바
유대인
이목을
예루살렘
나부
##중일
선후
멈춰서
##콘텐츠
꺼낼
링컨
오일
##라인이
바나나
우주선
##베가
필드에
##mg
##방문
갈아입고
이제서야
파고드는
##래는
노랑
그야
모방
신호가
부인했다
와타나베
수준이었다
부대에
위스
외부에
기록된
해태
거절할
만들었다는
썸
분간
##일어나
〉
##조원을
있는거야
##현아
방호
got
딕
##테츠
부진을
회원국
다이아몬
##딜을
오쿠
쫓는
장악하고
들키
매뉴얼
있는건
생산된
이산가족
##균의
##벽의
##정리
누명을
왔다가
말든
##회장은
결계를
논문을
고칠
##웠다고
알기에
자리하고
시구
야전
위주
초코
(199
연중
##발한
그대에게
병사들에게
가디
날인
정시
Am
보람
승자
포로로
천황
건너가
들어갔고
장기적으로
##대생
내공이
##듯하게
(10
적나라
보십시오
피해야
따지
지나칠
최씨는
분별
츠쿠
사인을
선수들과
내리자
대위는
##얼마
투항
유네스코
before
##귤러
##세트를
이청
둥글게
시신이
설치하는
캠페인을
##둔다
핑계
여성과
했던가
렀봞
셋은
##라나
##쿠르
##잡이로
금액은
퉁명스럽게
##=600
미묘
KCC
기체의
관리자
##홀딩
다중
가로저었다
클리셰
##저축은행
이양
다를까
저들의
식은땀을
##HT
과부
저스틴
##물에서
귀족의
화랑
##조각이
수용할
자신감
##초부터
쌩
##?..
빼어
##없다고
노동조합
##테를
적용한
스콧
하락한
##살로
탈출한
갸웃거렸다
더했다
스쳤다
##제나
유형의
##했는데도
빠짐없이
알았다는
구성된다
뇌가
이뤄지고
제시하는
시리즈에서는
표류
뒤엎
사마의
햇빛이
되묻
그곳의
가능하면
이한
장검을
##드림
##집과
우왕
이분
청계
제일의
서울시장
사랑한다는
기의
죠죠
창가에
기업으로
안기
##막은
당이
인자
겹치는
##정수
천명
식량을
먼치킨
교란
일에는
##해주었다
부근에서
사랑스러운
헝클
대표되는
##연기
의식한
##해와
기다란
기술적
앞장서서
돈과
맹렬한
소설은
전문가들의
연기한
우승에
##ᄂᆞ
가가
소독
스모
뇌리에
지상파
건설을
꼬박꼬박
원활한
##킬로미터
1957
제비
##짝을
직업은
##대사는
기절한
4·
올려주는
팔은
미심
해줬
초중반
##아프
라오
먹으러
조선민주주의
##소모
##슬금
건조한
스마트폰을
단계로
어정쩡
해석할
##뛾룆
뿌린
소재가
희망의
##아니에요
야구장
##아프리카
소개하고
##대성
함장
신체적
##초교
##합시다
죽음과
##금도
경우의
믿었던
##JKG
입만
울리며
밍
액세서
언론은
정체성을
해야한다
Black
맞이한
##라기보다는
코드를
구경을
언덕을
외모에
Rem
함정을
팀과
프랑스는
같던
##갈색
업계의
파견된
여러분이
##하트
출연한다
LO
다져
산에서
칼날을
지대
셔츠를
故
##타케
##ize
VIP
돌아오면
어쩌다가
##녀로
치뤄
아름다웠다
성에서
##통치
해는
조정을
괜찮다고
world
##문도
들통
유틸
##국장은
고수가
벌겋게
형제의
때다
돈의
변신한
안테
어쌔
##드도
##선물
생각나
잠도
155
논란은
법원이
추격을
퉁퉁
김학
비밀로
정령을
##포켓
##하겠어
##들만이
##라구요
##브랜드
신고했다
깃든
소개한
과격한
대지를
열렬한
##맞고
외화
직권
122
뽑고
임관
장애가
치료하는
기와
##덕분에
하겠지
광범위한
##ᅳᅳ
그녀에
롤드컵
엉거주춤
일부로
엔트
특성에
가계부채
인근에서
##그렇군
##해버린다
드로우
##학교에서
시스템으로
내뿜는
자극하는
##부장관
##만원에서
##걸은
보고가
비운
##되기를
경우와
찾아올
크루즈
##출판
##(..)
##슈가
아로
중상
노부나가
오르게
좋을지
도전하는
조교
질색
후자는
##끼가
##술과
##현상
##자네는
고려의
사기가
운전을
집사
사위
보기만
##어택
떠들썩
##진행
놀이터
베어스
않기를
고맙습니다
먹어서
##칭이
##(25
떠돌아
##급인
백마
디오
출발했다
##중이던
내키지
데이비
이거야
해외로
돌아가면
##년도에
마음속
달리던
should
##타불
복음
애도
태생
친애도
개개인의
덎
##보리
걷잡을
##암동
헤어져
여건
발휘하는
##여곡
평가도
분리되어
불가능할
대한민국에서
##리터
##ern
조각이
쓸만
각별한
되겠지만
##됐기
조차도
FW
동료로
류지오는
하천
합니까
일시적인
##승으로
반입
친목
무실점
아쉽다
##orth
핵심은
지망
Don
땅볼로
기간동안
버블
##처리를
##ape
##누이
모텔
한낱
기여한
##매우
미행
누나를
프랭크
노여
마에
숱한
일보
DPS
네덜란
##,'
현저
알리지
소리치며
알렉산더
난리가
예외는
전에서
##아아아악
신경질적으로
성전
고르는
수축
코트를
##실록
정윤
높이가
됐지만
##하로
콤보를
두번째로
##정화
감성
리셋
정황을
불안하게
종류는
##만대
유닛은
임시로
날아왔다
##추적
대었다
맙소사
상실한
중심지
예민한
휴전
누구지
성격과
##문이다
방송인
1919
Ag
##톤이
말투는
선보이고
책임지는
##필요
가입한
말미암
처참
건강이
보기로
나아갔다
있으려
##석한
자수
차출
부모와
인종차별
낮지만
##푸르
준비할
후엔
예외가
새삼스럽게
전차가
어찌어찌
BO
양평
잡으려
커진다
성장하는
##구름
##율과
부유한
뚜렷하게
121
비스트
노력으로
비해서는
킷
집정
시종일관
부활을
드러낸다
프리스트
방역
않겠나
종교의
그마저도
고성
흙먼
##운동에
상태이
당근
확신이
떠올려
빌보드
##ECD
공신
빛내며
같을
배짱
이성이
적시타를
320
##양성
##기능을
델타
방랑
양파
##직에서
낮에는
육중한
##교실
되뇌
가슴팍
노하우를
뛰어든
교대
레스
##었잖아
여차
병합
변수가
##들이라
전달할
없어진다
교원
내줬다
대문을
##씬한
may
고향을
바람과
훈훈한
##할아버지
기록했고
벙커
느껴져
마교
막사
지갑을
##진단
동년
법원의
유도하는
예정이었으나
건져
음미
카리스마
사내들이
##턴이
##털이
안타깝게
기자회견에서
111
##쓰기
버락
탓도
우스운
내년도
트윈스
##절차
잡히
늙은이
VR
정보에
탓으로
드러나고
포상
견디기
깨지는
움켜쥔
##민주화
알아보지
중단하고
협정
##대사가
김시
막강
코칭
연습생
치솟아
국제사회의
본관은
회오리
공급하는
스쳐지나
합류했다
##동계올림픽
아이템으로
연발
사이토
달아났다
리모
##르에게
##순위로
절차에
청소를
반대하고
레나
희박
운전자
잡아끌
등에서는
##안한
울릉
##이란다
##장치가
협력해
부드러워
골이
논리를
대학은
영주의
채웠다
알고있는
##하기보다는
뒷통
신칸
안착
강압
이목
가변
흡입
설정에
##론도
##샤를
##만원씩
달아난
장단
##받아야
요소로
지켜봐야
간을
루스
##년이다
##감정
##렛을
##주길
##창업
기능도
##ather
성적인
자루의
현실과
kg
시드니
시작은
신청한
칼날이
필연적으로
##메인
135
낫다고
밝혀져
주력으로
##월로
테러를
펼쳐졌다
리에
바르셀로
검도
대제
당사자
막히
만만한
일체의
만들려고
좆
배경은
조사결과
##넨은
문신
유비가
##Cl
행성의
있어서의
시립
급진
부조
연희
##부인과
지수는
둘로
다룬다
수퍼
돌아가자
선제골을
##즈에게
오세요
챔프
주도하는
##가치
계엄
##했더니
##지금까지
흑흑
부족하다는
##해지며
##해당
자조
##운동의
김소
Res
마왕이
래퍼
총수
##거리더니
야마모토
계속하고
농림축산
나왔습니다
##박에
광물
##치료를
체리
사연
##전함
신곡
인양
쫓고
상태에서도
나왔다고
서바이벌
##그랑
##대단
##율의
750
조용하게
##뱅이
영은
시도하는
알고보니
##간에서
우월한
기지개를
##타기
무대가
속도와
음식점
##벤션
집도
##들자
단서를
대표적이다
##번지
한바퀴
앱을
따지는
하기엔
최연소
인게임
휴대용
소꿉친구
인신
탑재한
소비자들의
있음이
##베라
그분이
##워졌다
투덜거렸다
##형도
출고
역사적으로
##검과
케이지
바보같은
##먼의
운동의
죽도록
다치
이코
있지도
하느라
##지둥
스피커
시리즈와
만들어냈다
권의
나로
가격도
미지의
명칭으로
성황
점멸
채굴
##시아를
베토벤
생명력을
##국방
삼일
훈련이
지역이다
##했단
##민들의
Hol
프롤로그
피겨
성북
##아가고
1/2
논란의
ア
이근
정도라고
철이
##협회가
돌출
순서로
##스트림
280
시네마
절친한
##패에
페리
##부부
##회도
수원시
간행
관철
카멜
##버리지
부딪치는
확인되지
쏘아보았다
##디아의
##media
타구를
##ric
##났지만
감소한
뚱뚱한
방송은
모션이
##사원
기만
소가
비하여
해보자
##었단
부쩍
해군은
WH
달은
콤비
소소한
객관적으로
##회장이
##있습니다
##ton
접할
##막하게
있으니까요
받았습니다
자국의
느꼈는지
Let
명성이
미소는
훼릭
브라이
대답하고
찾아가서
##불은
##기록을
누르는
매춘
번들
신봉
##필로그
베네수
퍼펙트
니코니코
중남
##po
##공영
##uss
탓이
두각을
돌아다녔
들어서면서
곤란하다
##대중
감출
이온
침수
기사에
말소
생각하지만
AB
타게
붕대를
플레이하는
##ma
##그고
##항이
불출
우드
유리는
오른쪽에
참이었다
와도
보내어
제안에
악영향을
##주얼
땅은
맥을
사바
##일랜드
지방을
젖을
##나간다
다가온다
슬금슬금
짐작하고
적인
실장
##티와
"4
구독
이리하여
##파이터
주가는
##RS
포탄
##교육과
발달한
##+2
##df
켠
길가
내년에
고사하고
주고받는
##표에
세수
리버스
상품이
##ka
지금까지는
여자들의
미들
똑똑한
옵션을
##곤은
보신
##자신이
예정이었다
아프고
반복되는
##애애
##조판
포탈
진심을
집게
간다면
##IE
분홍색
말씀하시
우두커니
##경북
의기양양
##프닝
선택은
형제는
일족의
불면
##레스트
##LO
2017-10
풍습
설명하기
김제
코에
저지를
고정되어
꿍
##앙은
십이
멜로디
기사들의
때문이지
##식당
같구나
##아니면
##졌어요
산산조각
대법관
흩어진
##킕밻
꿈쩍
국회를
외부에서
뜨면
어그로
작지만
직장을
체제가
바위에
소란을
에일리
드라마를
공격도
자랑하고
꼬리가
소통을
외교적
절망적인
해남
##녀석은
그보다는
킬로
소비자의
보도록
경험치를
레몬
123
걸음걸
편지가
암흑의
설정으로
쪽지
로브
마켓
손바닥에
시달리고
꼿꼿
새는
구하지
심장에
노선으로
쐃
기금
싫으면
허우적
##롭다는
잠자리에
버터
##랜드가
##_{
능글
비호
지선
수정을
축제를
##났던
독백
자판
레이나
강력하다
이상했다
욕실로
생각하는데
##총이
정오
줄고
anchor
##ift
우스꽝
##그거야
이용자
기사들을
행방불명
##!!!!!!!
최씨
뭡니까
##특정
하겠
홍보를
발사한다
손수건을
생각하였다
##~'
##기사가
운행을
109
전투력을
사람입니다
##혀진
여성에게
##배차
고삐를
세트를
장착된
희생자
불안감이
좋겠다는
보았습니다
오케스트라
##IO
##인증
리콜
요크
수치는
우여곡
뒤적
참견
1914
재기
져야
축에
약하게
다가가서
정적
한스
##0000
지켜볼
저질렀다
항모
아파트에
분석하고
##토시
기이
연한
어제의
경제성장
##.14
김문
등장이
리히
간직하고
##ress
고려해야
생각없이
릴리
떠올리게
인챈
갖췄다
다이나
배분
##youtube
김신
제구
초조한
반장
4.5
##주의적인
황실
알겠어
엄폐
장담할
당신들이
저만치
무턱대고
만들어지는
##했어야
섬으로
빠져나간
##경기장에서
친화
카카오톡
호소하는
산화
점검하고
##.),
##급식
탁월
총무
1938
##구매
듬뿍
##베트남
##전자는
자기들
다방
##세에서
묘사를
##장교
서게
주눅
과감하게
운용하는
##eng
송금
말씀해
속수무
중으로
지구가
비영
명색이
쓱
선수와
실력도
자유로
##산화탄
속도도
##공사를
##하에게
##こと
##파이트
와락
대인배
확보했다
##원칙
##쿠니
방망
가져오
수염이
바실
북쪽에
계획하고
오래전부터
이스트
녀석들의
##장으로부터
##세나
##언어
혜성
상태였고
시작하게
우리나라에서
났을
물음
헤아릴
쳐다보던
철혈
향을
육체가
가족들을
로테이션
라르
바이올린
##의는
##정책의
##파운드
의원에
##보좌
Your
##퀘어
남기는
허둥지둥
##left
밀가루
식탁에
차질이
탈출을
기자간담
##する
리바
레아드가
잼
##수업
교단
궁전
있었소
##토에
무관한
양쪽으로
##센티브
음산한
소중하게
벼슬을
이카르
다가오자
프로축구
##문고
따라온
아르바이트를
객실
병장
##공간을
포스를
##어둠
원에
하구
구슬을
맞아도
능숙하게
마무리했다
##!!!!!!!!!!!!!!!!
높인
할로윈
자랑스럽게
라일
카우
도구를
##킬을
##였다가
하나기
선택하면
봉황
잡게
돌이킬
실수가
해수욕
유년
정제
나무는
파출
쏟아부
정보의
세속
직계
진해
아는데
국영
대본
타점
않냐
용어를
107
its
##보살
제때
학창
자동적으로
속이고
시체는
노독
##line
현저히
종의
포섭
##준에게
1910
가까웠다
##라시
겸임
년의
##여러분
제시하고
##틴이
##그리스
교육에
어슬렁
##여고
들어줄
“........
##탖봞
비싸다
하자면
호르몬
시베리아
변변
##over
큛
기저
주물
##패드
고을
관건
무형
too
일어선
향기를
황금빛
눌려
EXT
##양군
걸러
회화
미동도
핍
개정안
##따윈
걸어오는
이동했다
망한
교주
흑역
그밖에
얘기할
조기에
크리스마
오드
턱없이
##꽃을
시발
##기관과
##야스
##움도
##다닌다
지위에
메시지가
히스
페르소나
##ット
형님이
눈짓을
악마가
도달한
유지한
교묘하게
보건복지부
##대자
##팀인
빠지
예문
당연하지
자네에게
##레한
gu
도미
됐어요
구명
무슬림
준비에
모기
##냈다고
르네상
실체를
상념
샅샅
부정할
공채
찬사를
이력
밝힌다
수행을
조선에
##던전
테일
비웃음을
그런게
비자금
언어의
것이니까
것이었습니다
##uff
##사회가
##그저
##충전
부산에서
거부한
구직
sl
환산
##lood
길다란
##야에게
가하고
노예로
##광역시의
븸
없어지는
오백
나누며
상세히
겪었던
파괴할
##필의
비꼬는
선정되었다
방안은
멕시
따라갈
설상가상으로
돌아보니
찌르고
부여잡고
##,5
##공무
엘케
크기에
가져오는
캐릭터이다
미첼
자빠
##아무튼
결승에
부르게
그대로의
백성들을
##멘탈
청했다
망설이는
##.20
데리러
싶고
일한
금고
의존하는
않겠습니다
##네이션
덕후
##들었고
리포
##했었던
##ATE
종족이
하나하나가
##인자
구조는
예상하지
기대는
겨우겨우
성실한
앨범의
판매량이
프로듀스
물량이
##얼마나
의도로
간담회에서
중얼거리고
보험료
출품
트와
MLB
굳혔다
바꾸지
참배
일생을
형사가
##~~"
남쪽에
아프지
##미치
극초
떼를
굴욕을
일레븐
돌아오고
안달
오늘부터
공무원연금
맵을
접고
##산역
버둥
먹이는
발견하게
독자적으로
장영
스플래
##트나
가쁜
카자흐
숙명
씰
##이유
##퇴를
##err
웨어
원으로
부르짖었다
유보
##당하지
보내며
선생님을
급락
언급은
Sk
형인
##박질
애교
섹스를
스위치
바비
확인이
입에서는
##메스
김부
따질
##정책에
##팀장은
으윽
##ript
사용하는데
우산
공급이
백성을
흉악한
부족해서
##350
로라
반달
투런
##관계의
##연에게
부모님의
##우타
##ters
일부분
##몸이
싶지도
행사에서
악한
하나뿐인
##마왕
시와
주민이
동안에는
벗어나기
추진한다
쎄
진리를
처리한
매일같이
##CF
##evel
마을버스
##SBS
컴퓨터에
지른
의원총
파악하지
이유만으로
불가능하다는
##곤이
게스트로
옆구리에
대한민국을
##방법을
##제도가
조속히
시간이었다
연체
두껍
심복
안드
공연은
회복할
칸의
우즈베키스탄
##뾦래
갈망
##꼬는
##라운
병실
감쌌다
개칭
글쓴
김홍
양과
환수
알리기
가렸다
지상에서
무엇인가가
수록되었다
묵은
발표하였다
대세
오랑캐
##렉트
##준비를
기회로
소스라
0.7
도달할
패치를
고민에
속눈썹
비축
시험해
육체적
##이까
##조제
간장
카레
마족의
first
체계적으로
##냈을
##느니라
검붉은
버금가는
카를로스
세일
코스타
살갗
정교한
사건에서
날아들었다
##절의
##arth
따라와
촬
황궁
이북
왼쪽에
감면
늦지
다투는
지적한
토했다
인플레이
생계
##부인은
##:200
##일자로
연내
가한
전역에
제도는
문화체육관광부
세키
사람인데
허락하지
##했다며
남자들
쿠데타
중간중간
##좌는
인류를
뿐이라는
아킬
##일만에
##했잖아
여왕이
루마니아
비굴
뒤지지
마음가
역사에서
지긋이
꾸고
달간
해봤
6.25
work
##SH
재원
집단의
용역
신태
오징어
있는것
도구로
오두막
순간이동
##""
관행
현무
대사관
돌아가셨
표시로
삼성전자의
명분
빠져나왔다
살피는
금을
##아침에
걱정스런
치욕
문화와
주민들을
##엔가
발전소
성매매
손님들이
##제약
껍질
용량
위기의
##적이었던
##번타자
##트럭
갈구
총으로
있다고는
생각입니다
전태
국민은
##.--
말해봐
그간의
언급하는
뒤도
출발해
OF
그닥
쾌속
유지해
만원
미달
평점
##관리에
과거로
MO
대중의
"........"
엄지손가락
##.19
찔끔
할수록
##흔은
##::,
윤영
소매를
직통
##어디서
이뤘다
잡으려고
꼴로
넘고
풀을
달성할
일어났던
사러
환상을
생각했기
##スト
##oun
후궁
집회를
피지컬
했을까
지난해보다
대파
##쳤는데
동그란
기뻐하는
대표팀은
##먹지
##종족
이회
##았었다
숙부
천만
내려앉았다
대소
##니스는
항복을
평가하고
5,000
알지도
이로서
외치
존스
장르의
수요일
필수적인
팻
##.0/
##일이면
알아챈
우정을
-_-;;
기어코
##출산
실시된
소액
예측할
유일하다
다하는
##발과
환기
##쳤으나
직원은
그물
##선생이
##프레임
배경에
술병을
단선
지식과
분석도
역관광
##현동
몇년
피치
말하던
운동은
날이었다
왠만한
떨어진다는
양재
승부가
데이몬은
##다한
##ped
만이
맞은편
엄연한
취향에
5.5
사연이
담당했다
이닝을
일화
닦았다
thought
##로부터의
체격
시도가
##보인
반감을
상당수의
##LT
나서도
세종시
##만원이다
상관없어
##ole
돈에
만족스러운
이색
ERA
처음의
타석에서
판매하고
확보하기
도통
##삭제
가냘
있군요
폭발을
백성들의
프로모션
들락
카가
카린
##니트
논쟁이
막아서
입힌다
ᅠ
##섰고
##환경을
##수행
어버
기대감이
##휴가
냉전
바르게
들었다고
추가되어
솥
말문이
##Un
나주
##놓는다
대상이다
##크림
관동
비무
첨부
과학자
지명을
항공사
RO
특성화
사의
new
느릿느
다저스
##쳐도
##ubl
갈았다
매섭게
시킨다
##음으로써
##.17
사망자
아니였다
관례
훈장
공격형
경쟁에서
자신들에게
##전쟁이
알려주고
##FFFFFF
조소
##회의가
놓고는
증권사
내색
놀이를
슬픔이
##世界
##배기
보고만
##비상
운영이
##생태
##스마트
뜻도
맡기는
이야기해
##각성
시대는
업데이트를
희망하는
살다
##몽은
신수
생생한
순차적으로
까닭이
나이지
이뤄진다
얘긴
항암
##:25
##언더파
화상을
정렬
쓰거나
통나무
것이리라
쏘고
따왔다
서울지방
ᄉ
못난
배열
서린
이루기
피아니
##해주세요
##리안의
경비를
전후로
버스트
충동을
두드리는
바라보니
서사
##부에는
가르치고
특징으로
판단하는
거창
세분
이이
개선이
##판인
변함없이
맺혀
정치의
한국당
가문은
##카도
공화국의
세상에는
##간접
신민
##지오
존슨
파급
가루가
멍하게
##되긴
애니메이션의
삼척
그러냐
어레인지
##-22
가열
다행인
##감각
##투는
앉자
##ecial
기척
송파구
거두지
이러다
##ょう
##에스
환장
##인간의
FBI
당대의
대머리
생존을
각지에서
언제나처럼
##BT
뒤쳐
과학의
유지하며
풍경이
말미암아
패배하고
루리
발전이
시동을
1400
##설로
축복을
내몰
유목
쵕늒
영혼은
전차의
빠져들었다
금지된
의상을
성행
##.26
ask
Car
무리의
체력은
남원
내놓는
떠드는
점령한
저지르고
쩔쩔
나중엔
무작위
들어가며
술렁
은연
궁금증을
##동시
증가로
쫓기는
호텔에
극소
누비
이루며
한쪽이
##인이었다
판문점
공격력과
##취업
부르자
알맞은
이상일
초필살
must
##부작
죄의
1951
기다리지
쿨럭
크리에
자기보다
##공포
##쭉한
흑막
오랜만
##딘은
열세
##탄으로
복귀했다
##항은
나쁘다
정령의
##It
돴
올바
배우자
생산이
##신청을
기력
한민
시간만
표정도
노선의
시민들에게
급제
##박하게
기적을
내리며
위원장을
흘리면서
##불로
단조
루미
##올려
과장된
자이언트
뗀
흑색
일주일에
##현에
수납
그렇군요
전엔
아프나이
##(2)
구단의
일베
리오의
##드러
칸은
가서는
거액의
들으니
등록된
지긋지
life
##신당
At
너클
##당국이
지금보다
쬐
심도
스폰서
지지율이
허용했다
브론
용감한
##붙은
자넨
270
느끼기
아니겠는가
##예에
과열
고수들이
##비시
보기가
이들에
짐승의
에필로그
등급을
남자들의
제공했다
고프
편인
##베스트
결과다
##aur
한기
이집트의
##릭의
##선인
호노
가려져
상당하다
점이었다
소련이
백합
".........
대련
로브를
팥
홍대
소환한
토착
교수로
김택
양국의
Harry
아름답다
##여긴
##고양이
모르는지
##CMP
불기
알은
지적에
##いた
황교
##れた
강진
Miss
조동
수출이
이놈의
대목이다
냉큼
가시지
##대변인은
노블
걸쳐서
남성을
end
닫힌
부관
되찾고
힘들지만
마차에
십중
##상황이
아쉬움이
##시즘
귀속
보디
##대형
구걸
##오피스
성남시
제한된
역력했다
점에서는
##해외
용천
##개혁을
작위를
떠올리고
깨물고
울려퍼졌다
##암을
5~6
착각을
맛있
뉴시스
영등포구
##기라는
##층에는
##ried
##제공
##50)
bec
의식은
독일에서
정도까지
아니었는데
##새는
쓰라
##:18
견습
박민
##킨은
경지
방언
표면에
것인가를
##차고지
##차전을
공론
라크
##왔으나
서울시가
제품이다
##싶어
피드
자로
액체가
저희는
하더군
명령으로
방면으로
Sm
발차
탑승한
실물
활동할
경제적인
시작하기
굴뚝
##인가를
##떨어
##인드
미치게
재미있다는
벵
결승에서
소탕
있는지라
옥타
요구되는
그리운
##킵니다
해석된다
ᄂ
연평
소개한다
필요합니다
##!!!!!!"
##캠퍼
흐트러진
일사
조사는
알파벳
##구동
화석
통과할
##산군
##스태
됐지
##니카
직원의
집중할
것으로도
심술
진실로
고통스러워
##시노
약하고
바친
방사선
잊어버린
현실이다
124
가득차
단정한
수지
교복을
당하며
싱싱
눈꺼풀
현존하는
강호에
발리
으으
##타에게
유치한
올해부터
##몽의
##스티스
쏘아붙
##ca
##킨슨
나오니
##ral
키즈
타우
거쳐서
반가워
수도를
회유
##화되면서
돌아보고
작정하고
하는거야
##십이
탄환
되긴
##KO
명사
천주
소설이
높아지는
한국인의
##자에서
노래의
청년을
흑마법
끙끙
##......]
##_0
무례한
사방이
좋겠습니다
TO
빌헬
##제어
##크윽
스완
동료의
인사했다
희롱
##설의
샤프
##문제에
##선수로
청색
서비스는
트레이너
확보하는
##박은
삭감
점유율
죽어나
다이어트
생각했는지
참된
한을
스토리의
살아남기
##con
유우키
##yn
##리치
##숭이
땇쒊
버지
것부터
발견하지
인센티브
후루
##을지도
##arge
깨물며
이전과
##였으므로
유추
함대가
것이기도
서슴없이
속에서는
##여단
관전
도트
시달리는
맨유
트렁
뛰며
기억할
판단은
나쁠
으뜸
자생
행동도
지구에서
유튜
자청
이효
함성
끝이다
로스쿨
얘기하고
지상으로
흉악
적자를
푸른색
##We
##다행
##~199
좋은지
기업들은
꾸미고
El
발기
받거나
바리에이션
끌려가
재확인
2:0
녹색의
내저었다
어우러져
##됨으로써
튀어나오는
##제재
##쾌히
사랑하게
교훈
무찌
분량의
##경기가
불분명
상승을
사랑으로
기약
##모씨는
비열한
수도로
최하위
오른손으로
선인
##절차를
작전은
미래에셋
이야기이다
##결로
생포
질렀
셸
마무리를
##녜요
전갈
##개만
으레
제거할
실바
##그녀의
##받아서
생각하나
흑역사
##기적으로
럭키
오래간
혹독한
##부품
문인
약초
트릴
권했다
п
봤지만
##でも
##위반
##ICE
경제는
변화와
살아난
종목은
소환한다
자운
파병
무어라
않는지
##조사에서
분류된다
분단
서원
조커
흥얼
압니다
올라오고
총선거
##거고
##쇼를
지금이나
##벨을
##콜라
초빙
가슴의
고이
도봉
버디
집단이
풀렸다
##·2
온실
학급
한정된
##욱을
견고
해부
좋으니
노말
서장
못한채
항목의
사이에선
위시한
긴장하고
멤버들과
상승한다
법사
시세
##본의
구마
휩쓸려
사람한테
##기라
##자루를
##ental
접시
생소한
중견수
파악해
지역주민
##여섯
통곡
신화의
창으로
흐릿한
슬라이더
##래봞
##oud
##구니를
사이도
도착하자
흩뿌
심리를
여장
이의를
##복과
바램
부비
오우거
허벅지를
사적인
세대의
손길에
쓸모없는
##푸스
귀로
내려오
최경환
##PD
##전지
##흔이
##FL
충혈
##CK
수호자
와라
정종
알아차린
숯
자백
진천
이국
##업체가
그곳이
목숨은
시작하며
##LED
잠식
##회사인
웃고는
##일뿐
자격증
추첨을
##쿠리
##퍼센
최태
브리핑에서
사항이
표정과
빼앗기고
##웠어
돈만
미지
반의
나왔다는
자부심을
단념
조로
상품의
가능해졌다
##과장은
졸업식
핼
한테
백제의
표시를
##CA
끝은
니까
손색이
중화민국
##택은
손길
지질
보상이
변속
서기명은
##총은
전우
##XSN
시동
짓지
##vel
신당
선택에
토너먼
발표되었다
##나스
탑을
현대에
9000
히타
와이어
##하옵니다
people
##사실을
몰리는
승리가
로이엔
우산을
위험해
빚은
디트로
##존이
##탈출
패왕
휴양
가도록
그룹이
복귀를
않을까요
케이건은
##학교의
애리조나
##조절
직책
끊어진
만나야
마스터가
맞부
이르자
좋아진
저쪽에서
쾌적한
뛰어갔다
##르바
말끝을
분야는
사업자
않아야
사용하였다
##지은
시부
##검찰청
살상
당해서
하수인
있냐고
연무
운명은
디아블로
##랜드를
##pos
##후후후
풍성한
##싶다
명장
암살자
아름다워
##백화
sec
등등의
##PGA
지문
##판도
모레
마르코
아이도
##수련
있겠느냐
##거린
##꿋꿋
무기인
감돌았다
##토지
승마
##ama
결혼은
꺼내지
여건이
찌그러
필요에
메신
납득할
대륙에
야당이
내용이었다
(8
##병원에
##ense
당시는
행사할
금감원
꼭두각
빼앗은
속성의
君
노릇이었다
에피소드를
발족
꽃다
방송사
천장에
##}{
붉어진
익숙해져
##쥐고
경청
워너
두툼
없앨
인물인
선다
치밀한
##ience
정리하는
훌륭하게
뫼
상에서
새끼야
포용
조용하고
처리해야
영미
최단
비행기가
##나우
서리
물기를
북유럽
전개를
차며
##조사에
호세
이전까지는
시논은
호의를
궁수
참관
승리할
연구원
-_-;
고구려의
##느의
##재난
윤종
음악과
치마를
접전
어나더
저주받은
사용하기도
유저들에게
##논의
부엌으로
##아픈
##후와
재일
정승
경상도
팀장은
넘어서는
받는다는
ac
##감시
##위원회와
라니안이
##연료
##착륙
반기
복싱
주성
##함에도
누리고
모르기
파괴하고
##서치
망연
##카로
##을때는
다람쥐
불꽃의
일상적인
언니의
개발하는
이블
지상의
낳는
익히고
##내기도
SUV
온도가
조정의
##20%
대패
시치
대사로
전투로
데스티
싸움의
기형
자유무역
글의
얹고
농식품
동유럽
했죠
이승만
혼수
실종된
제자리에
떄
엄숙
망각
쌀을
##넣었다
돌이켜
제물로
들어서고
들어가면서
##비린
큑뱻
기관단
1100
일반적
낮을
맨손으로
테이블을
##아이스
대상에게
##엔터테인먼
시연
맳뛾룆
요소는
1937
수법으로
주범
지아
##업체의
건축물
묻었다
사이보
항목이
##질도
배에서
무장이
오는데
등장했던
지미
##되어있는
차후
가세요
##.....”
##데의
위배
##클릭
출세
경쾌한
##가가치
관계의
순서를
왔으며
##복무
고졸
내동
간격을
흩어졌다
초계
##ital
가능했던
##장학
급변
홈에서
한국거래
균형이
##저로
적부터
매료
무비
어디서나
퀴즈
토해냈다
##차관
총학생
결정되었다
##영아
증원
##였으면
##KA
##일생
##.22
재료가
아니던가
러셀
4)
보살펴
오타쿠
해커
못했어
넘어가고
스나이퍼
저지르는
##골은
출항
##리오는
##사회적
패배로
마스터의
미안하지만
피살
##셨군요
대군을
막연한
초청해
##체육관에서
##머의
떠받
나에겐
援
섭외
못마땅한
한국어로
부원
푸드
출자
박았다
행정안전
광선
원통
그었다
월드컵에서
##젊은
##최종
##보라는
외모와
당을
대장은
증언을
##그라운드
기록이다
LH
말이지만
확정했다
김석
물어본
왕자를
공격하지
해주세요
##회장의
##하다며
##AAAA
127
전망을
가족들과
휩싸였다
##oto
너만
베인
운기
##공격이
국가주
구경하고
잔인하게
넓어
되요
자유와
철학을
주천
밀리고
되어버린다
##영도
구단은
자르고
upon
불현듯
##코르
##주었고
신체를
밤새도록
곳이라
국가들이
##じゃ
##명이었다
좋아하게
계통의
##미네이터
##↘→
第
치하
형편이
성장했다
끝냈다
모델의
##idd
연주하는
냐
##라자
전신의
꿋꿋
##시하고
손실이
스승의
제작자
유닛으로
좌천
##공사의
결말을
##연설
당당
##메이드
다르다고
끝나자마자
하셨습니다
##장사
성씨
낮아서
##지역은
##so
심플
##さん
완강
리믹스
##도사
추고
코린
##경기장
가늘고
##만큼도
국채
##이니만큼
##웠기
##잠수
기척을
##수송
##비용을
여실히
은근슬쩍
##사례
공소
코레
구분할
함대의
오덕
성모
회의는
알려지면서
썒
##스윙
회동
지위가
맞추었다
##달러를
##전에도
##했을까
은행에
학문을
야마다
참으며
##스트리트
그러고도
춤추는
포르노
관광객이
□
성배
연계해
어머니인
그뿐
번복
당장은
운수사
##화나
조정에
나타나면
등장하면서
마찬가지이다
온건
app
비릿한
어투로
소비에트
##향해
타락한
궁극의
나날이
##자격
##개입
##난한
##킹이
가니
550
##동아
매너
장비는
시간으로
인계
버티지
사랑했던
목요일
##왕조
볼티
되찾아
힘겨운
##해보자
통한다
##구축
미얀마
방향은
##쳤어
##경남
##카즈
레슬
침울
##댄스
##케가
광기
공개됐다
알콜
극복할
상의를
노골적인
그르
손놀
행한
되어버렸
단목
분량이
충돌을
even
엘더
##모바일
##수술을
마술사
##입니다만
일찍부터
왼팔
##유희왕
##었냐
잡으러
일종이다
##세월호
발했다
마이크로소프트
발표가
재산이
여성들은
들켜
센서
자릿
##그들이
막막
알아보기
유나이티
##비율
쭈욱
끌어당겨
물어보고
##결합
##제주
본질을
출발하는
##티넘
선전포
##갈기
배추
공격하면
##독은
낄낄
유현
포니
##ris
백년
##(14
구룡
수위
##했죠
기정
초가
같았던
발매일
가볍고
##사업이
미네소
온몸의
##창조과학
토지를
##특위
울타
##년보다
경찰을
어떻습니까
발하는
아픔이
우리집
정황상
채찍을
격이
배영
##폴리오
밀리지
법칙을
시큰둥
##대었다
살펴볼
열정을
호모
##센이
닦으며
##설레
돌아왔을
빼내
쫑
두눈을
배치를
파르르
네트워크를
공단
선두를
치러진
제외하곤
##시대를
늘어선
##해낸
고동
크크
갓난
상이
오의
천사의
금융위기
도와주고
알고리즘
선관
예매
감안할
독일과
사태로
적들은
##위원장의
전문가들이
소모가
##확실히
개선에
버리자
지겹
##아니다
260
발가락
찾던
눈물은
해외에
##:35
대타로
가상화폐
##다는데
파수
과일을
심심찮게
색상
하부
차례나
크루세이
##지긴
금성
##약으로
Eng
여사는
백신
상원
고의로
대며
동상
알카
뒷걸음질
두부
아이다
밸런스가
##?!”
빈민
밀려오는
기나긴
무분별
준비된
##른은
슬레
번번이
업체는
열차를
당대표
##ALO
고창
모으기
경우에만
부딪히는
##산성
##존은
땀에
부총리
##sk
영세
과장은
되었지
##수염
EV
뿌리치고
문법
##톤을
경위
착취
행위로
##켓을
##들면서
Sec
건너편
##제도의
##ince
약해서
한국인이
시청자들이
플레이스테이션
##후보가
High
자만
싶었으나
힌두
습관이
##아우
메르세
문제인
과외
구가
구태
선글라
심해서
백상
자야
##이상한
애니메이션에서는
##담에
손잡고
육체의
##런을
##신에게
통과하는
국고
생글
존재했다
찾아와서
활용하여
심리학
3,000
다음주
보수적인
##탑의
토종
홍익
금액이
안녕히
앉는다
친구들에게
아가씨를
나며
피리
시나리오를
SW
창간
아끼고
##훈에게
쥘
말했어
어른의
레인보우
머릿속이
##리아에
발음을
체결한
별명으로
필요하다면
괌
##..!!
연약한
천안함
made
물어왔다
관을
기록하면서
1-2
학업
##말야
채집
해야하는
##하네요
시점을
저택에
놀라움을
##olution
##어인
차명
대신해서
새누리당이
부장은
방송통신
옆자리에
##ific
기초를
기대했다
##렸으니
##사건을
##호르
삼가
이러니
##좌석
앤더
운수사명
거면
떠맡
물거
##자락을
국가적
배우기
몇번이나
가능해진다
##얗게
##플을
유화
전자는
##했군
##oph
te
지경이다
슛을
계세요
공간은
담담히
저택의
산과
피닉
폭탄이
밥이
옥천
영상에
##elt
마타
##왔는지
양아치
마이크를
##아앙
향토
먹이고
갈며
빵빵
원했던
허탈한
##벤트
가려면
어떤지
등록을
당했다는
흘러나온
##리나는
타이완
챙기고
흔치
##카운트
알리바
##+0900
##러지
신념을
귀족들은
##웠는지
감사드립니다
누른
##:05
르노
태종
팔자
흑마
가려는
풍선
형사는
유지하면서
간선
특수부대
펄펄
한낮
혁신을
가족들의
##일간의
검기를
수중에
댕
노예가
함재
효과에
기타리스트
장도
최민
##ates
공군의
발판을
생일을
작곡한
갭
싸여
윈도
갑시다
하겠소
##래쏿
경보
##스라는
비판도
당선되었다
김범
가르친
여지껏
시트를
해군이
반신
체이
얻어맞은
동정을
정리가
증가할
히틀러
##운동이
배워야
휘둥그레
##세르
##주는데
아가씨의
두려워하지
##이듯
##희야
담화
장대
투자한
한시간
##토끼
##웠습니다
존재했던
##담배
궁리
찌를
넥센은
##.28
숏
##과세
##섞인
넘도록
할리우드
##도둑
캐슬
스타일로
##엘에게
0.8
오른손에
미스테
침실로
불문하고
일이었지만
##?-
##들린
둔화
보다도
은색
공약을
장점이다
추가적으로
현의
표시가
##수비
넘어가면
##되기는
##드리히
##서니
##네에게
##지금의
있겠나
환영을
구성하고
나위
##imes
배설
세인
직관
섬기는
아바타
떨어지면서
뼛
폐선
박격
넘사벽
윤상
##바람에
변화하는
노출된
캐릭터들
애플의
무관하게
식품의
심하면
바뀌게
정면에서
바크가
쏠쏠
개발자
##....)
총격
전달하고
준비되어
##배구
버려야
약해진
부작용을
##딘의
##ler
##고기를
##기원전
달빛이
치료할
죄책감을
마야
##ider
강조한다
마법사를
축산
필라델피아
##?,
홉
순항
은평
오가며
##무용
벗었다
지원했다
##뿌리
##위원이
##현상이
기쁘다
모드에서
맥없이
허름한
노선이다
10000
아이러니하게도
쫱
옳다고
소양
##머리는
##사회를
레이가
만화의
생물이
에드워
안다는
프로포
##니클
실리콘
임페
그랬지
EN
불화
아타
144
##개월만에
주시했다
경악을
##사회에서
대진
God
베이스로
##씨발
소문난
빠져나온
##스러움을
소비자들이
전례
마도사
때문인데
홍명
눈높
원가
농림축산식품
##은행과
덒래봞
강하다고
데뷔했다
전투력이
연극을
건네주었다
법과
세련
띄우고
포로가
##엔젤
출시했다
전리
주임
##였을까
무관심
여의치
따라오는
##태에
혹여
양손에
선정했다
##상선
허전
모였다
현수는
촉구하는
바람직하다
##대표팀
승강장의
불거진
마스크를
충무
필적
##신성
##naver
띄어
하나와
알아차렸다
##프린
##혁과
산학
석가
##선생은
##UT
어금
날아와
창밖을
멀티플레이
##케는
좌익수
짧다
공작을
이후부터는
##no
국악
맛볼
들키지
양쪽에
죽어가
그중에서도
사극
##화부터
그리도
원장이
광장에서
발생하면
인물들의
황제에게
##시길
"5
버거
착수했다
않았더라면
##지간
애틀랜
##른의
범위는
오르면
땄
시니
##라드
참는
##질하는
신용등급
##분양
거품
##방식이
뜻에서
##글세
캄보디아
##케미
일갈
IBM
이남
공통된
지역인
전성기를
##회사에
가게에
여고생
치더라도
하강
##세웠다
##천하
##ves
내놔
수년
줍니다
궁정
##게시판
기억의
삼지
개성을
플레임
프로토타입
##대면
##렉스
싸인
##몸을
배나
저택을
잊혀진
누락
가지며
기질이
높으며
인사말을
미디
일원이
##대학의
해프닝
컴퓨터의
부라
##으로선
영국이
노이
쌍둥
##립스
예감
##...(
늘어나면서
##그녀가
바이어
지우고
요청하는
##교섭
##주겠다고
턿
##신라
##좌가
##전쟁을
현혹
##히히
부셔
##그대는
밀리언
운영되고
김남
미완
##우면서도
환자에게
배럴
사출
##》()
십중팔
처한다
흐느끼
블라디미르
히가시
2.3
아기의
제이슨
민법
##손님
116
부터는
##해야하는
분개
마스코트
##해졌
후안
결론적으로
##que
브로드
제자를
밧줄을
화요일
끼어들었다
##이여
##탈의
강해진
오해가
옥수수
머금었다
##공군
총알이
건널
당하면
형편없는
쉴드
한줄기
증강
국세청
대등한
밀레
사미
생산할
call
이마저도
##되었는지
##사업으로
어찌하여
페이지를
얕은
멈추는
장악한
찾아간
책임질
그때서야
당황하고
트위터를
뜻인지
텔레포
가르며
##봐서
행정부
##,7
딸린
방해를
혼잣말
##취급
세츠
##리기만
##oney
##매고
서툴
츠카
##ling
달았다
##칸이
망정
분도
소행
임팩트
##반사
뽑힌
읽지
##대책을
결투를
아시는
through
##소시엄
섞어서
따뜻하고
ph
##구미
##부인이
면세점
##타게
황제로
가슴속에
하였습니다
틈틈
레이서
면담을
없었지
##룡뤃
너나
덕을
안장
##랍시고
금융기관
##손의
펑크
것인지를
당사자인
연구하고
##나물
##목표
갚을
인어
맨시티
갉
엄격하게
학생들과
공언
여사가
섞은
본다는
수모를
사외
자포
흐릿
##ology
목적에
인천시
허리띠
관대
실실
무정
##토로
CR
대격
기르고
수위를
##졸업
분과
이계
조광
##기사단
각광
##종이다
다니지
데려와
살해당
##종류
프로레슬링
떡밥을
##헌법
고찰
##났어
구장
원료
아빠의
초기화
땇톩
버젼
UFO
도일
##사랑해
##지방선거
국제적인
아저씨의
요셉
##기술이
돌파했다
샅샅이
잘하면
금품
교도소
발코
말인가요
삐걱
##세력이
벗어나고
사람들이다
Season
##폭격
head
##제철
인영이
데이트를
슬레이어
114
단체가
띄우며
사실대로
재선
Par
몰랐지만
much
자칫하면
흘끗
##숙을
DE
모용운
고여
제인
165
목재
극대
고정된
빙결
대우조선
##.24
믹스
북적
시몬
##레스테
아돌프
달아오른
##더스트
낫다는
투자할
##예프
기초로
다치게
망가진
힘주어
쏟아지고
프랑스에서
놓여진
페가수
##분위
##상환
##쳐야
권력이
구축하고
아르카
대응하기
띄운
류미
요미우리
전화번호
들여다보고
입금
젓가락
##tra
도왔다
진출이
나지막한
분석된다
##분에서
3.3
오전에
##HP
↑
##스쿨
리그의
살핀
무방비
붉혔다
말살
밑을
신고가
만큼이나
거역
쏜살
##회사로
솜씨가
알았을
##단계에서
바우
##위생
공항에서
그전에
##복에
못내
싸워서
무사들이
화장실에서
##찍한
외식
##캐스트
작용하는
가뿐
Sun
영지를
영상으로
##ティ
##각형
##북부
##루나
맞닥
버나
남녀의
##스틸
테리
필기
쉬울
2:1
미미한
고베
덱에
예보
##부분은
##회의는
분리된
상기된
나온다고
스파이크
이벤트에서
##잔에
##.29
데미지도
##더블
평가할
합산
##:3
##케의
##으시오
이례적으로
겪을
##ican
해결이
그런건
드라큘
붙잡혔다
주장하였다
##코에
##dis
진술했다
묘지로
전적이
지켜보며
깠
,,
앨리
장벽
간곡
듀오
선점
졸개
송치
요우
중요하다는
떳떳
호송
메달을
않았습니까
대함
##렸어요
##행위가
사명을
공직선거
배속
구성돼
거닐
체면
최면
게야
(18
보자고
결정하고
의문이다
앨범은
예외적으로
三
뭘까
##스러워서
당연했다
##시렁
나갔고
인하는
take
##ett
못이
##익스피
내놓지
##...!!
##저널
주던
높아져
착용한
##아무것도
경량
몸매를
끌어올렸다
과천
말에도
##구분
아날
카테
전기가
현재까지도
이차
메마른
변경된
##대답
단순하게
혼란스러워
##그러지
보호막
자기들이
포유
##ular
느긋한
돌진해
불러야
청문회
환자들이
형평
사형을
색깔을
이곳에는
탈락했다
김규
##공정
펜타
끼쳤다
말하곤
키미
연결이
위협에
turn
날아다니는
요염
한라
해발
여야는
##응답
##콤보
부채를
정적이
독보적인
일렉트로
막걸
볼일
게임인
세운다
동이
상큼
잘한
부족의
주시기
어렸다
여동생이
연합군의
ᄒ
눈시
길어서
히드라
##직의
끌어올려
개도
부응
궁합이
손아귀에
시너지를
커리
과감히
튀었다
분자
나가겠다
김미
디버프
물러설
##폭발
##소비자
시급한
힘드
##오른다
통합을
친구들의
기본적으로는
##면세
다진
주중
타도
아크는
지난해부터
앳
디자인의
HS
진출할
##ます
영웅을
지니는
##일부터는
##풍과
##박하고
받는데
앨범에
일이란
알릴
혈통
Red
대안을
당신들은
들려오고
##혔을
오찬
당했던
부분만
##페어
시안
자율주행
참여하였다
머니
문서는
서산
임차
##웠는데
트로이
렌은
걸어야
알프레
진실은
후부터
사우디아라비아
##rol
서치
화룡
지저분한
남측
네팔
##관들은
##버스의
종착
브랜드로
김우
정계
서울고
어중간
이벤트도
##('
##주주
per
읽으면
##리오스
틀리지
어이없다는
잰
##도니아
문서의
삭제되었다
웨일
특훈
##드디어
끊는
쏘면
현재로서는
##넣고
물씬
누구든지
##땀을
포텐
##다니면서
사병
왕세
쿼터
실피
왜냐면
침대를
모르겠는데
올려놓았다
##달에
백작이
마음에서
내한
##raft
총력을
가파른
범위에
창문으로
버리기
효력이
뽑아서
타일러
만든다는
##수화
걸즈
2.4
##고마워요
격차를
어시스트
없어야
..........
굵직한
평했다
##엇다
Ser
찧
중일
결핍
맞이하는
##안내
##트레
##부분의
놀란다
시도해
건강하게
깨달을
##Ph
승승
성장과
업체의
아십니까
경인
라틴어
시도는
강요하는
##러로
성화
실시해
##음료
에델
촘
어머니도
폴란
##우스와
끈질긴
휘두르
제공하기
선수에게
##떴다
팝픈
기계가
시에서
슈틸
코마
##lex
알린
기여를
수비력
비교해서
망상
떼었다
기타를
자연과
보편적인
불이익을
염소
전만
##국가의
##코미
보곤
초롱
##기업에
않고서는
캐릭터들은
##록에
기뻐하며
발견하고는
안락
외워
천무
빈도가
누구에게나
끊을
대령이
익힐
뭐랄까
##시트
악취
애꿎
자질
친구도
대륙에서
따라가는
발언으로
폭발하는
우리들에게
반포
백방
모여있는
랠
씌워
비방
살아남아
##니라
##갔으나
##르트문
##마르크
연관된
들었어요
준비는
도시락을
부적절한
치명상을
맹렬히
곰곰이
왕가의
접하고
구성됐다
##되기에
깜깜
어떻든
퍼지고
표현으로
분식
회자
두드리며
포기했다
##gy
글에
같지도
기자는
좀비가
형에게
공세
미만의
##쒨덦
국민과
증세를
승선
열성
##아들이
줄어들어
지어보였다
괴물의
불리던
않다가
##압을
웅얼
좁고
사이다
알려준
요구된다
##ari
애시
있었음에도
##맹이
등지고
현장의
##블레이드
오래도록
관점
오르내
지도부
##ート
순종
##사회에
##압이
문예
##로스의
##진에서
##즐리
걸작
##센터와
##시각
달구
박석
금리가
예산안
몬테
양질의
텐데요
난동을
전통적
혁명을
##었으므로
집중했다
좌완
여러가지로
문건
##밑에
돌기
오하
##굴을
틭
##만족
수정이
##감소
##협동
유괴
해경
##년대에는
이부
초토화
Heart
##과목
계획의
어린이들이
터무니없는
##턴을
용케
##나이다
그리핀
손잡이
노래로
##더기
##pan
머쓱
##라인은
##보고서
뿌렸다
승천
구단이
쓰려고
##ery
워크숍
미궁
차장
단어로
정책과
너희들의
대통령도
중엔
혐의도
##불교
파면
매끄러운
중용
##드립을
1.1
증가합니다
##택시
배부
##여기는
기술도
##진구
봐주
외국에서
Su
쯧쯧
##웠다는
##시켰다는
가로막는
타이틀곡
##나눔
##전혀
둥둥
압력이
밥도
홀린
##카드의
흉내를
커트
118
유일의
어긋나는
달린다
이동한다
##츠에
##해로
##학과를
게임과
휩싸인
##으로부터의
##갑옷
다나
이용이
죽었어
여주인공
##=200
시합을
나아가는
배차간격
##릭이
##바에
안긴
등에는
극악
쨍
영도
천으로
정통으로
»
불복
간격
##실제로
같았고
토하는
부산의
손톱을
의례
유리를
중국으로
차량으로
미화
편안히
놈아
요새를
still
##인수
소서
##anna
렐
##출이
머스
티격
다수가
##che
숨쉬
앤디
##라던가
외모는
성공하고
李
나그
단체의
성장해
##증명
미유
##알았다
다목적
금융투자
언급하지
크로아티아
금기
발은
##?....
요구하며
##동기
나타낼
오만한
배기
개최를
점검을
##――
강도를
모서
145
쓴다고
여겨졌다
##랜서
##붙어
봄에
TOP
맵의
헝가
시작과
영상의
후지와
되어가고
##Gr
##승호
투영
방문할
보내서
잠자는
##당연하지
빌라
##편이다
토론토
확대하는
인터넷에서
##쿠는
허덕
##네스의
무난히
잔소리
마법사들이
##젤은
임명된
야영
##리그의
담장을
선거가
정부도
고맙다고
옛날에는
모습만
문서에
얻어맞고
가정용
물러날
피고인
학생과
Good
광경에
실망한
하잖아
##학적으로
뿐이지만
제쳐
##원으로부터
##극은
셀프
여력이
일하던
활주로
밀어내고
##공신
##밤의
이신
화소
집어삼
away
말씀하셨
##매니
##모프
오행
통지
##aven
##VS
ᄆ
##댁이
못하니
##룡과
##니스의
건지도
##랑이를
GTA
민심을
여기선
개최되는
조합으로
발도
##스타가
제각각
지키며
feel
그랬더니
반한
강화에
소유의
사실상의
댔
##れる
재판이
저들을
##anger
##무적
##사이즈
외친다
지녔다
논쟁을
바랬다
받아도
##센터의
투쟁을
##션에
##-1)
할만한
떨어지며
after
파문
교육감
(6
덤블
해답
휘젓
크로노
설레설레
##봤을
호구
감상할
레이는
마디를
심장은
안보리
고려대학교
##슈트
##키타
둔갑
##리우스는
왕실의
##나루
열면
통할
##챔피언
얼떨떨
##글한
원문
운동장
올라탔다
쉬게
이서
효력을
##ots
된장
이덕
추워
길거리
에반게
들어오면서
If
강철의
고유한
불평을
얼굴엔
상점에서
하나금융
돌아오자
##일곱
##루이스
Can
떠올린
미치고
실력에
제자로
소음이
넘으면
##~11
타인
말로만
폭넓은
매달렸다
출전했다
##신탁
##압의
후타
남자도
말씀하신
표현하고
니첸
이우
##웅을
쉐도우
주름이
얘기했다
인지도를
미래창조과학
있겠어요
##윈은
타깃
시궁창
아카이
초기부터
후다닥
돌아오게
옷의
가을에
집안은
기뻐했다
부회장이
비교해도
오라버니
유니버스
다짐을
나스
##공격력
650
감도는
것같이
버스는
##아버지는
있습니다만
총알을
##하도
등기
장현
제국군
##으로서도
이과
지부
불길을
죽임을
불가피한
퐁
비견
지끈
볼일이
사제가
쿠르
담보로
순간에도
주한미군
##상업
애송이
여러분은
며느리
빠지면
구속된
비겁한
요금을
동전을
모양이지
꾸지
외우
취지
낮추는
짭
늦춰
키쿠
알아내
##매장
등급이
잠시나마
ME
파장이
공격속도
##거리지
##신다면
##학년이
미친다
이기적인
뒃
젊었을
이전보다
나라와
벤치에
쿵쿵
설치를
청와대의
경제성
의지와
짜증나는
시작하자마자
##오다
교육과정
울음소리가
##FM
##오후
물량을
삼키고
생계를
##통신이
항목은
클리어하면
##그대
감미
남고
천체
0.6
패밀
군사들이
몸집이
김관
유토
검토해
##리우스가
##대회가
저소득층
몬스터들이
신음이
가능한데
##튼이
닫아
장작
##리려는
묘사한
배우지
장수가
주도로
##정신을
광저우
정황이
컸던
괴성을
에워싸
웃음으로
광주광역시
에라
쾌감을
##-23
공민
하비
##업체에
부모님을
##SE
언니를
테이프
##수당
도진
욕망이
통학
낮추고
사과했다
운영된다
다같이
장애를
끄덕이는
치솟았다
사상이
치바
괴물을
##ump
곰팡
쌍의
어떠냐
##권까지
##오르기
##content
(25
구사하는
당황하며
##잔이
검사의
주목받고
등장하였다
의혹과
봉사활동을
호가
면밀히
원한다
그래봤자
생겼는데
뎩
납득이
브릿
##천왕
사표를
싶었어
##ility
게시판에
완전하게
금은
##겠다면
##인간이
교향곡
땀으로
살펴본
이견이
##.』
##:55
가져간
점수는
프로젝트의
Sl
얀의
##글라스
##따위는
구조의
뿌리며
헉헉
않은채
1935
##TM
비뚤
순례
##네스는
##건대
공범
탐탁
날부터
도라에
미션에서
집착하는
##밤을
장제
추월
##치에게
개발과
때문일까
의심하고
##혈관
김보
대내
113
그만해
바꿔야
인스턴
입으면
20~30
188
막으려
보스는
합의에
명중률이
##종목
눈치챘
활약하고
짓누
##데라
##주어야
##천만원
알렉산드로
하렘
##ocal
드러날
##-,
옷과
공감을
상징인
기소됐다
나옵니다
##....?"
##넣은
어렵기
도르트문
min
건드려
밀었다
돗
##마차
겨울을
상품으로
범벅이
변신을
극적으로
##강남
##시키게
바빴다
##Pr
떠있는
없다가
입술로
지원한
반짝반짝
생각해보니
##동성
##련만
쫒아
지나치
조선중앙
컨셉으로
팔레스타인
##ita
4%
사고에
젊은이들이
##BL
수위가
피부는
그어
대기시간
갖추지
결의를
따라야
##값에
티저
자리한
조계
찌른
str
연구의
패했다
##/7
넉백
총동원
##영이는
콜로라도
단계적으로
중요하지만
지난해에는
장은
##상황에
후자의
평가된다
Mi
켰다
미약한
##직접
심재
다리의
아느냐
등장인물분류
부잣
한여름
반발하고
결전
##억원에서
엘리베이터를
##덕후
허약
발전과
존재인
참석할
쿠루
도발에
중앙일보
##피해를
후로는
마련하는
연말까지
인물들을
좋겠어요
푸틴
적용하는
허수아
King
어둑
할애
##세계를
0.9
마에다
절반은
##mon
답은
문단
운영해
예정대로
##내용을
세르게
##zy
풍자
관객을
범죄자
평가받고
##윤을
끊긴
망쳐
사타
리플렉
북쪽의
송은
전율
날짜를
상대도
않았는가
오락가락
황소
##뿐더러
집까지
했지요
##여개의
##지만은
##AY
##브르
##지부
##체도
우와
약속은
취해서
그림자는
##진다면
맵이
빈약
##링과
넘기지
##ALOID
비판의
##쭈물
##출처
골절
양식을
택했다
허용하지
의정
##장구를
##머는
표적
##하여서
##kt
##래야
##해주지
시멘트
SL
##소하게
종이에
(2015
Fr
도난
쪽지를
##총독
퓨전
싸우던
잔소리를
##봞밻
##는가를
75%
제레인
집에는
##비히
##트린
오더
그만둬
내야수
##노벨
부자연
이러지
만나기로
##들려
시절이
예상이
하나님
정보와
3.1
OECD
일본군의
지면에
need
조선일보
대응이
따름이었다
##하겠는가
##되다
받도록
군인들이
아니었기
포식
세컨드
감옥에서
기해
깃들어
뜻하지
바하
스기
미래는
피아노를
##국이다
조직은
아버지로
생각되었다
딸에게
무서울
뚜벅
들고는
##ways
소금을
지역별
사람보다
유비트
마주치자
애쉬
##사진을
느낌도
##2010)
##드린
잘게
낙인
리퍼
임산
용산구
무뚝뚝한
속초
교류가
연기에
급급
마티
캐릭터다
다이빙
생존자
승리는
엘리엇
##미사일을
pass
##OCALOID
##업계의
##ship
시작했던
##ga
글씨를
퍼부어
분위기였다
박희
부탁한
출발을
3164
중국에서는
다신
음유
##션으로
##////
부정한
지원과
거칠고
조선을
할텐데
형성되어
기요
##링으로
경험은
보직
성장에
시즌의
##수만
손뼉
패자
##+110
보려
여보
늘면서
대처할
가까울
##그녀
##탑이
일요
감촉이
##아버리는
가슴에서
문의하면
반복하는
동봉
아줌마가
차례차례
허용하는
강판
땇밻
국정농
합리적
뿜어내는
장기적인
##부여
성냥
위인
##이걸
카렌
지대한
사역
##붕괴
나카무라
대상에서
발휘한다
악물었다
##공인
라이너
##いる
가누
금색
두자
지인
콜드
질타
언론이
요건을
귤
스타일은
하기야
같네
##물처럼
##쳤으며
발음은
안겼다
우익수
운행한다
이벤트에
##ena
철렁
개성이
절망의
증정한다
gl
커넥
안할
마르티
매출은
내뱉으며
마르크스
공포와
놀라울
앉혀
##시에게
냉혹한
날아가고
사건이다
부하를
탁자를
무시무시
한동
마련을
신전의
##반과
##지향
컵을
포즈
갖추어
무한도전
규모다
다국적
소령은
환상의
흔쾌히
캇
구원을
어울린다
외친
돌리기
스위트
Rock
인정한다
Air
가게에서
프랑스와
##차이
나루토
##들로서는
쓰러뜨린
##도쿄
##데스의
사회적인
흘러나오고
아실
스켈레
커피숍
소드마스터
##클랜드
막혀서
은행이
익히는
LIVE
모란
배회
명실상
변호인
부산시
전선을
위기에서
집어넣고
경비대
아스타
컨셉을
호우
놀라워
관련되어
##카제
##프에게
맡겼다
품으로
기대했던
자랑하며
팬클럽
생각해보자
삼백
회생
사스케
러시아와
일정으로
빠를
당뇨병
가라앉았다
당진
환각
동원하여
##쿠와
나다
힘써
개정을
숟가락
쳐다보자
조가
할게
##하키
보란
밸런스를
시리즈로
하느님의
##한텐
리어
받지만
삼진을
착각하고
##mail
sub
나들이
당했을
이것에
통신을
##틱스
##bert
라인이
차원을
정상으로
버틴
##시간으로
##몸에
시집을
아이라
후술할
##영역
든가
적폐
하고도
##나로
##존을
곤륜
허니
이드의
치열하게
사람이라도
이낙
검토할
복부를
세세한
캐리어
큰일이
새어나왔다
##초기
##ief
그렉
##업계에
숨어있는
레벨업
서유럽
신음소리가
치우고
회복하는
뒷골
##리지도
빌미로
풀어야
부분적으로
리카
태상
상술한
##노동조합
뛰어넘어
후반에는
##UR
##돌은
DD
묵고
##서라도
이안은
부질
까였다
무능한
타자로
활력을
##だけ
급감
동명
구성은
Dark
##체력
직역
##족들이
있어야만
##스프
감독도
부모님은
스토리에
반칙
장갑차
살의
기록할
상품은
울린다
##품질
고만
리코
부족을
포함하면
갈랐다
조성을
앞에서도
마천
산란
아틀란
아시안컵
##안에는
눈에서는
소리치는
피렌
언어가
이지스
꼼짝없이
부서지는
소박한
현관문을
뗐
##-!!
보아라
대선에서
말해주고
질문에는
##베스
집과
우위에
항의를
재판에서
비전을
살리고
솔루션
매장에서
}
빓
##통계
떠오르
##사과
세슈
개최한
아폴로
관계자가
뽑혀
자못
코이
내리면
인간형
자녀가
국민일보
CBS
부사장은
유전자를
0%
##기관은
Rec
문서가
자료는
배타
조급
인정받았다
헌정
로이가
쵡
안팎의
##시키기도
인사하고
##황후
광고가
주셔서
퀄리티가
##육을
그룹을
영역에서
넵
##석유
공대
수두
양양
침이
주민들에게
샷건
작살
정관
엔딩이
아이들도
MD
el
국외
운명에
##모임
##여덟
서독
##간지
##빠른
첫째는
거뒀
끼쳐
수질
자갈
것이었는데
걸지
치르게
깨지
자른
UFC
아니죠
##맞춰
튜닝
트랜스포머
외교관
아벨
안식
부르면서
평가받는
##도망
##にな
소각
임요
들었기
##젠은
이혜
있었죠
##종료
농산
비할
정할
찰싹
##뜨리는
앞뒤로
되겠습니까
##메의
로키
오사
기억도
##TN
먹인
상기한
엉망진
처지를
의원에게
팔린
최근엔
취지의
##더라구요
해밀
##주의로
##자자
참다
##받았던
심기를
의식하지
“....
##메트로
천부
##석에게
경쟁력이
##률도
##표기
전체로
생각조차
슈틸리케
Korea
계급이
보내면
조용했다
블랙리스트
##eek
카페에서
기온
륜은
##들었던
분쟁이
사나이의
##밖의
살아날
종교를
경솔
새빨간
성우인
핑계를
비잔
이혼을
##스톱
##름의
이레
이무
혐의에
##금강
##물질을
계급은
느리고
무한의
조선인
무지하게
##냐의
##appy
버프가
증거는
인터뷰에
##출력
감정도
##교차로
##심사를
##트륨
기슭
철폐
하고서
있을지는
##세에게
좋으며
취임한
기여했다
딜이
차도
다가와서
할것
##체에서
막으며
##ander
간사
##물이나
달려나갔다
##30)
받침
웨폰
신경도
가까이서
무의미한
오스카
제한하는
##분쟁
##card
바라며
주먹에
시야에서
제자들이
##갔으며
과장이
몰렸다
사장과
후반의
연거
겁먹은
딜레이
부위가
갔는지
죄송해요
##자랑
휴지
공급을
포를
##설정
고액
징병
비효율
지수가
정부서울
든지
웅장한
프리드리히
##몽이
##사노
막는다
추천을
##alf
공격시
남아공
1934
공격력의
움직이게
이미지와
차우
토라
평소에도
재주가
등장하기
예지
##조금만
개더링
생각대로
농축
자식들
봐줄
신자
##ords
##aking
불어오는
아날로그
##팬들은
활약은
##IF
문무
##_2
조문
##적이기
오류를
시간대에
테이프를
해결하고
같았
견제를
쿨다운
##고개
미아
뾰족
주선
맞부딪
불교의
자기와
구간에서
제작하는
##lear
파고들어
되다니
카드에
##고문
가락
기웃
놀림
굶주린
올려서
할말을
갈매
어휘
선생을
인류는
넓다
명랑
엉터리
닷새
협업
##있으니
바크는
1933
##ummer
고래고래
나가버렸다
기회도
다분히
승산이
스캐
심의를
올리면서
갉아
흘릴
날아간다
규제가
드리블
메뉴를
블로그에
##자회담
방안의
활약하는
##자스
방불
전사의
찍으면
확산되고
세입
임금의
나왔으며
마운드를
이동하고
호주머니
놈이야
넣기
분명해
##현장에서
졸업했다
후계자로
말뚝
발상
단거리
일이냐
제주시
타이밍이
독살
모두발
보여야
클라이언
궁녀
기관을
태연히
연막
##교시
사용에
대전에서
싸움으로
##학대
연화
위반한
주주총
활기를
대규모의
##동포
공제
몰수
거실에
레바논
확실하지
생산한
지식의
##JPG
##보고는
영국에
나타나게
물려받은
##일때
여긴다
있는듯
##본부장은
##아메리카
터지면서
##편집
강박
오성
수익이
책상을
하느님
빼는
##잖니
##?!!!
살아나
##기상
##셀의
##져스
도장을
박살내
'1
북한에서
##스톰
강은
마부
흑자
임무가
아름다움
##주나
유시
출입을
평평
물결이
지중해
알뜰
선량한
세우며
능조
##쯤으로
##주니
만으로
클로즈
##었음에도
묘지
응수
PSP
장군을
전반을
진로를
돌입했다
충공
독일군
절실히
쥐어짜
일어나게
##랑카
계획도
트로피
Light
김전
번호는
생중계
쓰러진다
평면
##물질이
우물쭈물
##립이
##파도
얄짤
민감하게
위선
시중을
참혹한
기집
북한군
브랜드의
일어서며
종용
##부리그
웃음은
##노에
##병사
##좌에
DB
##주고는
로봇을
사신을
주당
공부하고
병영
전하께서
촉발
급상승
나서자
쟁쟁
한쪽은
##감에서
##arch
185
쾌락
강자
상에
##대상이
국적을
모드의
),
환호성을
##공부
##학에서
숨소리
##베를
##연령
그윽
쓸수
폭을
두고두고
특권
나이트메
사라져버렸다
백룡
바꾼다
엘프가
Cont
##TP
HE
##월에도
태우는
##...^^
미안하다고
입었던
우타
후들
가리킨
템플
##변호사
빈약한
##만원까지
발견한다
좋겠는데
급습
스케치
메커니즘
이밖에도
##ECT
악몽을
잡고는
주시는
##루에게
예방을
임무에
하나요
일행들이
##지므로
혁명의
협상에
열리면서
비현실
스냅
아치
##outh
야마구치
종식
솟은
주작
콜린
노조는
내리게
혼자가
중령
주군
퀄컴
이나바
··
오즈
누리꾼
##약속
미는
흘끔
창원시
뛰어내려
관계자들은
스님이
사용자는
##ング
##칸은
식인
##담보대출
전장을
##.27
시행령
알았으면
##eter
사망하는
속일
아에
뭐예요
사이비
##대해
기사로
말렸다
왔으니
함께한
애프터
체험할
스타워즈
뚫을
날카로
걸려있는
식사가
차지하며
##나시
유튜브에
서동
난다는
두어야
이마가
데일리
##-!"
견해가
활활
마교의
발견되는
지향하는
계속할
보정을
##칼의
##택의
##une
너덜
벌렁
미스트
유래한
가운데는
##~,
코레일
터인데
해보지
##제네
##ird
교보
그뒤
부실한
전주시
필요하고
해상에서
대덕
##부대표
만장일
표시했다
유류
움직이면
유발하는
갔다고
화살은
기다린다
##섬유
됐던
아득한
엘프는
있었음을
##갔어
주공
니콜라
정씨는
최근까지
오토바이를
중진
거래소
무고한
부러져
상성이
##싱글
##태양
프로그램에서
##민정
쥬얼
필승
##시켰던
아드리
숨소리가
신비로운
##울은
유원
씁쓸하게
영호충은
답지
말발
##디지털
행운을
고려하여
가운데서도
부린
##변으로
실패할
되돌아가
예로부터
필요한데
##점프
영화관
성장하고
짜릿한
##메리
##경기도
##떨어져
신한금융
##~16
개원
부스트
조정이
발걸음이
더불어민주
캉
열에
애꿎은
##지정
전단
바빠서
##해하고
리드를
##염은
태우
불완전
주연으로
대천
하되
했단
위험할
떨어졌고
##AG
카인
종업원
주거나
호텔로
제리
##뜻을
##티지
쓰자
##데미지
##루수로
요컨대
아스트랄
##부정
서러
수수료를
존엄
##상태에서
##min
글에서
세례
유벤
##것이었다
##서부
##소속
12,
격렬
누런
원상
where
##복음
##총의
대용
없앤
##이대로
##노기
루프
오미
현민
##들이지
개업한
도쿄도
부문에
항성
예상한
즈음에
##비아가
##위원장과
Rev
다가갈
던지기
##다카
##활동이
고통으로
두근두근
타인에게
Fire
흘러들어
변수
앵커
오름
이보
나성
방통
자유가
##군수
대교
벗기
페루
##전쟁의
과자를
공개하지
녀석이다
스킬이다
뒀다
##베르토
성벽을
##사관학교
##티코
##로스는
인간도
의심하는
##고쿠
회귀
##이었죠
영화제
흐뭇한
로제
복권
서둘
##더라구
보아서
아세요
백성들은
고층
조개
교회에
거주하고
되었다가
중입니다
##향후
beat
랜스
정반대
존경을
비정상적인
신청했다
수수께끼의
##프트를
물의를
##세계에서
결혼하고
##원자력
사이언
열차는
터이니
세상으로
대비하여
##무시
##베다
앞면
##oice
갈색의
소환된
없는게
##리우스의
##두도
##못할
##콘을
서현
젖혀
호조
John
선고받았다
##미애
##바흐
##거렸고
보호할
조치는
내비쳤다
지저분
공청
사진에
##드문
섀도
기사들
루이지
엔딩에서
현상이다
##마시
##.23
없지는
자산을
깨끗하고
문제라고
###!
##cept
전달한
프랑켄
##슬램
##레에
언짢
폄
##저드
##unt
엮어
행군
맹독
송병
##케이드
늦어도
탤런트
곁눈
폐업
##자리의
신경쓸
이동한
##밭이
파이프
##꼬마
눕혀
시련
##주시면
닿으면
##학번
도라
투석
0.00
태어나는
great
Ry
브레스
##관념
LCD
껴안았다
(+
지키던
ま
##비에게
공격하여
토로했다
##_4
나만의
앞쪽에
시작했지만
##OO
배역
동인지
##Re
천공
말끔히
모델인
분위기도
##사유
##야드
익산
##pm
##해운
시초
신에
오정
기둥을
나이프
유연한
제아무리
이야기한다
진우는
투르크
맺는
히히
2022
##쁘게
##천도
정근
##당신을
시뻘건
들어갔을
카프
대장장이
가벼워
근무를
위쪽
##야한다
과제로
투성이
감시하고
생명과
마구잡이로
가실
병은
야망
받으러
자치구
함정이
##미안해요
##빌라
앞쪽
한남
주변이
##나봐
이놈이
정책으로
카메라가
자일
선수다
##볐다
보금
카바
단둘이
엔진은
출연을
##명중
유비는
쏜살같이
자동차의
파악하기
##보낸
사칭
##교육의
##aint
##에를
마포구
사퇴를
언론을
희한한
##영원
하원
이사는
##동부
롤링
2/3
CGV
되지도
##자치단체
연세대학교
##uploads
형벌
흔들림
궁극기
자멸
형광
나면서
##fd
##조건을
수족
117
규정한
편리하게
##TER
리키
상관은
경련을
당선된
맥도날
나갔다가
##off
하노
##기에게
되는가
소리의
시즌은
시위가
##구속
##오우
##···
굳힌
남겨둔
무심히
스토커
Play
##주곡
잔존
넌지시
할거야
못하다는
피투성이가
멤버는
장신구
이미지에
GG
들어보니
명분을
어딘가로
페미니즘
##페인
고질적인
달아나는
##사건이
굴리는
묶어서
척의
항변
다음해
세리에
얼음이
Wii
예정돼
감독에게
정파
준이
MSI
의장이
##.??
홀드
되려면
무겁고
시기에는
상식적으로
속인
수복
##ux
구운
##봅시다
거품을
밈
청각
옮겨졌다
프로이센
암묵
도자기
모자라서
뼈저
와해
퍼거
패배했다
##/8
天
오열
##죽음
라헬
큭큭
서있
합세
확진
##적이어서
나무들이
눈부시게
무참
길들여
출연하였다
##,.
##웨이의
이메일
모델이다
엔터테인먼
시우
교차로
숙소로
연재를
안드로메다
여유로운
화장실로
MK
루머가
숨기는
##태와
##시군요
막아낼
##개사
##/19
울기
바깥에서
뺄
##저에
##접촉
자결
파멸의
훈련은
##위원으로
3500
달려있는
절대적
우미
별자리
부렸다
##말이야
##세까지
신부의
우주로
tvN
장으로
만지고
아오이
##문자
만은
시끌
시험이
부르는데
바람직하지
전작인
기준금리
부릅뜨고
##델이
주파수
뜻이었다
금감원은
권역
문어
백혈
##여부를
126
반대쪽
순위는
열기로
우호적인
##차만
센스
330
##반대
세면
##지않는
확대될
국내에서도
##어드
아란
원곡
##입술을
같네요
찌푸리고
##절에
##핑크
공포로
레아드는
이어지지
타카하시
##기스
생겼고
##기독
##리안이
득표율
전문적으로
불가능하다고
관상
##이면서도
##최순
구매한
차관은
흔적은
귀퉁
종을
##클레이
신임을
엄격히
포진
행세를
따냈다
달려가고
겉보
천신
##리지요
알았다고
혓
##경제를
내기를
##bit
##팀에서
버려서
수월하게
항시
야당은
발동하는
천왕
최준
##간다고
##당하기
##sw
기뻤다
문서로
되더라도
아이템의
보은
##라니까
단말기
아닌게
##해서인지
가로막았다
닉네
보낸이
한해서
##비언
남길
질식
볼넷으로
부은
사비
얘가
이공
얼티밋
연거푸
툭하면
시작되어
농경
생각하다가
낙동강
외삼촌
##헤에
철제
개방의
루드랫
살균
##홈쇼핑
스마일
조회수
School
골수
엘스
##판에는
국장은
부대로
스네이크
궁중
안내했다
않니
지속되는
코파
시각도
업무협약을
##이전
돕는다
자사의
수건으로
힘들다고
부랴
항만
##호크
GN
마검
쿠니
타개
##개월에
인형이
플레이로
##노르
저걸
천수
침대가
혈도를
어설프게
크로스를
人
되리라
不
##수밖에
##일까요
##(...),
내주며
있다면서
번뇌
평원
그레이드
나가면서
##와아
대영
##베이션
레벨에
않기에
##부패
##밥이
가에
##weet
계산이
염려가
스트리밍
경기로
##ino
궤적
세계와
피로가
국가들의
맹목
다이너
관련기사
사람이란
##MG
성서
##프트가
구두를
재빠른
1932
텀
UC
벡터
상행
##지대에
개혁의
노련한
이렇게나
동동
##명까지
##치곤
아수
발전한
##송의
##겼다고
같았는데
죽어버린
Ass
등록금
주체가
##Sc
##동력
일환
갔지만
교육부는
지적하고
##れて
##arn
리아
##직하고
오기를
경우라면
말소리가
성관계를
핵무
위상이
나온다면
##소대
##의사
##ACK
선입
드립이
이즈미
대국
##기준을
##트라는
생각해보
바나
억류
지레
##론에서
##활성화
Dis
##그루
뭉클
반쪽
일지
구축을
흡사한
베는
세피
후작의
bel
날이다
깨달음을
좋겠지만
##겼다는
게임분류
단단하게
사람마다
##효는
그것들이
외상
병원의
확률을
##귀신
교리
고생이
시대적
진영은
디자인과
생활하는
##알라
음산
앞에선
업체에
주문은
프리즘
빀
논평을
##알았어요
##거면
능숙한
보조금
순이었다
안내해
안타로
인상의
환경부
과대
기는
떠들고
았
오레
방문하여
지급한다
##ze
번개가
사라졌고
익숙해진
다자
재주
##세였다
노가다
단적으로
명예훼손
》
##:16
롤러
군사가
문학의
대표팀의
##선진
정희
공항에
예선에서
되죠
길이의
몰랐어
조치로
지하로
민족주의
쳐다보다가
실재
재외
브루스
시청자들에게
##업소
양지
내팽개
없었는지
##디스플레이
##좌왕
감시를
##정기
아린
실패하면
튀김
기둥이
대기업의
식당으로
##추세
이빨이
총장이
부하들에게
때론
송환
가야지
다문화
표현의
단도
틀어박혀
머리카락은
갔다는
리그를
있는걸
사망하였다
##리노
##우먼
##iff
잠옷
##장관이
현상으로
은거
##라지만
의사와
장비의
아리스토
일러스트레이터
##기업을
마계의
일어판
버지니아
아니기에
문명을
브라질의
재미있어
##우웅
산골
대결이
피곤해
스크래
##-)
숙지
난쟁이
제로의
진입을
last
갠
##비틀
카무
##같았다
##더라는
##암으로
실종자
##저러
증세가
주겠다는
"........."
대림
망연자
왕자님
내다보고
반응하는
##랭이
이씨의
##aph
기공
호신
후두
##들과도
조의
공기의
부사장
엄마에게
##TI
##동사
변경을
비율로
총리와
트리거
하시고
함성을
##나오
기왕
도운
편할
외국에
타석에
점령하고
부정적으로
콱
깨질
블리자드
적지만
사색이
고등학교를
인문학
##표와
메딕
로맨스
구강
옷으로
유럽과
케이는
행동의
전문가가
##시카
무엇에
보석이
사정에
##억을
단어의
리츠
죄로
##대사를
도박을
안색은
투자해
##써클
##칼이
+3
씨름
##기사의
구축해
당했다고
##GL
LS
턱에
##니스트
닉네임
Blue
아버지에
##개다
꺼림
코요
노력한
가져가는
루시퍼가
평창동계올림픽
구식
로안
가르고
여부와
최첨단
하청
##학사
식당을
올려놓
썰어
다이노
신청하면
##토리얼
가려진
제너럴
##math
밴드의
순이익
짤막한
한가운데에
명이다
물어보면
##★)
사상의
심판을
앞세운
1700
##화면
Ne
베라
##주겠다
##하거든
이어받은
흘러내리고
눈매
스탈린
##이프
오호
용비
가치도
발렌시아
##보급
##버스로
가입자
빈틈을
기술력을
이내로
주제는
##설비
덜컹
송이
##이나는
멀쩡하게
선두타자
진행되면서
Fem
##ERO
창에
공장이
아내인
타선이
우파
##법에서
조절할
설명하자면
숨도
나와도
있었단
전역을
응하지
저항이
손흥민은
결핵
##2(
##개발을
업계에
간질
갈아치
이낙연
인상에
##unk
반반
실었다
원하던
더미
남쪽의
한적한
획기적인
##손해
독촉
내쉬고
##대금
객관적
라파엘
획득했다
##피크
운을
끌어들여
발표하는
안무
##인용
##항으로
##베의
##조각을
대꾸도
하츠네
발표한다
한국전력
##우주연
낮았다
이노우에
##스탕
방청
가시는
신도시
접시를
헌납
호유
##이었소
##이라는게
##왠지
가버렸다
목덜미에
참수
하동
우승자
순교
잔해
무용지
음악적
##계승
감전
뱀의
##사범
##송은
뭐죠
주원
병기를
이펙트
인상은
추가되는
##여부
맞서는
##헌을
##리온을
사우디
중원의
경기였다
알이
척도
속삭이는
얼음을
꿈속에서
뇌를
노래에
맞아요
맹세를
1931
밀레니엄
##ITA
평의
##학위를
서자
알테
이상에
냉혹
부식
우지
떨어뜨렸다
장난스럽게
##타스
독거
외관
ABC
Gam
##포인트를
스터
도입해
타자를
힘들었던
미끼로
쇠고기
##.21
찾으면
##9\
음침한
전사가
##도스
백천
##일부로
전방에
##메일
##발전을
보거나
현황을
##정보통신
흘러내린
##공직
맛과
안다면
나진
멈췄
##나한테
##리바운드
##언젠
##마케팅
검정색
하는군
황족
색은
키노
가정이
으스러
##Feat
것이였다
제기된다
##호에서
##RC
당분간은
##내던
##ene
AN
계몽
##했지요
어깨와
티격태
1918
##:12
기권
원했다
회원이
With
하드코어
끌어당겼다
##울산
내부는
여념이
독자들이
우려했다
항목에서
##?(
##종도
샤이
##아무도
넘어져
핵심적인
##ved
물린
상부
싱어
Max
가정에
헤어질
대한민국에서는
순양
##성에게
기록도
술이나
일러스트를
대경
탈모
##인승
로페
해의
장갑이
말이라고
당연하게도
아처
우투
점진
섬광이
하겠어
자동차가
포트폴리오
개발도
먹거리
작중에
거절하고
여전하다
light
식용
발휘해
요청할
가다듬고
남아있었다
마니
병의
연기했다
##랗고
이츠
재계
뿐이며
고마움을
바른미래
##려라
##새로
같으니까
터뜨리고
##셨으면
혼잣말을
##여기가
##걸의
내재
로니
한사
경우다
붙잡힌
사채
##물들을
##이에서
공개할
나눈다
없어질
##별이
well
미사일은
##박지
송출
##해가며
스케줄
모르겠군요
##여져
예하
##율도
파벌
고약한
무표정
스피어
그랑프리
있겠지요
소방당국은
##주사
저래
법정에서
미상
##iversity
압록
헛된
떨어졌
은근한
장학금
##견은
임박
지칠
아기는
거기에다
Power
건이
##세력의
주변으로
엥
꾸는
업체들이
수증
선발된
슬픔에
입장에서도
암울한
일화가
제도적
풀어나
플랫폼을
연이은
##~14
##앙의
##~17
미륵
성산
##변속
그쳐
간수
유창
세월의
무리들이
##주먹
수명을
양호한
##ative
(...)]
총각
용납할
今
몇백
##셀이
##제비
서인
만나볼
사천왕
않으리라
그들에게는
##표시
##-35
길지
심층
툴툴
키메라
게이지를
이쯤되면
생각했습니다
페인트
없냐
교직원
세력에
하여야
칫
고꾸라
공사는
이재용
돌아다닌
방지를
번호가
온전한
롯데그룹
과정의
닥치고
궁금했다
기다리게
##als
자하
필로
##초와
개와
골똘
움푹
되찾았다
의병
단장은
바위가
순양함
말했지
##칼로
중랑
잡아먹는
##박쥐
발해
육식
판이
##기능이
베가
교훈을
기막힌
명탐정
##열로
당주
OB
갈림
관용
##진다고
대령은
본부장은
속마음을
에메랄드
쓰러뜨리고
가이아
##흑흑
조민
충공깽
##디나
##포장
근친
##mar
제미
회원들이
##시설에
##시스가
결혼이
다음이
통로가
마음먹었다
##여왕
그런걸
유달리
초식을
+5
가결
놓았던
하행
##몸으로
반열에
inter
타구
##개까지
올라올
이례적인
##,6
##주문
재경
출가
소동이
결집
수첩
소장이
레이저를
연연
기세에
가졌다고
됩
절세
판매한
##불안
오웬
찔려
##였었다
밝히며
##번호는
곳이기도
되었을까
경의를
내부로
선장은
약간씩
##아한
헬레
이자를
##ait
천국
영역이
##산도
파리에서
##MHz
통제를
##=30
문희
송신
수비가
순간적인
##트루
##irc
신해
두사람은
묵인
데이터가
아르티어
번영
우왕좌왕
책봉
인기투표
셋을
날이면
멋있는
쏘아져
팽개
고가의
배치해
불었다
아니겠습니까
딩
##이글
태세를
황금의
앉아있었다
2-3
이쪽의
1929
추가했다
등지
원할
아래쪽
애매하다
##ディ
##컴한
정액
치과
기염을
행사로
뭐해
##!!!)
유리의
것들이다
심정이었다
##특성
##-50
나직히
내게서
삭제된
천정
광채가
고객들이
##분리
뜨끔
승호는
인수한
정원이
테크노
선언하고
선취
저조
조바
나도록
방향에서
두통
장에
##부원
##쓴다
##핑을
명상
##녀석의
구경꾼
콤보가
이질적인
대하
##봤는데
##치사
밟는
탁탁
로그인
습관을
##맞이
##칢뱻봞
가문에
정도인
그렇게나
NT
밟은
점프를
feat
//
마흔
땇윞돘
달려오고
##HA
대조적으로
도르
##샤오
##erc
아이리
##간호
발동이
황홀한
끼는
불능
own
동반한
쓴다면
틈으로
등장해서
비교해보면
이바지
정도야
물고기를
탈피
선배님
이것만
주축으로
모임을
서킷
##투표를
경기장을
##번대
바주
얄미
이거지
하얀색
복잡하고
팔의
경제협력
지도자가
그림의
##강전에서
............
##소닉
##Fat
노력에
##(2015
성리
가져갈
살해하고
멤버들을
##필로
열거
오거
묻혔다
재주를
해보는
떠올리는
떨어뜨려
##ures
종류에
강화하기
원정에서
##료와
##발전소
릿
##합병
격인
약칭
참패
Life
서울시의
##젤의
세세
##데를
##애플
##oup
나일
##들조차
숨기지
엄숙한
확신할
둔탁한
어쌔신
##(2016
##뿔이
##일자리
참가를
##03
걸레
그것만
쓰레기를
격납
기사와
누를
서투
전할
##증후군
문질러
원한이
##약에
성악
사령부
접근이
테일즈
틀었다
만점
##이봐요
아파트에서
개표
장외
한승
헤어스타
DJMAX
##_1.
영을
지형을
sur
소원이
스트레스가
##번호가
담겼다
반말을
제압하고
중소기업의
KGC
오케스트
플래티넘
스몰
배우로
손목에
이산화탄
대비를
모습과는
국정감사에서
##마드
붓고
시비가
지우는
파킨슨
긴장감을
".........."
##르노
##폰이
낭패
##라이드
마련해야
스팅
연소
##한다며
방어에
극복하기
##새의
##는데다
등에도
전까진
##갱이
##eck
원어
코다
불리게
걷어찼다
##쇠가
애칭
어디야
##업무를
##What
디스코
##거렸지만
노래하는
조사하는
무지막지하게
아이슬
준우승을
##깁니다
##돌아가
부정하고
오르면서
##pect
썰렁
Ind
비명과
성격상
이론은
반복해서
##듈럼
##irect
본편에서
Li
측과
##끼리는
누르며
주말에
예전과
뉴욕에서
므
아이리스
게을리
신들이
재구성
사실입니다
혼란스러운
##끝내
레즈
##도까지
Win
빼어난
二
##메는
풀썩
함을
아스날
붙어있다
자바
##지수가
들어요
小
장천
청담
달아올랐다
##실업
다국어
손발이
학원에
##메테
에우
수직으로
둑
##한과
이점을
##어디로
선물이
않았지
타인을
마련되어
멍청하게
새누리당의
예는
유수
##체육관
##찍이
대상인
오마쥬
맞았
진영을
Ang
내게로
연기는
뒤로하고
##Pro
비장
잿빛
서술한
솜씨를
##자국이
뚜렷이
추호도
박철
##기업인
불안이
평온한
주권
풋볼
기록으로
쳐다보더니
박모
##정부와
후후후
정연
무장은
불빛을
사용되지
히스테
마케팅을
##단도
압둘
방불케
체제의
##되더라도
설정되어
급작
##장비를
그때가
##이라니까
##렌스
DR
길가에
맡았고
##헌터
라이선
피안타
청와대에
찔린
Type
##백산
기술인
노래방
우렁찬
들어있다
아시아나항공
##죽어
은둔
접대
##받았고
돌보는
##대병원
##프트는
날씨에
났는지
심했다
태권
211
언제쯤
엄중한
가리키고
GPU
타입이
넥타이를
무의식중에
떤
##소화
가죽을
came
금지하는
내세우는
맞선
패미
남자다
카메라에
##들이야
단속을
봤다고
공무원이
적나라하게
##창고
여름이
##난의
기자의
역임한
가지런히
킕
##소매
##스위
식당에
이적한
헤매고
##종인
가족에게
작용했다
기다렸다가
사람들이었다
##전당
YG
반등
나가며
민중의
마법진을
無
츠루
경순
꼬맹이
새벽의
동맥
유무
##라이프
그와는
문명이
산책을
승승장구
손승
##기사를
겨누고
라면서
재연
현상에
##덩어리가
사람만이
발길이
경계하는
##치나
요지
육체는
##いい
기관에
비난이
친위대
비슷했다
##지식
##건설은
##분기에
새까만
왔기
쫓기
##카메
교사는
나이스
바다는
레이의
현란한
옥상에서
정신으로
최용
시장과
탄도미사일
##なら
##보전
##죽지
꼬여
리그에
마신다
바깥에
순서가
심장의
폐하께서
##년식
절박한
##려구
엉엉
그순간
까이는
##었는데도
탈탈
##싸움이
부친의
장학금을
##:17
내쉰
애비
데뷔를
##yl
챙길
얼빠진
차이점이
##진흥원
출범한
티격태격
##.75
원체
둘째는
수행한다
관자
권영
어찌됐
절묘한
영웅으로
##균을
wr
상황의
##칸을
가슴과
차례대로
◆
왜요
로봇이
몸에는
한정판
세례를
전설을
죽었고
베네치아
─
##될지
올림픽에서
##운행
대군
레기
부수는
취향이
코치로
틀림이
##해버리고
비참하게
##시계를
##년작
타박
분들의
승기를
선두로
이상도
##가면라이더
강희
꾸역
지장
었다
골목을
상쾌
4.0
동료들은
##되다가
갈린다
방법과
연애를
당사자가
용납하지
##셨을
##영화제
생기면서
##여의
##리오의
올렸고
작성된
찾아내는
듀크
뜸을
##여자고
기체는
수도인
응원을
작아서
체결했다고
##않아
##카트
##!!'
금수
찢겨
캐러
역학
떨어뜨린
##****************
대에
신차
물기가
##기존
기대되는
##멍청
딸로
##구니가
Act
여기지
이번의
당하면서
##화력
##ald
복도에
상상이
꼼꼼하게
브레이커
##레마
##취소
브룩
##거래를
굴렀다
꼬마가
알았다면
자랑스러운
도검
보장하는
대감
불발
들였다
줄였다
##년이라는
상징적인
활동하였다
##집권
애석
근처를
슈퍼스타
##)|
냉랭한
피비린
모비
장윤
틀고
##당국의
수술이
중단된
시행하고
질문했다
다름없었다
폭넓
현대캐피탈
탈옥
일깨워
##혁에게
비위를
소문에
백설
뒤쫓아
이런식으로
##치마
문구를
걸렸
전쟁과
레시
화사한
’
시온
컨소시엄
여기저기에
듀엣
혼신의
##iness
나레이션
##델의
영위
##nown
있는거
붳
져서
##게임넷
돌연변이
##ring
저조한
인식하는
##타로가
"10
느낄수
해대는
일부에서는
##~.
싸우면
아내로
전자의
##벼락
##울의
##흔의
괴인
기쁨에
##Pl
수아
냉소를
사이타마
일어서는
증명하는
##사였다
영향도
이치고
장난으로
하락세를
빨랐
살면
캡콤
##레이의
##이름이
내려야
스트로
여주인
정신력
동의했다
박한
식약
촘촘
##비용이
대단해
과시했다
미모
고압
수법
##리카와
디비전
뇌의
공부에
메일을
인사도
##-24
굽어
라트
리나는
그것만으로도
##해수욕
여드
걸어온
끼어들
내려오고
웃은
퇴진
호위를
##폭풍
꺼리는
찬물을
축출
##..^^
NAS
근접한
마녀의
시작해야
##차트
찰리
패치가
##고양
##책의
발신
다해서
오염된
잡히고
젊은이가
##말과
궤멸
사유가
압도하는
##기생
##싱을
핏빛
노트를
뉴욕의
되어있
무기도
왕성한
음흉한
의지에
##남성
풍성
곁들여
당신들
품속에서
폴라
덕분인지
비트코인
사진으로
캐나다의
괴리
깎는
##MANI
안해도
퍼포먼스를
독에
##레얼
##영향
AL
장르를
젝
신칸센
몰랐는데
낮춘
내자
타라
소환을
간단하다
##bum
원정을
음악가
부족했다
남들
켈리
구조적
##NO
##합리
참담한
추진한
탄력을
국회는
거부감을
も
##경에게
##시즌을
##주거나
만남이
매튜
헬스
덩어리가
국공
발전할
어쨌건
구토
왕녀
##노에게
End
정반대로
당황하여
제퍼
만족을
1925
카론
활동하던
##-29
제단
어떡해
요청이
조성된
고생하는
고깃
터뜨린
프랑스가
##거림
##부랴
개조한
피부의
대화하는
콘서트를
타나
특성은
보수를
전파를
피에르
즐겼다
라이센스
보령
드러낼
##드시리즈
국수
바랐
##자체가
거울에
명분이
수만은
절실한
창문이
후려쳤다
##윈의
##집중
dr
음이
영화배우
마커
##uman
항소심
해보면
변호사를
이유였다
신드
침상
카마
구스타
##맞추
걷던
적막
니트로
넘어가지
투명하게
김응
##구한
런닝
주서
우라늄
현금을
유저들을
놓았
한국전
깨어났다
찬반
##보육
베일
실증
##해오는
애타게
전반기
커플링
참가한다
어선
어퍼
끌어모
페이퍼
전체에서
커지면서
##사제
BD
영재
퍼억
흘겨
##누스는
##중에서도
열애
못했었다
소극적인
장면으로
우리나라에
조병
##총으로
않았어도
##0%
##출혈
지속시간이
##사망
진나라
갚아
푸짐
현자
##냈습니다
힘들어서
일러스트가
##엽이
꾸러
운수
방송의
장무기는
모신
양반이
엎드린
##(24
끄덕인
땅바닥
인사에
##구르
##서구
가솔린
인력이
##ingle
하시모토
하디
복장이
##다며
탈주
거리고
다이묘
마족이
영웅은
예수의
##병원으로
##명칭
##섭을
신뢰가
문정
의석
공로를
하에서
각오하고
업그레이드가
개막전
보지만
차이점
##몰래
RE
쇠약
##메이지
이기기
##자매
##oid
동학
섬식
보호해
안되어
중소형
맞은편에
뮐
영입한
필요없
미안하다는
##니지
너네
모욕을
뚱뚱
힘찬
품안에
시범경기
##~50
수분
항쟁
##거림이
사령탑
방영한
총리를
총애를
필드의
##라이터
파괴의
높을수록
엉망으로
##분명히
코앞에
추정하고
"......?"
껐
설화
진유
일단락
##인사이드
관계에서
창조경제
서영
##크에서
말이요
국가들은
시민들을
예정되어
한밤중에
비슷하다고
클리블랜드
##교과서
##해제
리사
##담으로
##리아나
무자비한
전해지고
Music
내셔널리그
갈대
다치지
분들께
소개된
등뒤에
▴
##탱이
생몰
완주
어쩌나
여자라고
정도인데
디트로이트
##oe
##뾦톏
당기는
맡기도
선보여
있었군
달려가서
외국인은
번득
무게는
않나요
일상을
폭풍이
##보려
##엔드
꿇어
지력
##르르르
##문화가
좋아했던
개소
교활
틀렸다
요청으로
이제와서
##120
황혼
##승째를
일순간
##에나
전망도
필터
##청으로
없애기
나무와
한자를
##ember
아니겠소
포화
몰려오는
룰을
왕립
퀘스트가
님을
악어
대비해서
소개시켜
맞아야
추억이
##더로
##밸리
##콘의
##허허허
##기에서는
##자일
##iki
불황
코나
말발굽
밀려나
온다면
seem
초월하는
분화
##개월을
다루기
인정받는
##저지
##데스는
ass
각별히
띄웠다
##레이션을
준플레이
흔들면서
##강전
##성모
노화
분사
앞바다
카자흐스탄
기탁
흐린
(4)
황인
##imgur
왔지
##백으로
진료를
SO
정읍
황제와
컨디션이
의약
##태세를
높았던
수영복
양측의
넘어가자
초래할
해답을
약하다는
국토교통부
소심
##노인의
지역경제
##-'
##어깨
한우
산업혁
악명이
##들이라고
덮인
##월부터는
설득력이
함부르크
신디
웅진
품을
빌었다
파워업
##렛이
안한
적극적
시도하고
十
##경도
##비싼
TH
슬러
탄산
헤카
대개는
타결
맞받아
에티오
##카메라
노력과
섹시한
소개해
##데로
경원
눈망
##부대는
##조용히
대신할
슬프게
피해서
뮬
석연
##성까지
##들입니다
자객
이틀간
칭하는
죽는다는
야한
152
강경한
있답니다
면회
박승
상어
혹사
##개에서
알게된
친분을
암시하는
집중되어
##륜이
##젠의
히딩
복숭아
우리나라가
##시켰다고
움직임도
이제부터는
##for
새의
##렬로
##회피
이홍
미카엘
유저들도
전역에서
Out
정도니
어쩜
재규
최고치를
##횟수
EXP
통보를
또박
일리가
##텍은
설계를
터진다
근사
5.0
밀라노
배우게
아네
일차
##작용을
항일
##방법은
##신고를
##작곡
진우
내리깔
수그러
예쁘고
##TL
##투사
##유출
##한다거나
분한
초류
시작했을
시점은
티베트
##ya
##イン
값은
고비를
파워가
필요없는
휘두르고
##공천
##딩이
##지엄
산지
col
비추고
쉬면서
갈기갈기
밤하늘을
연금술사
쏜다
탈출할
시점으로
구릉
조선이
그것이었다
##시행
##aps
고원
짝퉁
귀엽고
글러
마약을
보스인
재평가
##mb
##살이를
사내에게
##교체
##동방
##년마다
##동생을
흥선
##로구나
조지아
형수
##당해서
##~~[*
이긴다
도망치고
들이고
[...
##오빠가
달라져
##족에
낚아채
배운다
한치의
##플레이어
스타트업
##루시
고해
미운
숨결이
신으로
저한테
묵살
마법과
감소한다
드라마가
항목으로
촫
경비병
이동속도가
##룸에서
LIG
대번에
##주민센터
내동댕이
산업혁명
검문
도매
판교
놓으며
옮기기
car
어제는
하려던
1928
쉘
추앙
##버리며
흐느낌
괘씸
보내게
몰아쉬며
##규와
##니언
##-34
##속도는
골자로
모양은
부름에
달빛을
교통사고로
##채에
##형에게
올리브
햇살을
결선
속사
부장판
키우기
##발적으로
대궐
수목
적성
공동의
빨라서
로또
결혼에
따라잡
착하고
##공원에서
##전망
만신
버젓
불우
손끝
실드를
행동과
내려간다
판은
##방송이
감싸는
시인이
##베는
##And
그림으로
##입이
##페라
러시
상설
시련을
##데모
놓여있는
만들면서
원활하게
석상
참고할
##문화예술
1905
세계관을
##UE
노장
가입할
거치며
이씨가
불가능에
##ke
##마고
꾸몄
동백
내기도
이론이
표기는
차이점은
처절하게
쥬느비에브는
가볼
비껴
나들목
넉넉한
머리만
언어는
호감도
입각
창녀
관통력
이득이
##로디
##스기
고토
불도
##자꾸
##orp
꽂힌
황색
멍청이
부족할
한국형
갖기
회오
##덴은
##드메
##)',
et
부호
떠올릴
##(22
1917
업데이트가
동점을
체면을
아니어도
##쟎아
패해
한니
대사의
엔진의
코스를
표기가
반복했다
진행되어
##전남
울렁
계십니까
##니로
##모험
맘이
금리인
##이었다가
명왕
주었
지정되어
연탄
총명
최약
투고
소재의
익혔
탐방
한림
동양의
여자라는
중남미
광학
부문의
쏠리고
##다구
체계가
평도
뱅가드
효과적이다
키사
미인이
애플이
호칭을
##디스는
##메이커
아빠를
하는거
##전생
##나가기
그와의
개념이다
##당하면
반영하는
##스스
여포
자명
규모에
드루이드
올려다보며
##엘리
닦은
열쇠가
임기를
집단으로
##군들이
가르칠
뛰면서
벽으로
생겼다고
##권력
버스에
도착해서
부랴부랴
자아냈다
디자인으로
##성기
상감
##했구나
던져서
덤벼들
최대한의
이상하다고
##~80
가수가
추가한
##초등학교는
##관찰
##보기로
흉기로
GK
##우리도
노렸다
출전을
##북을
말했는데
어린시절
무늬가
왕비가
##하십니다
##죄의
##공동체
내려가서
##집도
미팅
심할
베풀어
작용하고
##노무
나사
Bar
피눈
##하는건
음식물
그녀에게는
냉기
대어
뛰어나고
생각했어
주방으로
##일비
만치
앞마
방패로
다음에야
제조업체
애니메이션을
높이의
잘한다
추락한
일반적이다
##생명은
외부로
정열
만들거나
수준까지
고지를
법인세
비탈
##방식은
펜듈럼
렘
EMP
그룹은
붙인다
좋겠지
알았습니다
##~60
붕어
임재
전가
기자들이
살포
분노는
이별을
화끈한
방아쇠를
민주주의를
##당하자
삼성동
민정수석
(7
지장을
Ge
##우리를
##주시는
배고프
남김없이
##워커
fr
##이드의
기지로
한번쯤
나탈
##uz
##개편
##칼에
NP
1924
결혼했다
사무총장
시스템과
있었지요
앓는
찰랑
##아웃을
##회부터
교회를
남긴다
분쟁을
용인시
도입했다
탄을
그날의
종목이
느릿느릿
컨트롤이
##장관은
##?!!"
와인을
상대방은
나약
바야
찝찝
축제가
마이애미
파묻혀
피로를
뭐하고
속도에
폭행을
담장
미군은
바람처럼
아파트가
떨어뜨리고
만들었는데
##:4
냇
쨢
##치인
장식이
만으로도
그대로였다
숲은
##work
하루하
##한데다가
##일엔
대들
행선
35%
지닌다
정호
강해지는
돈다
기력이
하소연
##Pa
다수를
종류를
대표팀에
본사에서
심각하다
부술
##승리
##킨스
리도
환불
슥
깊다
새를
##바지를
뻑
##국정
##비지
##잎을
해인
해결책을
세어
##굴의
도살
비준
늘렸다
개회
##트리스
만남은
알고도
##점차
소작
장중
계정을
알아듣지
광범위하게
승을
마주치는
정치자금
계파
오현
만족하지
지적하는
월드시리즈
##셔요
##시며
덥석
##mania
문제지만
다쳐
대차
문화는
비영리
장교가
그에게로
다름없이
##side
샌디에
##정확히는
내려가고
사령관이
##입에
버텼
공개되지
부모에게
하고있다
뾳
##avy
뉘우
죽였
인간인
꺄
##투의
하란
토끼를
himself
##루스는
암울
서식하는
##야할
##reet
가담한
들리자
원고를
책임자
올라온다
피어올랐다
공과
배신한
변동이
조사했다
홈런으로
의심스러운
##상실
론의
##ards
적용이
향하던
알레르기
##움직
글씨가
오락실
지냈던
터뜨려
##끄럼
띠며
길이다
서쪽에
흔하게
언급한다
생각했었다
##aka
왕도
##해머
##되자마자
령
##보여
목록을
에로게
##두와
용감
목에서
위험성이
헛소리를
독단
대한제국
툃
5)
선착순
가브리엘
페니스를
몸담
정략
발전의
투자에
##:11
백일
무작위로
##ᄂᆞᆫ
갖췄
##스테르
##해주기
경계가
독일에
생태계
실점을
자아를
추적을
것까지는
##짐과
신명
유천
인의
##콘서트
시대로
후원을
eyes
돌아보는
창고에
작정이
외동
진소
시인의
불행히도
말았습니다
일까지
의미있는
휴대폰을
新
마칠
그들에
신나는
망설이지
초조하게
##명이인
파티가
호텔을
머리칼이
##오일
뒤엔
##교수는
깨지고
박사를
정상은
어지러운
대리석
일본에서도
##생과
##수신
마테
##시간도
가방에
반대되는
##다들
##ura
휴우
기뻐서
생각되지
##거란
UI
##쓰레기
파장을
여유있게
##;"
기르
기실
민경
상쾌한
절호의
##할인
동독
매를
감싸안
엘테미
대한민국은
##02
구했다
뿌리가
추진을
포격을
한명은
우려하는
짊어지고
위치와
입가를
##yr
붙이
사학
세네
##었다가
왕비의
부메
무더기로
사용해도
##Com
늘상
칠곡
예기치
무언의
##어려
비올
##보이며
방문객
시각에
조용해졌다
##럴드
##bps
CT
아늑
후드
에피소드는
name
경우이다
자랑했다
진단했다
##스님
내렸고
옹호하는
##인정
쐐기
전소
황우
등판한
제국과
##스부르크
기사단을
음식에
회복한
후속작인
##임으로
만지는
비둘기
##자위
공헌을
남았을
지지도
노력해야
##04
악령
정년
##강으로
기미를
##+3
##오닉
종신
##선생의
남성과
카드와
팀이다
동료들에게
휀
타데
빼놓을
분위기와
데카
스페인어
식이
자신들은
제물
##해놓고
제압할
퍼시픽
번쩍이는
##데나
가입을
코치가
올림픽에
##키에
의대
각성한
뻔하다
진상규
못해요
비장한
하원의
기대하기
##슈를
리부
완치
준비해야
활용하고
세습
인출
힘내
##래덕봞
##만하고
조합원
시장으로
일치하는
탬
핥아
##계획에
해석하는
##라로
##부수
리눅
뱅크
대사와
연루된
자극적인
참석하지
##Le
만연
바빌
##소송을
둥지를
대항할
대답하자
대해서만
집중하는
##학력
색소
유타
IOC
그럴까
봉인된
카이란
스파이더맨
##데서
##ior
뜨자
어디다
달갑
아소
동쪽에
적발된
투니버스
기능과
##더에
죄는
NGO
팔리는
형상이
형법
앨범이
임기가
해명을
반기를
속력을
무림맹의
기쁨이
남부의
맞다고
정리할
튜토리얼
마찬가지인
##jo
ATK
인수를
개운
몽롱
종족은
대화에서
병력의
유동성
##상에서는
휘파람을
##혜를
사메
포션
한식
Hel
계약에
##rad
외침을
cons
스트리머
위키백과
스윽
##코트
외신
##동료
유람
장민
##리오가
(2014
땅콩
남자친
주르륵
운영체제
돌아가면서
걸으며
청와대와
간지럽
서비스로
##아기
니혼
초급
가보면
등록일
크리아
온게임넷
장착하고
##ss
무참히
악기를
안부를
입력하면
수법을
토머스
##저트
##uth
Femme
##쓸데
돌아선
##:59
식스
통통
고통받는
결장
쌓는
체온
구간의
실패한다
##생활의
물러가
종족을
tell
앉고
틀려
곡선을
스타벅
핵심인
직원들을
쿠데타를
민형은
나뉘어져
적들에게
종사하는
눈감
소림의
##마구
고파
##는데는
03.
##저건
##판정
ᄒᆞ
개씩
김하
것들도
스승이
##좋습니다
거짓말이
천한
가깝고
강함을
모티브가
폭락
##바키아
##해지지
나와는
대만의
리즈는
토하며
없었으므로
몇개
페로
##되지도
##해왔던
뒤섞여
가겠다고
나약한
더해져
도착하면
기라
비로
스테이지를
탑의
바다와
이루게
있단다
아련
촉수
표적이
대중적인
##......)
##도나
"/
켜져
##다이스
밤늦게
햄버거
##fc
개판
애드
짜는
178
배신을
풍기고
여러분께
지난해까지
##타에서
에너지의
뒤집어쓰고
†
,/
주정
려
각계
섬이
신예
영사
킹덤
그렇구나
내에서의
대법원은
보고서에
파괴되어
만리
사운
대항해
로이드
여신이
효과와
제압하는
투표에서
##타격
범죄에
두사람의
둘씩
칼과
허망
링크를
초보자
롯데마트
##?』
배심
부글
##율에
정중한
션
##나먼
이연
진저
짓도
11,
##이고는
지시로
기함
엑소
##360
##광장에서
라피
부류
Pre
기량이
사건도
##난에
##보시
##인이나
수익률
바뀌었고
돌아다니고
압구
이클
전병
토목
138
아크의
묘사되는
울부짖는
something
최동
넘어진
노선에
확대에
오브젝트
##푸는
##허억
접근한
##ード
얼터
부근의
제르가
은밀하게
화면에서
##모집
##신공
그녀석
대전의
정신에
취한다
합당한
분류되는
쨧
ind
나락으로
##법칙
추미애
예고했다
배양
육군의
##엽은
단위의
있거든요
나즈
시력
교실로
마법진
여론의
이시다
취급이
일어났을
SG
보긴
폼을
##이러한
이야기한
보는게
재검토
참석하는
판매량은
웃어보였다
##꼬리가
##티스트
아카데
스테이션
##주었던
Leg
발휘하지
살펴보니
##wp
고어
광해
벅찬
##비에서
되찾을
서명을
농성
생겼다는
생산되는
선택하고
소녀에게
마트
어학
정국
반지의
##세트에서
##거부
변하게
접어든
희고
##html
0.0
시신은
##블록
쇼와
##학교는
관현악
나서면서
전작에서
평가한다
둘도
진기를
##갑이
카터
##부인의
다가오
애쓰는
행동할
현재에
보도자료를
징집
##목에서
##아미타불
##수야
##는지요
안전성
직원들에게
리쿠
허드
테마곡
한문
전공을
##ERS
sw
##시킵니다
상승하는
남편인
왼손에
맹주
백병
관계된
넘어온
법안이
날아드는
뻥튀
##미술관
애들을
콘스탄티노
가관
##위원을
갖추게
근거는
반정부
요시노
유진이
인정받은
나찰
내줬
가버린
바탕에
、
먹구
133
예산은
방영되었다
##자살
못박
중신
Song
어려웠던
혁신적인
##개도
##정규
방수
산재
쟁탈
기사단이
주목하고
처리했다
패러디한
항생
마련하기
168
댓글이
이르지
합류한다
heart
##제프
뜨겁다
받았는지
==
아프가니스탄
##아직은
거인의
요리가
쫓겨난
포스팅
화장실을
피아니스트
##자락
공전
백과
##단독
##봉과
상응하는
##ney
라즈
들기도
트위치
능욕
달러가
시작이
##(2014
날카로워
남북정상회담
##JC
##팬들의
교실에
##(2017
구석구석
그러세요
살충
##게임의
튕겨져
##대어
##라이즈
#3
그랬듯이
__
메릴
원판
##돌아서
스파크
왕국이
증가가
쐬
##계단
끊겨
거두는
덮쳤다
주시면
학교와
##_<
박람
##상품을
제반
##버렸다는
불똥
물러나는
잠재력을
##:13
타선을
포세이
튀어나올
혼자만의
내건
##받기도
바보야
이와는
아시아의
통합진보당
거처를
허용한
##힙니다
그놈은
앞당겨
모스
마차는
마찰을
의욕을
문제들을
설치했다
옌
틴
덒톓
즉흥
거래일
막히고
무릎이
PA
학위
사라졌
시도할
표시하는
냈고
수돗
대담한
##하는데도
대전광역시
결합한
박살이
세심한
쥐는
플레이에
##운송
##~13
##퀘스트
##ague
Des
인기도
친구라고
출하
탄다
그랬을
본격화
출시를
크리드
등에서도
##Fatale
가네
##너에게
##외국어
폭격기
기초적인
##툭튀
##말이다
##사회는
자기들의
신검
호연
##조건이
게임도
##부에게
대항하는
알았는지
청해
계단이
오라는
의심되는
궁극적으로
##멓게
MV
##해가는
보여도
인격을
장본인
참여하여
내려다보는
##unction
##뭐냐
난방
남과
죄악
광장에
여자에
FemmeFatale
구금
##본부가
말하려
지쳐서
##콘이
시어
청정
##했는지는
##ouble
애시당초
한마디가
##깊게
##익의
##폐기
흔들릴
지적한다
릴레이
있기만
성녀
직설
궁금해서
##젠이
권능
겹쳐서
발사할
그녀였다
##넣는
##보트
</
리턴
지훈
동굴을
확보에
중반부터
##tv
##브리지
##시기를
외침과
##20)
연승
코와
시간당
실비아
행성을
##구이
##터라
과소
##층까지
기온은
지르지
제명
##어버리
정당이
환경의
##상사
구석으로
넨
Sw
##feat
문양이
둘째치고
승객이
##고만
##래스카
썼다고
여름의
붉어졌다
드래곤과
그림에
체포된
멀어지는
생각이야
##립의
ICT
간격이
하루의
너희들을
##..........."
모하
##라스의
찾으려
나왔으나
##달한
호스트
##뜻한
무진장
찢어질
태을사
살해당한
these
한옥
모든게
비판하고
메두
악세
동료인
일이에요
##네로
##마비
길도
벌거벗은
손뼉을
신앙을
##키나
베기
홍문
다양하고
외면하고
##:14
궁을
##할때는
##...-
죽여도
윌리엄스
지도부가
피처
단일화
시가지
흥분해서
알어
흙이
##에이지
시퍼런
시작되기
지독하게
피하면서
##가끔
##데시
온전
뿐이라
갔습니다
##기리
##따로
심은
##다니던
기분도
했었지
고용노동부
##용사
부결
생겼을
예상은
도망쳤다
바뀌어서
없더라도
참석한다
##무서
보랏
##oman
얼마전
물러서지
확인해야
##mes
쩌렁
##란에게
거북이
기본이
하늘색
##뚜기
글리
##세대의
##조선의
수출입
##점유
##친화
얼이
멈춘다
##06
##40)
Pv
미정
##ines
망령
##사랑의
활약할
단결
##공주의
겨울의
##죄가
눈에도
마크가
표현한다
나이프를
##ショ
##미지
매립
해결되지
다행이라고
##여자고등학교
털어놓았다
휴일
와닿
횃불
전선에
분실
아다
수찬은
영주가
즉석에서
개찰
이통
바꾸면
제약을
##80)
디멘
##누스의
##회사는
레온은
##엽의
렉스
각오로
기운에
##해결
못을
짐은
일했다
남북관계
마리나
정원의
친근한
##아홉
도감
웨인
중수
##은행에
장애물
##음도
사공
##풀이를
쟝
##건전
에는
찌꺼
##라이나
눈엔
사계
왕창
유혹을
찢어져
바보같이
사업이다
##패션
식료
##만명에
될지는
줄지어
공동주택
구매하는
어처구니없는
오도
##이었음을
하인리히
조윤
의자가
탑재된
피해자를
##경보
기량
파천
황룡
발라드
버서커
영감이
왜곡된
솟구쳤다
##산면
##정책이
보자는
썼는데
##것이라고
스테이크
칸이
그릇에
근사한
항아리
##공주는
결혼해
설립을
주최한
소년에게
굼
물색
타로
##경기는
ALL
네놈은
네번째
두툼한
휘휘
비리를
세대가
##맥주
허정
##루스가
그리로
##대통령이
1923
거슬리는
도착하는
홈플러스
sk
비교하는
죽여버리
사람으로서
Gl
되든
먹튀
티를
##)))))
구속기소
##탈은
제식
친숙한
프란체
핀잔을
급의
직할
친숙
나눠서
워드
남북한
십중팔구
꺼내들었다
##폐합
연명
일면
홈즈는
와이번스
저수
##결과가
우주에
것이겠지
##점검을
##차원의
카운터를
밥은
십분
난다고
한국사
셰익스피
바흐
후려갈
##착한
##캐논
덮친
했었지만
맑게
앉게
##플루엔
알수가
##.62
서점
단계가
세력과
##신화
쇄신
내려놓은
##과로
팽팽하게
솪
방콕
감사원
##경찰서에
건물에서
바꾸기
시스터
아녜요
이어지면서
약자
타원
한전
악마를
대선후보
쥴
유능
잇고
한장
롯데의
라이레얼
방안에서
##딘이
역도
히노
드나들
방어가
선수들도
헬리콥터
우로
##적어도
실체가
ᅵ
##이슬
동사
벌기
아노
##임에는
맞대결
1926
인식하지
중론
피카츄
그러기에
old
속내를
머리통을
받는다고
##.....'
##합동
하코
비우고
올려야
유로파
비서실장
##ja
롱소
물자
주안
쿠사
팔지
##사이버
확인하지
수정되었다
피어오르는
##기분
서천
미네랄
특별법
마시면서
금정
진원
공허의
팬티를
##이번에는
짤막하게
교체되었다
##팍한
빗발
##라고요
순간까지
떨어뜨리는
##쓛봞
돌아가며
아니었나
유리카가
스테이지에서
##허는
입히
몰았다
1922
반발했다
사로잡힌
##르카
구조에
대박을
관통하는
타오르고
박씨
유럽에
##상공회의
당황하지
결정했다고
특례
스파르타
회복하고
상여
성과는
추악한
상태라면
애덤
일신
징크
이십여
쿠라
행적
##아비
별장
공정위는
전방으로
충실하게
비극적인
제공되는
##)...
양해를
##카츠
인지하고
세계에서는
##나자
##거래일
##년전에
연기로
찾기가
형제를
움직임으로
닦는
육지
중등
잠자리
유리카는
소스라치게
천기
##해냈다
영주는
총사령관
한정되어
하세
그에겐
의도한
도로에서
시작했다고
슬라이드
니들
그럴싸
상하게
위로를
전략은
가지고는
##중단
##겠으나
##대회는
교사의
가평
술도
크기와
등장하게
##요이
본인을
널부
달여
##걸음을
int
삼성그룹
##범과
##팽이
보트
결산
농작
##겠는걸
마력의
스크립
비싸게
##BD
##소도
입안
##부장은
소문의
손아귀
##Ah
얹은
단체는
올려놓은
##스퍼
싸서
가장한
비밀의
##창출
이젤
##로써는
##보고를
##사태가
맵에서
벌이게
선발투수
뽕
잘된
찾으려고
한술
##실에는
맞는지
지혜가
##하였다가
프로덕션
cm
선과
대장의
만들었
조약을
##억원이다
##enn
##수였다
힘들지
사정거리가
발돋
구름을
특징인
활동으로
본회의에서
자기들끼리
##관제
##테마
먹다
경례를
네놈의
소크라
주사위
2030
따라가지
터뜨리는
##팀장
소사
인솔
##가들은
##셨나요
세이지
아스팔
어긋난
크라운
TCG
직책을
로드리게
끓어오르는
대전이
전통이
도와준다
##My
교문
군함
났고
맑아
가기도
줄무늬
활동의
##의식
상으로
진출해
엉켜
흡족
지리적
믿게
자질을
코스모
부여한다
##더리
차질
이니셜
##상해
건지는
전환이
들어왔을
##무관
##존재
##타라
문도
##지대를
지난날
뼈저리게
들어갔다가
잉글랜드의
샨
결실을
정치권의
개울
레저
끝에는
홈쇼핑
무식하게
이때까지
표현이다
에바
수년간
실행에
##설과
수문
핏줄
수색을
배우들이
낱낱
사파
##우니까
Che
어머님
복도에서
##なん
##망할
개발했다
부진으로
##분경
멜론
틀리
누군데
아찔한
처음이
크지만
기대하지
가장자리에
시작하는데
조심스러운
##유사
원칙으로
받아들인다
좋으
교육청
불가능해
요약하자면
##CNJ
##하나의
##하냐고
보냈고
늘어뜨린
떨구었다
대학교에서
##DO
##커뮤
뺐다
상처에
잡아당겼다
##접을
맛도
제롬
끊어져
알던
도움도
머리맡
부적합
##망과
둘만
만전을
알비
편향
후보자에
성공하였다
Ev
구치
회장에
매달리는
물리적인
작용한다
##활을
##ENT
고르게
당정
왔으나
있어선
진동이
스테이터
아군에게
##부라
7~8
시로가
불가리아
박스오피스
빈사
묘사는
추가해
황교안
사내들은
소리치고
##기로운
공직자
안토니오
금할
씀
##주체
그새
화사
명에게
특이사항
후임으로
20,
상대와
투수를
##꾸역
줄임
세수를
자루를
##마조
##명사
브란
플랑
바로잡
아르메니아
구본
구도가
장모
관리할
나으리
사진의
##ating
기절해
##static
Champ
벨리
가수로
법률에
업체를
##초도
갈겨
뭐냐고
정면을
경영을
때리
반에
있겠죠
##노예
바알
많아지고
양적완화
김옥
끌며
잤다
##검색
##나비
되었어
생산하고
몼
김효
어업
##란으로
##리그에
벗기고
금융감독원
WBC
부잣집
지른다
못지않은
암호화폐
과묵
낳게
쥐가
돌리면
##참을
가녀
늘리
1,0
지속되고
아주머니가
##.>
##소울
라디
수준이라
##ᅲᅲ
##각과
##근대
할리
다음부터는
결렬
꿈쩍도
다르며
마시던
슬로우
명분으로
##테와
궤도를
선장이
대답하였다
고기가
과태료
취미가
일이니까
중간에서
초창기에는
결정될
함대는
가족들에게
##견의
식어
##자리는
경영권
국무부
##하신다면
##?--
신전에
생일이
안들어
울타리
##아버리고
여성으로
조는
하의
느리다
본인에게
일으키지
경기장에서
##ency
금지하고
##/15
양산형
용어로
향하게
##토라
일변
모드는
미스릴
출석해
##날레
##일명
기거
전준
막아냈다
##Tr
내걸고
썼지만
연방의
중장기
##규정
##그락
용과
시간적
이세계
죽여라
일자리가
##노인이
##지기는
1927
##나타
라니안의
없었으니
##침해
잦다
주문한
필요없다
##시킴으로써
고질
훔치
##수이다
구조물
왕비는
위아래로
나라에서는
지원하지
##Dr
##신가
누설
문제점은
뿐이에요
##농담
##였죠
##지언정
##처녀
##화성
단계의
방에는
총사령
병사들과
##)+
##폰의
잃는다
괜찮다는
인간들에게
##언과
건을
않네
##전략을
마왕은
정한다
지나도록
##에어
내면의
찌르기
개정안은
##개그
크면
##느냐가
##화까지
Over
일직선으로
치러야
발전시켜
효율성을
##악산
##ean
배임
하다는
##얀은
교제
권익
##스탠
8%
피운
연합의
플루토
페이스북을
##ラン
자장
공기는
숫자의
정당의
##패치
단풍
말란
##ouch
소식통은
잡으면서
승급
풍운
##버렸어
번째의
수출을
위원은
최고기
자신있게
하나둘씩
##쿠버
##니스가
낮다는
라이징
알잖아
깨어나지
신현
찜찜
최원
갑툭튀
호로
양팔을
북돋
원심
서버를
식사는
이치로
채워져
아파트로
쳐들어가
##잖소
##진이가
물질의
그녀에게서
여기며
인체에
Elect
쓰다가
오른발
행운의
부탁하는
비롯해서
진출하는
특출
177
강하지만
되겠다고
ᄇ
귀순
낙후
안희
어여
자녀의
국책
모차
척척
가시가
적용될
수교
모호한
10,000
유언을
체력의
일행들을
특수능력
렛
비슷해
한성의
나날
말포
소의
칼의
##정도가
1.9
부산에
요즈음
연구팀은
가를
살며
옐로
장막
132
sup
범죄가
최명
원작을
##면에서는
의심하지
바론
해두
어리고
포부를
심상정
조선은
"..........
##살려
##현도
게리
채보
^^;
충격은
한기가
##협동조합
##고맙습니다
さ
무빙
##거리게
자살한
제작해
증세
드린다
샤이닝
이용하기
김강
근로자의
하나만으로
마저도
이지만
어른들이
##oz
嶺
##키오
이야기였다
밀수
벨이
스킵
##지지도
장면이다
크로니클
CA
끌려가는
##메뉴
##대장이
강서구
군단을
우승팀
진실한
공개하고
내려섰다
전날보다
모독
소련은
쳐다본
번성
부연
Mod
기기를
순매수
저주의
맞기
발포
찾았
##조직을
복도로
예쁘다
내려졌다
##공용
##자지
사회과학
자력으로
충만
홈을
##중국의
바른정
포도주
맞장구를
##분만
가로채
##코쿠
MT
떴을
Now
개그를
법정에
팬들과
##개방
##럭스
##리브
##연극
나는데
두려웠다
##립은
##행과
##els
##osh
##세이버
##LIVE
카테고
흐지
의미이다
남하
설교
얹혀
요건
사람일
요리사
##세력을
우주에서
평창올림픽
##=2
##body
##프라이즈
##간부
##텔의
생사를
주황색
하루만에
##GS
곧게
드린
아브
공으로
불태워
##차장
집주
##등급을
##수라는
##했어도
공문을
전차는
이상이면
##1-
통근
늑대의
불렀던
쏠렸다
찾아갈
닮았다는
시행하는
아틀레
left
##테지
히가시니혼
##렌즈
사려
##자리로
쳐다볼
##스로부터
강에
산불
초소
YOU
##년쯤
##페스트
케네디
똘똘
소굴
육성을
이틀째
코너를
발렌타인
시간이다
아들이다
뱀이
##}}{{
수영을
리그베다
##일한
찌질
##네스가
귀국한
되었소
자랐다
동아일보
계룡
##초마다
기사도
수수한
애니판
통해서도
##라고만
교체를
권한다
먹히지
부상자
##지원센터
##냐구
DX
서스
스펙이
전화번호를
##갈래
이목구
필드를
##너라
##황과
조승
##비례
혼잡
나갔던
미련을
휘두를
경험으로
단기간에
##대군
##이성
보탰
업무상
네타
연의
조작을
된거야
막바지에
##일만
##조달
바삐
같지가
나른한
입구가
일어났고
쏠려
경험할
몽롱한
수익성
화나게
근무하고
##(13
구인
십상
##주기로
그때도
마차의
죽여서
##시설의
존재다
ᄌ
##옵션
제철
남기며
진하게
맥락에서
스펙트럼
##레온
동산
헌재
부족이
양국은
이름난
괴롭히고
망설였다
베이스볼
박하
악랄한
안되면
온도를
달해
볼리
도호쿠
뽑혔다
되어가는
도색
불운
애틋
정태
한켠
##~!!!
걸리기
군사들을
##분투
마상
명곡
쓰다
것일세
일부의
이뤄져야
블랑
자다
교수님
법으로
비행을
우울증
못생긴
작용한
1921
##척에
##케를
보잘것
르네상스
##실장이
공략을
말버릇
정보도
진심이
Master
멤버인
하룻밤을
국빈
레미
본사를
속성은
(2013
##밖엔
##쿨럭
=_=
씨에게
제거한
추위를
브랜드가
기장
##한가
##-27
소관
프런
심혈을
저지르
죽지는
시작하더니
##인것
취항
창백하게
might
##tor
예나
제자리
조직원
최대로
딜레이가
염상
타니
##맞아요
##곤을
약은
조미
포근
되겠다는
부족함이
의무적으로
일제강점기
다프
로엔
견고한
분야가
인격이
입단한
청년들이
무엇입니까
##다로
꽃의
효용
##Fl
##피아의
How
바라만
피츠버그
떠내려
어두컴
오줌을
철학적
앞쪽으로
##메디
##청장
먹었
트인
##당했고
당하기
루카와
사고와
쉽다는
양복을
창가로
##민아
##중간에
3:0
타선은
##록스탄
제조사
건성으로
##선수권대회
정당화
감당하기
날아올랐다
##모나
안마
뜻밖에
MX
성분을
속이는
결혼하는
돌리면서
##/20
덜렁
볼펜
##하시지
연락해
정장을
필자는
미스터리
마의
검기가
성능도
절망에
파리의
##있었는데
##....!
레아드의
##네들이
##신가요
만행을
산업을
업체인
제도다
##시간동안
남천
거주지
떠오를
안심할
물어보자
##화산
##사고로
자다가
경부고속도로
##자주
패배의
##리아에게
본질적으로
윤지
점소
가처분
바닐라
확산을
회색의
곤두박질
중앙에서
넘기며
길거리에서
공판
세고
##슬레이
번역한
소비가
하워드
##륜의
뭘로
일견
차일
것만큼
꾸미는
배치가
살피던
스파르
카이저
우츠
유리창
유산을
##기술의
시키면
오브젝
밝아졌다
검고
국유
땇쒎
##비타
무고
종말
구해야
헬멧을
한국에선
권오
밀린다
Fran
부하들은
올라가기
지난해에
흐지부지
부임한
아린은
꾸역꾸역
탓이었다
##강제
목과
정중
홈즈
고소를
부상당한
선택지가
필살기를
필요하면
교실을
서울이
아이처럼
합니다만
##────────────────
##그럼요
##세계에
##항에서
아랍에
노인에게
원내수석
흡수하는
##잔은
비룡
달아날
##밭에서
##일이나
##2014
장착할
롯데백화점
노를
에노
강하지
표정이다
2.1
동물은
이용객
없는데도
움직여야
이날은
파괴를
지휘봉을
##특급
##현지
느꼈을
증가에
김포공항
사령관은
...........
##사격을
취득한
무책임한
##かな
##승인
특색
Bro
납치해
##되었으니
줘도
##못하고
들어서면
point
##MD
맞나
코오
##있다면
129
묘지에
호텔의
횃불을
형사합의
대활
변덕
##시설과
개발할
마이어
밀렸다
예비역
집어넣어
화려하고
##절은
광풍
새꺄
##부대로
##시아와
따위로
일본도
Just
아물
주조
조절하는
XP
산업이
수석대표
어리둥절해
아첼
격하게
되돌릴
양쪽에서
실망을
이뤄져
먹일
2.2
세트로
##노코
##09
##넘어
단서
팀인
##부동산
##ollow
Will
우승으로
늠
부설
브레인
수조차
##벙글
##사르
라라
명작
기지에
노태우
새파란
이화여대
국가정보원
퇴사
시절에도
##Mar
생쥐
마사무
이누야
##공단은
실시한다고
##ott
만두
모바
데스티니
편에서는
각지의
##타타
마우
쏟고
##라이즌
##얼굴을
Live
##누마
let
##지속
납입
마담
##사건의
띠었다
##프로젝트
반군
착각하는
##가까
##아리가
Dance
공예
착안
최현
대륙간
현암은
대변인이
going
##Te
tw
난타
독신
##디아는
##줬다고
소심한
##인이라고
나가기로
머지않아
##자이며
##해내는
걸까요
끄덕인다
프로젝트에
용수
귀찮다는
##검법
ob
신뢰할
##EE
부르던
부분과
차리지
아니었으면
##키도
가넷
논술
의왕
커브
##운에게
후반으로
게르만
니퍼
옥수
장녀
경제부총리
법령
양수
탈의
##한가지
들어맞
자식의
코칭스태
##자들에게는
##07
옆집
##진들이
폭넓게
스케이팅
출전하여
쳐다보면서
졸고
##받으면
##적으로나
When
안에서도
##aut
원호
하스스톤
마미
신중히
모든것을
봤다는
건틀
다칠
융통
##보더니
씨앗을
해냈다
흥미진
말해준다
여차하면
##계산
##최순실
서커스
숙련된
번이
수은
정원에
말하려고
비용으로
##WS
여고
궁시렁
직후인
것뿐이다
##실버
##촉진
##erry
결말이
소리쳐
안쪽에서
유명세를
아프리카의
대웅
양분
압도적
오다가
조속한
창세기
못했으나
오실
소문도
System
##기갑
##사쿠
##전이다
##arac
공백이
폐허가
풀리고
산부인과
들쳐
깜짝할
여관을
축제의
평가에
##그제
미오
보탬
후렴
지면을
롭
영창
##타로의
빌헬름
뿐이오
학원의
##유한
서건
웬만
갈등은
달리며
제기하는
##피와
본편의
비추는
선고를
자세는
「......
##.31
간청
경산
놀다가
얘기한
달려있다
##상치
광탈
동체
공허한
시행할
연구와
형성하는
북해
##산업이
##leep
애니에서는
한나
흑사
##일이야
##태자
비수
여직
##하하핫
당기순
여관에
뉴욕타임
증액
몇몇의
질적
캡쳐
특사
오리엔
##항상
병맛
붙게
세션
##나라로
선로
파탄
##현상을
##ault
비도
시퍼
지략
단호히
비장의
공로
붙으면
##하겠어요
순발
모든걸
문자가
숫자로
나가려고
어딘가에서
간식
나팔
상아
성역
말들은
수작을
전신인
있어야지
남캐
라자
묘사된
수리를
지니게
희원은
##(2018
전문성을
차지하게
##가죽
기한
##주셔서
교황의
사귀고
##레스테롤
##끼고
##려진
##alt
경관
프리즈
것으로는
##전철
##학술
완구
##아이구
너프를
개최하고
가능하다면
경합
인맥
팀장
고객은
수장이
얻어야
자에
클루
할퀴
##참고
##chn
주욱
관장하는
정상회의
평화롭게
소리냐
연출은
남자들을
##빙의
로베
눈가를
데까지
털어놨다
##.......]
##JR
##ONE
뇌리를
##시켰으며
인생에서
##뢰를
##측한
내려가면
##________________
##엄청
대칭
빠졌
기적의
선배를
제어할
탈락한
무언가에
무엇이냐
주최하는
##보네
승소
##폭탄을
상식을
역대급
무시했다
알았으나
##빈에게
결정되는
루트로
우러러
종목을
휘둥그래
##측근
북부의
붙들어
전례가
회사인
술집에서
아파트의
콜록
##투스는
##2015
너희가
만들어주는
견지
##되었음을
우리나라에서는
##피오
마더
메워
캐피
365
설정한
차별을
##옥에
늘어났
상반된
##매출
이아
헤븐
##보장이
가량이
기울어
마노
스베
적잖
주점
장면에
두손으로
##데기
##않았다
치료해
삼겹
그치는
욕구가
정권은
피규어
능한
청장은
쏟아냈다
히틀러는
##건조
##혐의
천룡
호탕
팅
##지아
뇌졸
달할
대금
맞췄
기대해
진동을
개최하는
아프다고
이르러서는
##근육
리리
희소
##정신이
겸비한
##축이
자구
##투스의
마디도
##시장과
것에도
겨를이
옆구리
있었구나
##ask
남방
도산
직사
토익
##apan
성공하는
##어딜
대선을
좌지
##sm
거쳤다
적외선
알려지게
##든은
##베기
폐렴
황의
나아진
스님은
애플은
##산업단지
##그날
바스타
입김이
제안한다
##거지로
들이는
사물의
탄식을
있었던가
그리기
부진에
주도록
다가가는
##-^
##치한
와우
##민들은
기반한
국정감사
총액
함양
호적
##짓으로
부장이
옷깃을
들어선다
비교했을
하고있는
강연을
구간에
박혔다
요새는
인기있는
상대편
요즘에는
##에너
카넬
두손을
부딪힌
일들은
잡아먹을
〉?
구호를
보려는
서구의
서신을
시중에
전장의
상징으로
EA
머문
동기가
비운의
##했었고
무림에
시키지
용어가
티셔츠
끄덕이고는
##대결
들렀
웃던
MMO
덮었다
저평가
##MR
주고는
하기가
블래스터
##킨의
##!!]
제수
곳곳을
소리까지
육박하는
복면을
살아남는
하루아침에
맺게
뿔이
품게
진영이
GPS
발키리
파충
개념의
##la
##타노
구천
볼프
새긴
탈을
##unch
137
뒹굴고
리조트
##쳤는지
심판의
한자로
누군가와
부인하고
외국인의
소영은
무서웠다
비박
지바
안전에
중앙선
상냥하게
friend
잠적
방도가
쌓았다
미스티
말짱
즐거움
세계관의
신흥국
중앙으로
##-?
유하
지존
##보냈다
마시기
대하여는
이적했다
곡에
리오가
만들어준
##꼴로
국화
ESP
보여줘
상대인
변해버린
잠자리를
##천명
월남
근처로
들어라
터지면
폭스바겐
##둬야
뒤진
쾌적
##모르는
갈무리
따름이다
##ray
이맛
##차례의
##quar
참가하지
##·1
##ファ
난을
우위
##능력과
황산
##절대로
라면을
특허를
젊은이는
맞설
계곡을
다가간
레벨의
브래드
삼성과
책이다
피해도
낮아졌다
##후로
경남도
##넨이
##보관
##나무는
네덜란드의
##죽일
'3
##ffff
임신을
비판적인
##랑과
##습기
##한국당
담겨져
소련군
장탄수
에일리언
글라
기묘
러쉬
##투자가
DDR
스탯이
영원의
대원들이
##SN
##섬의
##채무
무법
##밭으로
기척이
떠나가
유저를
인도를
하나뿐
만났는데
할머니를
맺을
팀내
요리는
착각이
등장했을
낙양
마기
전처럼
더듬었다
##리버
##훈장
당면
명의의
입수한
당연하게
특별수사
##러시
물건이다
##분열
##오히려
##인들도
정면에
안정성을
##멸의
##urs
만을
보성
자크
헤드샷
##...--
보너스가
##돌격
벽난
잘할
쿠쿠
##공연을
바구니
부하로
분량을
수사관
자리잡았다
모함
당했고
민우는
인식은
##바늘
득실
벙벙
인선
##티아의
질병을
러시아를
가까이에서
##보군
시호
패는
호통
바치고
생명은
여성가족
존재라는
##08
느리
사라는
히트를
에반게리온
##비즈
미소와
적응이
노홍
연성
다나카
명령은
편지는
말이라도
전통시장
##한화
고리를
기계화
임의의
걸터앉아
##근과
왼발
재팬
못하는데
##도구
보네
사무총장은
##닥터
쥐어뜯
출루율
좋으니까
九
랴
6%
병원이
자위대
저글링
또래의
무력을
부사관
천상의
나쁘지는
수류탄을
웃음소리를
##연예
##본부에
정리했다
조선총독
##↙←
##됨을
가량을
논의하는
##빙은
띄우
비좁
한진해
소송에서
행정자치
계획입니다
##05
##포기
파공
희석
공부도
밴드를
국민은행
##ternational
사뿐
정상을
못했으며
괴짜
걸지도
관여한
삿포로
일제의
전하를
캄캄한
##지을
멀고
홀딩
거느린
마시게
셧
미모를
연인의
주었을
마초
후세
기류가
일정에
뛰어올라
##Or
##등등
##메트
실크
그러게
목록에
산다고
신주쿠
극장에서
패배한다
표기한다
왈칵
##호선의
없는가
유지되고
일치한다
말씀입니까
농도가
공격력도
다음날인
란테르트가
백도
털을
##라인에
신화를
적다는
해결에
u
상품에
실력과
집어들고
##ttom
스스럼
검토를
저자가
일각에선
틀림없어
낚싯
브렉
물으면
##)】
내실
##선거관리
동떨어진
전열
재무장
적용을
mind
들어주는
괴이
이등
##단에게
보편적
영입했다
환히
##왕으로
벗어던
쓸만하다
##병인
맵에
벽의
상층
참혹
심각성을
흘러갔다
경기에서도
##리란
Mc
맘을
1-1
가사는
됩니까
증명할
사업비
얼마간
재정적
구입하는
독립적인
확대되고
바이러스가
벤츠
상대해
큼직한
##단체는
##방법이
##주라고
KAI
건담의
중위가
증언에
대단했다
##르나
##테루
치장
##대학을
UAE
마치자
신시내
휘파람
상세하게
전략으로
차단하는
준플레이오프
비엔
##연수원
참여가
유상증
성격이다
안전하고
##하란
##현재의
태클을
동점골을
허리케인
우우
##뉴시스
아니었던가
##습니
씹고
중단을
제작되었다
시행된
##똞빨
##방패
도취
청을
##러지는
주연의
##셨는데
거품이
계약은
부족하고
##자들로부터
##번도
##석도
라쿠
##럼비아
행태를
유명했다
##각하
##너머
##방면
기둥에
좋아하던
경험도
기업가
몇몇은
어원은
현재와
잠만
퍼스
방식과
##없습니다
고객들의
중요성이
##목과
병풍
약점은
발휘했다
못미
폭의
폭격을
##넣어
##틀링
창건
총이
무슨일이
파악됐다
일반적으로는
소명
탱킹
2.7
전작에
comm
무엇으로
시즌부터
존재하기
패턴으로
회장으로
도지
폐를
날씨는
무공의
##성향
군과
무덤덤
있는가를
문경
##케이스
거들떠
산길을
쓰지만
휘하에
작품들이
심오
골치아
시라이
앤드류
의지는
응시하며
##계통
거창한
발표에
혼인을
늙은이가
성실하게
things
낭독
밀폐
폐위
피도
버렸던
협의해
긁적이며
무자비하게
근성
담배에
주자가
##사회복지
##여신
##토모
노획
발암
시기와
아침의
아포칼
지리산
보다시피
서비스에
##덕지
정색
되찾기
상위호환
행동이었다
##령도
팔라
고치는
사교육
이만큼
건드리는
뒷통수를
어우러진
미개
##거니까
느껴야
양국이
갈게
우혁은
접전을
형식이
##조종
##짝이
##타도
##힘이
간담회
언론사
핌
레귤러
밀려서
헹
##구라
연봉을
통과해
마악
무패
신안
내구도
노사정
떠돌이
마오쩌
계획이었다
출정
##인물이
주연을
치료는
MR
고온
국사
싹쓸
1907
고통스럽게
백승
직영
해역
##병원이
욕하는
##어울
전위
소운은
스킬에
간편하게
미사일의
Christ
##중략
골리
ARM
나날을
변경이
파나마
most
국정농단
생각나지
최고위원회의에서
귓속
장가
##산업은
성장률
유치를
##우수
함성이
##떨어지는
밀려왔다
Grand
투자자들이
##양도
난도
사준
이뻐
품위
##모두들
##시험에
끊겼다
그녀들이
반대했다
그러다보니
##~25
모는
웅장
짓더니
화살에
흉터가
시청률이
DO
##면서요
기능에
##윈드
단군
아톰
##icro
act
선출된
거론되고
말합니다
제주특별자치
혈육
##지역이
리볼버
유진의
일입니까
루팡
분전
언저
##기업은
add
망했다
보통이
흥분이
##ister
크리스토퍼
##줬던
뗐다
찍어서
연방준비
##요새
금융권
비무장
멈춰섰다
미세하게
좌지우지
##업체를
천사가
정반대의
관광객들이
뒤부터
끔찍하게
카케
인접해
저스티스
##겁니까
그정도
사상은
버전에서는
다단
##세가와
걸음이
귓가를
매일매일
유고슬라
포인트는
경련
수도에
##oT
잔다
##view
한반도에
##브스
##팬들이
사사키
얹었다
돌아서는
##UK
##깜짝
##리더
##스텔
##학으로
개업일
정세균
전당대회
활동도
우여곡절
중화인민공화국
##do
되오
또박또
바라던
총기를
오리지날
은닉
##스타는
부지를
서슴지
해피엔딩
##금리가
베이컨
지구와
맹렬하게
##lement
自
##애와
씻은
##국회의
영입을
확정됐다
독성
##있어요
현금으로
씌어
광경은
생겨나
속옷을
2400
걸림돌이
몰려들었다
인트로
잡다한
한글로
##이었으면
수사의
조합은
연결된다
하겠는가
##아줌
기관포
2021
대체하는
부인에게
공갈
돈벌
안면이
교회에서
시작되면
안상
##스토어
##업계는
거라며
아루벤
협정을
쪼그리고
기특
초췌
##냈는데
##뜨리며
##처분을
돌아본
자외선
포트리스
결과적으로는
##오이
구심
봄의
저울
광고에
지껄이는
##경화
##eta
동탄
절충
가스를
걱정도
머나먼
단역
맞으면서
없으리라
협력업체
현수의
##야로
##인재
징벌
경우로
쓰도록
전년도
전시회
고민하던
##불량
도합
엘은
거리낌
실소를
의회의
입맛에
##버리면서
Jack
한복판에
##미다
발바닥
엘야시
##노아
건내
꽂고
속편
충원
한국계
지르면서
##무라는
##언제나
붙잡은
원장의
키웠다
인위적으로
##용도
슬램
애송
자쿠
전업
홍의
반란이
즐기며
에라브레는
##김영
##자식이
데에도
막아내
수준급
애널리스트
##BR
##cal
적임
##ered
모닥불
언덕에
지능이
##메드
##요구
논평
음을
최윤
홈으로
show
정확하게는
콜라보레이션
##폴트
Pe
##산업을
여자다
지구는
Baby
평소처럼
격노
서슬
진찰
왕국은
위안을
침울한
##유성
미유키
황해도
감시하는
괜찮습니다
장지
판도
와이셔
희망도
##왼쪽
경작
크립
##기업으로
##101
PO
진전이
face
##실적
##악기
가냘픈
사의를
조조를
##이라구요
7%
수명
점쳐
공부는
보스전
##내역
강시
유혈
리치가
증가를
황량한
이듬해인
해소하기
고용한
대표작
승부는
정문을
끌어들이
말이지요
##어허
Hy
젖꼭
족족
##개월의
버렸어
생물을
위에서도
##구조가
##엄마가
프론트
세력으로
##되곤
##촌의
곡인
지시가
화재로
선곡
혼내
##이즈미
지났을
민주주의의
##당하며
부적절
겨자
##덩이에
13.
레이피
촛불집
임페리얼
한자리에
헤라클레
키의
침묵의
이스라엘의
슈퍼맨
キ
##ART
##사이클
##ison
불가능하고
나타나며
쇼트트랙
국비
소동을
의과대학
학자들은
##여기에
얻으면
여행이
쓰이기도
억울하게
현대차는
##.....?
놈과
정운
나오긴
듭니다
위안화
채우기
태양은
##..-_-
귀찮아서
맴돌았다
장한
치게
##경제가
방향의
신비의
왔었다
##한글
신고한
대합
##올라가
독일을
그랬는데
임명했다
걸어나갔다
한심하다는
##えて
##친이
걸프
사황
산더미
약물을
##경원
얇게
##평등
##ury
욕망의
들었다는
BEMANI
區
##외국
카부
상승하고
상황이라면
상무는
시선도
조짐이
몸짓으로
##같지
걷게
순서는
연구한
위험성을
듣보
망신
환급
이어가
##미안하다
지나서야
##겨레
끝났을
멍청히
안되지
곳에서도
머리카락에
##,4
##부서
교관
꼭꼭
김성태
리더가
테크니
하얗고
시전하는
찾아냈다
강유
##병도
##-00
것이었
소시
유실
##나마나
구도를
##스러웠던
숨통을
몰려드는
틈만
##인이란
(15
경지를
교활한
성인의
일대는
해주시
보관하고
스웨덴의
하루라도
현대적인
올레
오리콘
사단법인
어두워졌다
갔어
(60
불멸의
스플릿
향수를
하반기에
타의
문제될
생물의
악행을
큼지막
꾹꾹
랜서
스텐
한약
환희
이날도
##성이라는
구분하는
사건사고
##봉으로
바르샤
의의를
전화는
다가가자
이루릴은
프로세서
당문
그날은
너처럼
음반을
일가의
지었고
##신문은
MOU
귀족이
상자에
않는게
##모닝
메갈
조자
팀도
아이즈
마지막을
##류도
##무덤
가거나
1912
담백
##하셔야
말리고
부름을
사부의
하였던
시외버스
1,500
있는데다가
동천
##베니아
##북한은
##올리며
세자의
##ffect
신화에
부딪쳤다
운영기관
주택담보대출
맥아
아이덴
프린스
관할한다
두려워하고
##로프
극심
##온라인
여기도
음주운전
자식들이
캐릭터도
변칙
입학식
아라비아
##청원
##해상
패천
##보기도
한양대
유가증권
만들어진다
좋기
제작이
주지만
회장님
상위권에
두텁
256
한쪽을
레지스탕
각색
고군
토스
##제도는
##방식으로
가운
로사
##프레이
보냈던
좋다면
해봤자
데뷔하였다
##고나
##공중
뜨기
##환경이
사실인
추천하는
타치바나
하나라고
일어나면서
##국도
물기
막아낸
업무가
결과였다
##,8
##방영
브뤼
##제트
거라구
조항을
직위를
포기해야
##후쿠
AE
포대
##조사가
2-1
골똘히
잡혀서
환경과
스윕
잠금
했었던
비디오를
세이브를
두근거리는
##행위로
자포자기
전투기를
##발레
움츠러
월급을
하도급
##대학교는
상당수는
프랑스에
생각됩니다
반죽
##동아리
세명의
실험에
알겠다
우려해
##ublic
감탄했다
Arm
도전할
어딨어
의지할
걸어오고
소설에서
쭈그리고
Ac
덒톏
재치
정크
들킨
악순
염라
난폭한
좋아하며
##날개
고부
이층
##차에서
메우고
미숙한
레플
주립
##iant
중반의
##학규
이븐
그분을
이치를
##리크
십팔
아뇨
##억원대
구태여
기관지
혁명이
같았습니다
##LD
내뱉고
such
쇼를
내려올
앉혔다
해댔다
##)=
##놓았던
##새끼가
사안에
미야자키
소리질렀다
##자재
삼킨
시찰
토탈
만나자
전국을
플레이버
##지랄
##한단
곳과
듯싶
성우를
학생부
##NT
열게
라이드
파주시
##하느냐에
쳉
##락호
사복
##기라고
##로스가
같았기
확장을
LOVE
보였으며
아무거나
##메를
대전을
뿌옇게
압박이
쳐들고
발견되어
##치락
길의
이론에
자주포
대견
리시
##일수도
그린다
대남
짓기
기댔다
감소하고
승리한다
갸웃거리며
##벗고
##페이즈
빗나가
접하는
♬
년도
투르
내주는
홀로그램
##실질
##진료
대리점
언성을
틈틈이
코미디언
로망
패트
##선수가
shall
골밑
##환에게
예외로
올랐던
패하고
가족들
잡아도
일으키게
공상
따가운
부친이
공무원의
위반으로
벅차
02.
포위망을
실황
청부
선혈이
세가지
거라고는
에이전트
##(3)
어긴
맡으며
숨지고
제자인
지옥에
사파이어
##무력
비우
엑스포
이후는
총괄하는
##''''
끊어질
이해와
##잖냐
유소
초원
홈경기
불경
##차이나
보이콧
아니었기에
체스
가한다
맡아서
안돼는
##스럽지만
샵
##뼈를
권한대
규정은
기법을
넣어야
많을수록
의외라는
꿍꿍
##주라는
멘탈이
체내에
지옥으로
프로스트
결함
호를
##버리게
고맙게
위하는
내세웠다
무표정하게
일어났습니다
총재가
사용하거나
철원
##력이나
감돌고
놓였다
비웃음
지붕을
보았는데
외교부는
정도로만
베드로
수상자
중령이
헤일로
그래야만
정도이며
##륜을
##성형
비트코
서해안
소피아
오너라
달라붙는
대한축구
홀짝
전과는
인터내셔널
##보훈
##신데
기미
싶진
##살이나
##영화를
백두산
아무에게도
##장처럼
사과의
반짝였다
세부적인
있겠습니다
극명
헬기를
나타났다고
대한민국이
차곡
중앙아시아
갖출
##나무의
매체는
면적이
손오공
find
철도역이다
##version
낯이
해맑
행복이
네코
RAW
대하고
별들이
##적이거나
##콰콰
대추
배리
스킬인
맞습니다
뎘
##바둑
김덕
부둥
순탄
##생들은
내력이
일전에
##전술
가겠다
선교사
배경음악
전국동시
살랑
수완
쟁점
조를
##구마
99%
일하게
부딪혔다
카루
마카오
전투력은
잃어버리고
매칭
파밀
##머리로
Off
태스크
가능합니다
틱
노량
삼자
장풍
사지를
발소리가
어이없어
말씀이십니까
뮤탈
낚시를
되겠군
위험도
굴절
무함
부단
프로그램인
광폭
달도
쿵쾅
엄청나
거짓으로
피해자는
그럴수록
##용서
족쇄
한게
##토막글
공정위
쟁쟁한
리스크가
시청자들은
중이라
없었으면
차원으로
할아버지를
런칭
##주들이
뭐하러
알아들
저주가
##바야
성장의
아파트는
고착
경쟁에
공자가
던전에서
##uel
조부
##갑시다
공부할
줄거리
협동조합
##Fi
먹기도
정점에
##버터
CON
나서게
되려고
불안과
겨울에는
블루투스
간결
미에
운다
##관계로
뱉었다
추위에
건드렸다
기분좋게
대권
노력도
선글라스를
소름끼치는
##보존
같던데
보듯이
헌법에
##lease
##도박
삐딱
내성이
빈틈이
산하의
어울리
독자들의
참여하게
개인과
것쯤은
주치의
발생하여
포켓몬이
받아들여지지
##요법
하산
##체계가
간직한
수치로
활용하면
##ffffff
##소인
##iny
##장들이
##차이가
많았기
합하면
없으면서
요충
우연이
girl
##십팔
실책을
갑갑
비교를
알겠나
사과하고
thing
각자가
빼돌린
파문이
국민학교
##CO
만화책
입구로
play
("
과정과
언제고
추억의
강조하며
깨닫고는
아류
##퍼시픽
##SL
##~70
최승
롯데가
##슈타인의
말했었다
미네소타
의의가
황실의
당시부터
##쟁이가
어드밴스
이야기와
치의
릴리스
새하얗게
자유로워
산업통상자원부
개종
발전해
양측은
##게를
##동화
김철
서거
개선된
있었네
넘쳐나는
인부
방향과
차가워
##흐로
밋밋
미술관
불러올
떨어지지만
봉지
##병원을
May
권하는
보였기
사업과
##기관에서
군대에서
부담으로
사랑해요
선택해야
시작되자
인정된다
ret
사항에
접수된
##후반
적개
##평론가
제도로
조치에
공경
소말
토네
사부가
파고들
##아버지의
움찔했다
##두산
##조림
결론에
수백만
강해졌다
페르아하브는
식욕
여과
일단의
재물을
전화통
정글러
철학자
벨을
홍경
방사성
뱃속에
파이트
육체적인
##미수
내뻗
루즈
패권
핵탄
##공격에
가운을
걷다가
기쁨의
야망을
지정해
##=_=
계양
벽은
다니다가
파이터즈
알아차리지
오천
조짐을
##gan
##드리는
접근성이
##무엇을
강렬하게
##RP
난징
오와
전량
##재단은
교회가
나섰지만
통과했다
정령이
그림과
하는건
나가사키
너무너무
나오자마자
드라마에서
암석
운용할
탈삼진
회복한다
Rep
완성한
제시할
마를
단신으로
##방어력
2.8
공천을
멤버를
생성된
일정은
보았으나
폭발했다
##gu
막부
##센터로
멀찍이
여름에는
뾵
##슨에게
한마리
국회의원이
가소
될것
##아시안
부당하게
##라는게
##수에서
마도카
어림도
취향을
누구한테
슈마
##으십시오
신격
잘라서
표시된
주었습니다
##다는게
##대다가
##해했다
이전을
지식은
명만
철썩
느낌과
부지런
비극을
큰소리
##당하면서
사람인지
동원한
달성하기
해달라는
##뉴욕
##세탁
노년
타선
공연에
##실패
미움
임정
폼페
acc
성기를
양상이
##서울특별
소어
싶었
청천
무한히
집중된
취업을
##글러
계책을
사업가
##그마
그렁
스푼
전립
아는가
정권에
고양이의
활성화에
##시겠습니까
후견
##인이자
##혔지만
평가한
##스럽다고
존재이다
덮은
있든
4.3
사회와
깨닫는다
몸부림을
아낌없이
말씀하시는
##사지
스이
##겁결에
국가들
파편이
바라보고는
흑기사
아우르는
##시키자
겪으면서
충분하지
##미라
영산
받았기
좋았지만
##스텝
경시
염원
전래
##ちゃん
##슬러그
남녀노
두말할
얻어낸
통신사
주전으로
평가받는다
##강하
수와
인적이
이대호는
Ep
떡볶
까이고
매지션
이놈은
모라이티나는
빚고
생활과
수비에
이회창
처녀가
린드
베스트셀러
##교부
##bal
구박
방문은
암살을
##궂게
민우
##정책과
480
산산이
찾아온다
Remix
UR
분장
염기
앞서는
제작할
침묵했다
하루하루
황무
떠나자
송두리
느끼고는
많았으나
##그럽
##218
##lin
Sam
앞서서
허술한
##여분
##/1/
반말
중국군
침공을
술기
우마
초딩
##작업이
망가져
축구의
하나이며
정현은
취해야
##있었지만
인가대수
주길
펜실
Pol
##fin
스캇
주동
타파
##치기도
세인트루이스
미라이
어릴적
장추
##방울을
올스타전
나뭇가지를
급선
미켈
한영
슈팅을
##마족
민족이
부지기
위용을
장비와
무시하며
마케도니아
##!-
##심지어
쓰러지
환호를
##,,,,,,
##내린
##루루
알현
##게이션
##으려던
기름이
예선을
책임감을
asked
##box
지석
##라이너
낱낱이
대안이
까닥
비인
뾦닯
##수있는
당국에
얻어서
소저
압살
대사도
런던의
강화했다
##·4
인물에
작가인
샌디에이고
훑어보았다
귀띔
모질
어조
##노라면
##ours
진행에
레오나르
그지없었다
잎이
기차를
손님은
이미지의
##진정
men
받아온
배우의
의미와
확고히
ICBM
거점을
구르는
남짓한
여유도
닮았
동두
부검
##생활이
번뜩이는
일종으로
아랫입술을
골칫
쭉쭉
##조원에
##쉬운
##여우
본거지
세자는
형식은
원작으로
달마
짚었다
체력도
회동을
##난은
천성
##어로는
조심해
##셨죠
##.30
따고
##참고로
너머에
시가총액
핸드레이
업계에서는
이곳에서는
두달
씨도
##시즌에
##지급
어디든
여전한
얼굴이다
히틀러의
괜찮지
기력을
나쁘진
""
장장
##files
마찬가지야
둔한
앗아
쾌활
멧돼지
모아야
최초수록
##벽은
##서서
썼을
킬킬
##frac
Val
마음먹
반하는
블로킹
어린이가
##춤을
공국
##시에도
동향을
바람도
벗겨진
용병이
##헤르
##현이가
넥스트
연장을
##라곤
##ATO
슈가
입상
살림을
통제할
다이노스
그렌
디디
잡았
다다른
두산의
아라크
Art
대결은
따르게
##선생님이
중얼거린
되어있었다
표결
현미
레스터
핸들을
밟을
미션이
중위는
##ports
손등으로
##인척
규칙이
레오나
불안에
지휘관이
할말
##등에서
꺼낸다
##당했다는
망설이고
시상식에서
신승
양팀
남대문
##중이었다
만들어낼
제작진의
##괴물
미호
신쥬
##비슷한
신전을
1908
뜬금없는
those
났지만
다녔던
기억나지
느껴지고
부러지는
터트리며
살아남았다
비정상적으로
건네는
테마로
투입할
동원해서
까고
땇덒
멧돼
별은
패가
##???"
선거인
에서도
저희들이
적발됐다
학생들도
오래전에
뀌
##기종
관음
출토
##볼루션
1,3
괴물은
무성한
작품도
지방이
흐름은
기뻐하고
생명력이
아델라이
포개
##식이다
##원짜리
183
돌려보내
##이명
넵튠
부순
짜서
펜을
상대에
용어는
형태이다
후반부터
됬
텍사
현청
촤
조은
까마득
미라클
초상화
극찬
란스
킬을
증명해
지형이
퍼붓는
사라지기
##윞밻
발트
목표에
사망자가
알아주는
##법적
여단
영조
초선
##데스가
공세에
띄우는
배틀을
오늘에
늑대인간
##물론입니다
못하겠다는
##pi
뿌연
하연
호오
마법도
형식적인
##헬기
합숙
서버가
이렇다할
아시다시피
경공
윤정
철기
서브컬
종교가
전략이다
돌아다니면서
##웠어요
직업에
저택에서
제임스는
기득권
안정성
지방으로
어찌되었든
##스스로
##올리는
본국
오모
해로
버젓이
##시위
해경은
꼭대기에
맡았으며
##どう
##not
글렌
뿌듯
양녕
엎어
길이를
대표에게
오랜만이
지난번에
##원식
##RAM
느니
신변
핸들
반대가
##하겠다며
그룹으로
북아메리카
##고분
##예고
##코이
##협회의
room
있을텐데
추락했다
##렛은
이딴
리서치
맞섰다
상승에
호되게
구성했다
문제에서
불법으로
연약
체조
범죄의
활기찬
일컫는다
##.).
얌전한
여럿이
초고속
브레이크를
##봉에
벌칙
약소
182
생각에는
보였습니다
아니었습니다
##-0-
##연기를
##으시는
개인은
클레오
물었지만
운영되는
이사장이
덤덤
앙리
차리
많아요
거미줄
내려찍
초사이어
소인
보좌관
아닌지라
자연과학
지상역으로
##봞돘
흘리
팔았다
국민건강
인터페이스
##틀리
건드리
낙하산
용병들이
##그렁
앞다
출중
##대상은
여행은
입안으로
막으려고
모양새다
시점부터
피하려고
뛰어올랐다
##하스
##병들의
시안의
아니군
자들도
장사가
금지되어
건은
출전할
open
##류나
모멘
걱정마
##아름다운
무단으로
##멀리
##웹툰
끝맺
암암
가리며
소환에
외국계
초유의
형체를
고려하고
하옵니다
##늸웙
134
살아있다는
시작했다는
직전인
아니었으나
東
널브
라임
썼고
##트릭스
131
KBL
사자의
##세키
##으란
##자세
대야
203
가스가
희망은
고양이는
시민사회
프로농구
후보에게
##프도
단추
못살
차게
취지를
겠다
다니면
스네이
알려지고
베네수엘라
##브에
##비만
##채용
##히드
맥시
산호
감으며
새벽녘
아리랑
내보낸
주장과
쓰러뜨릴
##십을
##이만
근력
구조와
사안이
쇼파에
백남
동생과
멸망한
아니할
##eneral
##어쩐
무휼
붓을
연꽃
터프
그늘이
대응에
됐는지
부탁이
불행을
탄환을
흘리지
개최된다
불완전한
반증
백종
최지
##포스트
얼음의
하루히
결승골을
엉겁결에
##황금
##바라기
레이지
마사지
모은다
소드를
스탠다드
##앙이
계류
보이질
공손하게
활동했던
후회하지
##볼이
늘린
##으시고
강했던
##드라이브
에피소드에서는
##개년
##네들
단자
기구를
둘러본
의아하게
아이스크림을
##링에
금상
빅터
대상자
쐐기를
말씀드리
고달
신령
꼽혔다
출연하여
##use
부둥켜
수다를
친박계
그렇겠지
##터치
##속까지
귀에는
기승을
얼마후
##back
깨닫는
우혁의
##틴을
##udd
군대와
본성을
슬픔과
##하였으니
기분이다
##기초
연을
온데
외과
빼앗겨
oh
싸웠던
일축했다
잡담
어느샌
지원도
체온이
그럴듯한
작품들을
##품인
이뤘
헤어지고
머리끝까지
##였군
##10)
관우
기내
도려
##스트리
조금전
그외에도
자체였다
필요하며
##각각
모건
수행한
주장할
휩쓸고
검색하면
있어서다
##For
복역
부처님
앞섰다
주축이
지방은
같아서는
##유형
동질
뒤처
##그라드
거기엔
근무한
기초가
전해진
책들을
까다롭다
프로젝트는
밖은
청성
톱니
회부
##9200
넘치고
마키아
##병우
오장
국토부
반란군
옮겨져
지방도
神
초를
"19
범인의
전문가의
##cdn
자괴
대립이
초까지
나이트의
지원으로
처리하기
것이옵니다
도이
갈등과
떨구고
변해서
시체로
최씨가
호수의
아슬아슬한
원룸
3,4
아이린
유니온
폭발로
결혼해서
영역으로
nothing
##청소
되냐
피크
감싸며
미쳤어
뽑는다
학교폭력
##톋죂
호령
##타로는
변화로
반짝이며
##영주
현실적
막아내는
중점적으로
##자신을
고치고
차례가
청구할
맞이하게
화기애애
건넌
빳빳
솔저
작위
올려져
##거와
##겼을
##우승
##채와
말해줄
채우지
선택하여
애완동물
##thread
원내수석부대표
웃기만
죽여버릴
표명했다
차지하였다
##연애
피셔
##박람회
##선거구
김씨를
음료수
##텔은
가쿠
건물과
생산에
들고있던
밀접
소신
순방
면접을
선거는
저녀석
서야
캔디
동쪽의
미지수다
영화에서는
##박람
##소생
붙고
엔도
길드의
다물어
발하고
눈초리를
분석하는
경외
다면
값비싼
설치돼
슬라임
애로우
##마녀
##터진
값진
감각에
미소년
봉인이
장난기
못하다가
알아차리고
전국동시지방선거
##오에
##타니아
걸었던
분들도
제출할
죄책감
출장을
가운데로
공격에서
때까지도
##쌀을
범한
외딴
고전을
보디가
지혜의
외치자
##너희들은
어려워서
##동굴
나돌
청중
청혼
##김정은
자동화
특성과
끄덕이자
##hammer
##약과
때인
더민주
따라올
사랑받는
폐지되었다
톈
##오호
어음
(17
##이아
##허어
수렵
ATM
데뷔전을
마주하고
참가하여
고등학교에
전뇌
##달라며
소속이
러시아에
고승
연립
##겼지만
##/01/
플레이어들이
감리
##작업에
148
도로에
남아있을
바운
불렀고
소스를
서비스의
156
깨졌다
베이커
울음이
감소하는
소비자에게
##.99
성원
장내
청풍
단장이
합참의
괴로움을
내버려두고
터미네이터
형도
고독한
낑
용돈
정강
집단을
호호호
말씀드릴
자카르
면에서도
이쯤에서
##몽을
가증
펜스
이쪽에서
몽둥
슈타
##병원의
Top
채택한
무승부를
##곡과
##멸을
##INE
동감
윤이
우세를
바텐
비숍
시설은
성장세를
플레이어블
쐈
고단
이발
안정적
real
교재
막시
속히
처량
대개의
Every
세단
공주와
무공에
내뿜으며
JP
##왔어요
##운동은
##인이며
잡았던
점차로
치솟는
하연의
##고대
##했냐
교묘
족의
호문
들이쉬
서글픈
성직자
주재로
참석하고
버렸습니다
##하여간
노래와
젂
##다양
##링턴
##콜로
내신
##프리트
권력에
##붕이
백사
여명
95%
##이라고요
낙천
예이다
생각해볼
인정되는
저항하는
팝픈뮤직
카논
##리나의
162
벌금을
불량배
증가해
천차만
폭발한
휘발유
믿습니다
싱글벙글
했는데도
##늦은
우람
##렀지만
선후배
##했을지도
보험료를
세찬
절레
중퇴
같으나
과목을
발사된
어기고
보여주는데
강석
도어
##세트는
계기는
런던에서
어떨까요
허용하고
세빌
학계
던지면
목사가
부리지
어둡게
##하기라도
오펜
##공장을
강화한
굴렸다
쓰라고
손으로는
##える
##김치
##운전을
##adow
단서가
저희들은
승하
엔화
OPS
악착
타율은
들어가도
참고하자
겨를도
더하면
빼앗는
기술적인
할아버지와
##충격
##여전히
same
##lr
신참
##스럽기
314
싯
결함이
무예를
(2012
사유로
액체를
풀어서
##야아
##욱과
테다
그따위
그녀들을
##컨설
사업장
이점이
중전차
증오를
miss
무렵에는
표시된다
부엉
미즈키
비비며
영화와
논의하고
류현진이
발생하게
##때와
남색
증설
##였음을
그만둔
노래도
참가하고
##하하하하하
##aker
검은색의
공감대를
목사는
뿜으며
취미는
한다거나
회장에게
##홀드
총총
##드라이
##사업과
답변이
시계가
면할
쿠웨이트
##십쇼
연초
반복하고
의구심을
강현
골랐
글과
##공사에
##공사와
울창한
카오루
##플이
너털
안과
##별을
##환승
목은
병든
태안
자르는
햇빛에
활동과
##걸음으로
##(2013
동생에게
새벽부터
나란
##협정을
##히기도
못했는지
행사하는
국무총리가
##굉장
선형
말았던
무승부
엮이는
표기를
풀려난
도시이다
도시재생
컴퓨터로
##수능
유랑
거만한
총선을
침입해
예전보다
뒷면
파나
홍삼
##사업자
뒤섞인
모으면
연계한
영지의
확인사
하루에도
##이잉
숙녀
내던져
상인들이
응원하는
일본군이
집중력을
레이폴트는
클럽에서
##참조
말단
##제에게
데려오
20%,
##원수
불렸던
신설된
질투를
퓨처스
운전면허
역임하였다
덱이
본문
쥐며
##어버려
##해놓은
바크의
의혹도
오래였다
제작진은
高
##레벨이
건드릴
밀치고
바깥의
시점의
평화가
##인건
당돌
알려줄
여지를
길이었다
잡아당겨
출발하여
연구위원은
##신부
롤챔
##ught
어안이
이리도
철없는
나간다는
통해서만
포켓몬을
##raw
##까지를
상상해
주체할
곤란해
길가메
도전과
촛불을
“(
험상
##경제적
##이었지요
자연적으로
단양
고릴라
지켜줄
수익률을
시스템이다
끝끝내
출입이
바칠
시설에
##아버린다
나이지리아
남정
리무
야자
##라이징
손만
##다고요
수두룩
포탄이
허스키
##퍼레이션
##페스티벌
공지사항
##으루
수줍은
##공격으로
옵티머스
적용되어
##뚜껑
고공
능청
박형
얘는
##누스가
##바이크
계급의
철기는
없습니까
오십시오
##티넨
셜록
##보이지
추천한
배신하고
개최한다고
고객들에게
폭발적으로
##이번엔
적응을
처하게
물러나고
인간이다
##급수
없긴
소환이
시내에
주어서
종합적인
##국수
TR
감쪽
로미
우스갯
재정비
끝판
연호
재도
##간에는
따르던
인명피
자비를
★★★★
변함없는
열병
첨예
##생들의
말리지
몸매가
문자로
블러디
작가로
실질적으로는
자나
##판정이
##협회에
임신한
설립되었다
우등
헬로
##기사는
레시피
특기는
부엌에서
평가에서
까치
별일
##치기로
높으면
센터를
내리면서
괴로워하는
도타
성곽
갈래로
기상청
제도에
유의해야
##2:
사옥
두렵지
반격에
신청은
통신이
매어
카야
신기술
피해량이
대졸
수야
해칠
번역이
성공해
##넨의
##얼음
##98)
담합
앙쥬
##왕국의
사제의
여행에
엔딩에서는
##bp
심드
요술
했냐
골프장
신원을
구분된다
##돈다
진입할
##ature
있을거야
프리메라
확신하고
##icle
논리적
루나는
처리에
알려주지
보죠
허연
##스케가
파문을
##ened
XXX
너희는
드나드는
##망정
성실히
약세를
IF
김사
세간의
왕국에
측면도
뒤집어쓴
##바디
문양
##시위를
주사를
증가와
무엇인지를
경기침
바탕을
소속인
점잖게
최씨의
결혼하여
활동하며
##남용
##먼드
##평소
국기
따지지
시체의
외마디
##증진
입당
이란의
##프로골프
경기도의
사람이면
사쿠라이
달게
피울
밑에는
사용은
새끼는
전체에게
통보했다
막무가내로
넙
##검진
솔라
키와
##-100
일어설
자욱한
콤플렉
그러는데
헤록스탄
우리에게는
깨어날
##팩을
덩굴
소연
우연한
##차곡
##시간대
##시스를
##실내
관리는
밀어내
유익한
지내게
몬스터들을
기린
놔두
##아버님
그쪽을
목적인
웃음소리
자택에서
말씀하셨다
시리즈분류
거유
보였을
뿔뿔이
지옥을
에스파냐
릕
##하핫
남도
헌원
흥국
136
본다고
상대하고
##꾸나
##실제
##예금
초의
로고가
내세우고
##지라고
146
식물의
창작물
didn
필살기는
환자들의
##そう
##afe
현우
누리는
로이의
##ste
기연
뵙고
주절
검증을
동료들
드넓은
보상은
토비
##지하철
##함에서
##리스에게
물건들이
##향과
##협력을
다이크
영국을
수서
주섬
명함을
오르자
코치는
##주겠다는
1911
가본
베드
적군의
착실히
[...]
